{"<BOS>":0,"<EOS>":1,"<URL>":2,"<EMAIL>":3,"<PHONE>":4,"!":5,"\"":6,"#":7,"$":8,"%":9,"&":10,"'":11,"(":12,")":13,"*":14,"+":15,",":16,"-":17,".":18,"/":19,"0":20,"1":21,"2":22,"3":23,"4":24,"5":25,"6":26,"7":27,"8":28,"9":29,":":30,";":31,"<":32,"=":33,">":34,"?":35,"@":36,"A":37,"B":38,"C":39,"D":40,"E":41,"F":42,"G":43,"H":44,"I":45,"J":46,"K":47,"L":48,"M":49,"N":50,"O":51,"P":52,"Q":53,"R":54,"S":55,"T":56,"U":57,"V":58,"W":59,"X":60,"Y":61,"Z":62,"[":63,"\\":64,"]":65,"^":66,"_":67,"`":68,"a":69,"b":70,"c":71,"d":72,"e":73,"f":74,"g":75,"h":76,"i":77,"j":78,"k":79,"l":80,"m":81,"n":82,"o":83,"p":84,"q":85,"r":86,"s":87,"t":88,"u":89,"v":90,"w":91,"x":92,"y":93,"z":94,"{":95,"|":96,"}":97,"~":98,"¡":99,"¢":100,"£":101,"¤":102,"¥":103,"¦":104,"§":105,"¨":106,"©":107,"ª":108,"«":109,"¬":110,"®":111,"¯":112,"°":113,"±":114,"²":115,"³":116,"´":117,"µ":118,"¶":119,"·":120,"¸":121,"¹":122,"º":123,"»":124,"¼":125,"½":126,"¾":127,"¿":128,"À":129,"Á":130,"Â":131,"Ã":132,"Ä":133,"Å":134,"Æ":135,"Ç":136,"È":137,"É":138,"Ê":139,"Ë":140,"Ì":141,"Í":142,"Î":143,"Ï":144,"Ð":145,"Ñ":146,"Ò":147,"Ó":148,"Ô":149,"Õ":150,"Ö":151,"×":152,"Ø":153,"Ù":154,"Ú":155,"Û":156,"Ü":157,"Ý":158,"Þ":159,"ß":160,"à":161,"á":162,"â":163,"ã":164,"ä":165,"å":166,"æ":167,"ç":168,"è":169,"é":170,"ê":171,"ë":172,"ì":173,"í":174,"î":175,"ï":176,"ð":177,"ñ":178,"ò":179,"ó":180,"ô":181,"õ":182,"ö":183,"÷":184,"ø":185,"ù":186,"ú":187,"û":188,"ü":189,"ý":190,"þ":191,"ÿ":192,"Ā":193,"ā":194,"Ă":195,"ă":196,"Ą":197,"ą":198,"Ć":199,"ć":200,"Ĉ":201,"ĉ":202,"Ċ":203,"ċ":204,"Č":205,"č":206,"Ď":207,"ď":208,"Đ":209,"đ":210,"Ē":211,"ē":212,"Ĕ":213,"ĕ":214,"Ė":215,"ė":216,"Ę":217,"ę":218,"Ě":219,"ě":220,"Ĝ":221,"ĝ":222,"Ğ":223,"ğ":224,"Ġ":225,"ġ":226,"Ģ":227,"ģ":228,"Ĥ":229,"ĥ":230,"Ħ":231,"ħ":232,"Ĩ":233,"ĩ":234,"Ī":235,"ī":236,"Ĭ":237,"ĭ":238,"Į":239,"į":240,"İ":241,"ı":242,"Ĳ":243,"ĳ":244,"Ĵ":245,"ĵ":246,"Ķ":247,"ķ":248,"ĸ":249,"Ĺ":250,"ĺ":251,"Ļ":252,"ļ":253,"Ľ":254,"ľ":255,"Ŀ":256,"ŀ":257,"Ł":258,"ł":259,"Ń":260,"ai":261,"Ġp":262,"as":263,"Ġt":264,"Ġk":265,"au":266,"Ġn":267,"Ġ<":268,"OS":269,"is":270,"Ġs":271,"in":272,"ie":273,"ir":274,"ar":275,"iu":276,"an":277,"Ġne":278,"al":279,"Ġm":280,"Ġv":281,"ti":282,"Ġd":283,"Ġb":284,"BOS":285,"EOS":286,"es":287,"os":288,"us":289,"ik":290,"Ġir":291,"Ġg":292,"at":293,"Ġj":294,"er":295,"ok":296,"ad":297,"et":298,"am":299,"im":300,"en":301,"ur":302,"..":303,"iau":304,"el":305,"Ġr":306,"uo":307,"ia":308,"Ġl":309,"Ġtai":310,"Ġpr":311,"tu":312,"or":313,"Ġis":314,"Ġsu":315,"av":316,"az":317,"iai":318,"ak":319,"it":320,"oj":321,"ej":322,"on":323,"ei":324,"Ġz":325,"ab":326,"ap":327,"om":328,"Ġkad":329,"eik":330,"Ġkai":331,"Ġpas":332,"Ġvis":333,"Ġi":334,"ij":335,"Ġbu":336,"iek":337,"Ġman":338,"Ġgal":339,"ra":340,"ien":341,"ek":342,"io":343,"Ġtik":344,"Ġat":345,"od":346,"il":347,"kai":348,"uz":349,"ta":350,"ais":351,"ĠT":352,"aug":353,"Ġnes":354,"ĠN":355,"Ġar":356,"ka":357,"ies":358,"Ġdar":359,"id":360,"em":361,"Ġuz":362,"...":363,"ĠP":364,"Ġkur":365,"Ġpa":366,"ant":367,"Ġbet":368,"Ġap":369,"ciau":370,"ĠK":371,"ĠA":372,"ĠS":373,"Ġy":374,"ius":375,"aus":376,"Ġo":377,"og":378,"ĠD":379,"ku":380,"Ġf":381,"Ġ-":382,"Ġpat":383,"Ġkaip":384,"ys":385,"tin":386,"Ġtok":387,"abai":388,"Ġyra":389,"Ġnor":390,"eg":391,"Ġtur":392,"Ġas":393,"ĠM":394,"ol":395,"Ġc":396,"um":397,"ed":398,"kas":399,"avo":400,"Ġper":401,"Ġjau":402,"yt":403,"ko":404,"Ġger":405,"pr":406,"Ġ(":407,"ks":408,"ig":409,"vo":410,"Ġnuo":411,"Ġgr":412,"ciu":413,"yti":414,"Ġmok":415,"ĠB":416,"iaus":417,"ĠJ":418,"and":419,"ĠI":420,"Ġreik":421,"ing":422,"ios":423,"ĠV":424,"ot":425,"Ġkaz":426,"ima":427,"Ġras":428,"ija":429,"Ġtaip":430,"Ġzm":431,"Ġats":432,"bu":433,"tr":434,"Ġjei":435,"Ġ1":436,"Ġpar":437,"ma":438,"ĠL":439,"eis":440,"gal":441,"Ġvien":442,"Ġ\"":443,"Ġlabai":444,"Ġkas":445,"Ġdaug":446,"Ġkok":447,"yv":448,"ent":449,"etu":450,"ba":451,"eti":452,"yk":453,"gi":454,"Ġsk":455,"iur":456,"ĠG":457,"Ġ:":458,"uos":459,"ada":460,"Ġkar":461,"na":462,"tas":463,"aud":464,"to":465,"ina":466,"te":467,"aip":468,"oje":469,"Ġcia":470,"gu":471,"Ġnet":472,"ĠO":473,"Ġniek":474,"uk":475,"int":476,"Ġkl":477,"imas":478,"Ġto":479,"iz":480,"ip":481,"Ġbuvo":482,"Ġta":483,"Ġpl":484,"Ġtikr":485,"Ġkit":486,"yb":487,"imo":488,"ejo":489,"ama":490,"Ġsus":491,"aik":492,"auk":493,"ul":494,"Ġnep":495,"uoj":496,"Ġapie":497,"mas":498,"Ġpo":499,"ink":500,"Ġtr":501,"tik":502,"Ġrase":503,"iv":504,"ras":505,"Ġsavo":506,"la":507,"Ġka":508,"tuv":509,"00":510,"ejau":511,"Ġsv":512,"tai":513,"Ġnu":514,"Ġpir":515,"iem":516,"Ġten":517,"ias":518,"tis":519,"iam":520,"abar":521,"un":522,"ez":523,"Ġant":524,"Ġ,":525,"Ġ2":526,"ac":527,"dz":528,"Ġdr":529,"iaip":530,"Ġgyv":531,"Ġver":532,"ijos":533,"Ġzmon":534,"ov":535,"Ġkiek":536,"Ġnus":537,"Ġtu":538,"Ġfil":539,"Ġgali":540,"Ġdel":541,"esn":542,"ep":543,"aid":544,"ym":545,"Ġmano":546,"sl":547,"Ġju":548,"ĠMan":549,"Ġin":550,"Ġsak":551,"Ġzin":552,"Ġpad":553,"Ġkazk":554,"ite":555,"rod":556,"Ġim":557,"Ġpan":558,"Ġgraz":559,"__":560,"Ġlai":561,"Ġneb":562,"Ġveik":563,"Ġreikia":564,"ev":565,"iais":566,"Ġtikrai":567,"yg":568,"Ġsav":569,"Ġdal":570,"ĠR":571,"inti":572,"Ġak":573,"Ġid":574,"Ġpav":575,"Ġkel":576,"Ġes":577,"Ġnors":578,"Ġval":579,"inka":580,"Ġner":581,"Ġjis":582,"Ġji":583,"ine":584,"auj":585,"Ġsp":586,"ic":587,"Ġbus":588,"iskai":589,"Ġprad":590,"end":591,"zin":592,"odel":593,"Ġties":594,"Ġdabar":595,"Ġbutu":596,"Ġtas":597,"ĠE":598,"oju":599,"Ġuzs":600,"Ġmaz":601,"imu":602,"Ġmetu":603,"Ġzmog":604,"Ġiss":605,"men":606,"Ġprie":607,"Ġpati":608,"ĠTai":609,"Ġ;":610,"up":611,"Ġnem":612,"Ġturi":613,"ĠAs":614,"ietuv":615,"Ġsiaip":616,"Ġpro":617,"Ġkr":618,"st":619,"Ġjie":620,"one":621,"yr":622,"Ġpard":623,"Ġe":624,"Ġnieko":625,"Ġnei":626,"erg":627,"amas":628,"iena":629,"Ġnera":630,"esi":631,"ĠC":632,"Ġtiek":633,"ud":634,"Ġpak":635,"Ġgyven":636,"Ġziur":637,"var":638,"uoti":639,"le":640,"Ġmet":641,"ams":642,"tor":643,"Ġarba":644,"Ġpaz":645,"eng":646,"iems":647,"Ġatrod":648,"ĠBet":649,"eciau":650,"Ġpap":651,"--":652,"ank":653,"ag":654,"inu":655,"ines":656,"Ġbe":657,"tat":658,"Ġaps":659,"Ġgalima":660,"je":661,"Ġprek":662,"Ġdid":663,"asi":664,"Ġsal":665,"ec":666,"oma":667,"Ġtada":668,"tos":669,"Ġik":670,"ele":671,"Ġjo":672,"ati":673,"Ġkal":674,"yn":675,"Ġpagal":676,"Ġ3":677,"ĠIr":678,"isk":679,"uod":680,"usu":681,"Ġdraug":682,"ui":683,"tar":684,"Ġmat":685,"Ġdarb":686,"Ġpasak":687,"enk":688,"Ġbuti":689,"iausiai":690,"osi":691,"oja":692,"irb":693,"ang":694,"tus":695,"iog":696,"Ġklaus":697,"Ġnel":698,"Ġvar":699,"laus":700,"Ġviena":701,"ĠZ":702,"Ġirgi":703,"ain":704,"Ġdaz":705,"ĠJei":706,"Ġmokes":707,"cia":708,"iniu":709,"....":710,"Ġau":711,"vai":712,"Ġkom":713,"Ġbl":714,"Ġskai":715,"Ġvel":716,"Ġpus":717,"Ġsi":718,"ist":719,"inig":720,"Ġpam":721,"Ġtau":722,"yd":723,"oti":724,"Ġsiu":725,"Ġmen":726,"Ġnegal":727,"ĠGal":728,"eje":729,"tais":730,"mok":731,"Ġvai":732,"eja":733,"Ġtar":734,"irs":735,"ziu":736,"Ġkon":737,"yje":738,"Ġsit":739,"zd":740,"Ġmane":741,"Ġjos":742,"me":743,"Ġdaugiau":744,"va":745,"Ġpinig":746,"Ġatrodo":747,"ju":748,"Ġviskas":749,"liu":750,"uot":751,"bet":752,"Ġpris":753,"eks":754,"Ġvisi":755,"Ġko":756,"veik":757,"dar":758,"ino":759,"Ġpries":760,"kur":761,"Ġnen":762,"Ġpras":763,"ib":764,"Ġkam":765,"ĠU":766,"Ġpats":767,"mo":768,"Ġgau":769,"eid":770,"kaip":771,"Ġjeigu":772,"avau":773,"Ġkazkok":774,"Ġvie":775,"Ġzmones":776,"Ġiki":777,"eb":778,"ob":779,"ĠLietuv":780,"Ġatv":781,"kr":782,"Ġnaud":783,"ĠAr":784,"Ġnezin":785,"ones":786,"gr":787,"Ġtoks":788,"cius":789,"eit":790,"ose":791,"aul":792,"eju":793,"Ġ5":794,"!!":795,"Ġpatinka":796,"Ġan":797,"Ġtokia":798,"omis":799,"ekl":800,"Ġkurie":801,"Ġtuo":802,"Ġ.":803,"si":804,"Ġh":805,"Ġidom":806,"Ġsen":807,"ame":808,"Ġgerai":809,"Ġisl":810,"Ġpal":811,"Ġst":812,"Ġtiesiog":813,").":814,"Ġnebu":815,"ut":816,"ĠF":817,"ĠH":818,"amu":819,"elis":820,"Ġsupr":821,"Ġbuna":822,"ĠNa":823,"ybe":824,"Ġtokiu":825,"ini":826,"inis":827,"kad":828,"Ġmes":829,"eikia":830,"Ġpasir":831,"ojo":832,"Ġpirk":833,"Ġil":834,"Ġlab":835,"Ġversl":836,"Ġsun":837,"Ġvisa":838,"Ġmanau":839,"uoja":840,"ter":841,"ĠPr":842,"iausia":843,"eliu":844,"Ġpaj":845,"Ġnetur":846,"ciai":847,"Ġnesu":848,"Ġdazn":849,"Ġnauj":850,"usi":851,"UR":852,"okiu":853,"Ġpadar":854,"yl":855,"ĠVis":856,"eda":857,"Ġplau":858,"vis":859,"Ġbr":860,"10":861,"Ġki":862,"Ġdiena":863,"ate":864,"ema":865,"Ġkuri":866,"Ġskir":867,"ime":868,"Ġbuv":869,"inin":870,"ial":871,"he":872,"Ġais":873,"Ġbal":874,"nes":875,"Ġesu":876,"Ġdaly":877,"Ġdv":878,"Ġfor":879,"arb":880,"ga":881,"mu":882,"Ġteis":883,"amos":884,"op":885,"Ġvisai":886,"Ġpanas":887,"Ġturiu":888,"ird":889,"but":890,"____":891,"inga":892,"Ġbut":893,"adin":894,"Ġasmen":895,"lt":896,"ern":897,"eal":898,"iaur":899,"irk":900,"askai":901,"ĠDD":902,"ind":903,"Ġal":904,"ild":905,"ĠTik":906,"ojau":907,"Ġfilmas":908,"Ġpapras":909,"for":910,"Ġor":911,"Ġtam":912,"Ġkokia":913,"yks":914,"Ġjuos":915,"Ġgalv":916,"ĠNu":917,"Ġmeg":918,"cija":919,"Ġviska":920,"akar":921,"),":922,"Ġ10":923,"Ġmerg":924,"Ġkol":925,"ami":926,"Ġkarta":927,"Ġzmoniu":928,"aj":929,"Ġgeriau":930,"Ġreikal":931,"Ġatsak":932,"uoju":933,"yta":934,"VM":935,"ĠNes":936,"Ġmin":937,"Ġpatiko":938,"aciau":939,"idu":940,"eli":941,"vz":942,"mal":943,"Ġzmogus":944,"ybes":945,"Ġjog":946,"Ġkiekv":947,"esiu":948,"cio":949,"Ġdirb":950,"Ġja":951,"Ġveikla":952,"Ġlaiko":953,"Ġtie":954,"enu":955,"iju":956,"Ġnuom":957,"Ġparas":958,"los":959,"sn":960,"per":961,"Ġvienas":962,"idar":963,"Ġtavo":964,"Ġ?":965,"ytu":966,"istr":967,"apn":968,"endr":969,"tes":970,"Ġnori":971,"Ġ4":972,"bl":973,"antis":974,"ĠPVM":975,"Ġdien":976,"Ġmie":977,"\".":978,"antu":979,"imai":980,"Ġpasku":981,"eisk":982,"inau":983,"Ġvaik":984,"imus":985,"ĠNor":986,"met":987,"Ġnelabai":988,"stu":989,"eles":990,"ĠIs":991,"Ġkv":992,"ties":993,"Ġw":994,"ves":995,"Ġbud":996,"ĠPas":997,"Ġzod":998,"ver":999,"nu":1000,"ĠKaip":1001,"Ġkn":1002,"egistr":1003,"Ġsau":1004,"Ġnek":1005,"Ġnezinau":1006,"Ġsl":1007,"Ġpasl":1008,"isku":1009,"Ġel":1010,"ard":1011,"Ġ)":1012,"Ġint":1013,"Ġkita":1014,"Ġsaskai":1015,"Ġjus":1016,"Ġnam":1017,"Ġbent":1018,"----":1019,"Ġnepr":1020,"asar":1021,"pl":1022,"eta":1023,"Ġtol":1024,"Ġneis":1025,"Man":1026,"iep":1027,"Ġband":1028,"val":1029,"Ġned":1030,"mes":1031,"Ġkuris":1032,"Ġati":1033,"Ġa":1034,"oks":1035,"Ġpaziur":1036,"Ġva":1037,"ums":1038,"Ġblog":1039,"uose":1040,"eln":1041,"dziu":1042,"ika":1043,"Ġna":1044,"oji":1045,"Ġsm":1046,"ĠSveik":1047,"Ġpardav":1048,"kar":1049,"Ġpil":1050,"Ġmetus":1051,"Ġkartais":1052,"man":1053,"Ġkazkas":1054,"Ġtos":1055,"Ġlyg":1056,"Ġmas":1057,"anc":1058,"Ġtaciau":1059,"oter":1060,"su":1061,"siu":1062,"Ġ20":1063,"iniai":1064,"iklaus":1065,"les":1066,"Ġkazka":1067,"ingai":1068,"Ġind":1069,"Ġilg":1070,"anti":1071,"aa":1072,"uma":1073,"Ġvisada":1074,"Ġsako":1075,"Ġstr":1076,"uti":1077,"Ġbendr":1078,"Ġkoks":1079,"ch":1080,"000":1081,"Ġkuriu":1082,"ĠNe":1083,"cijos":1084,"iim":1085,"Ġtokie":1086,"yma":1087,"Ġziaur":1088,"ave":1089,"Ġab":1090,"Ġkazkaip":1091,"ug":1092,"odo":1093,"Ġgeras":1094,"Ġnoriu":1095,"ĠSveiki":1096,"Ġpor":1097,"Ġlabiau":1098,"Ġsavai":1099,"inio":1100,"Ġspal":1101,"oms":1102,"yp":1103,"Ġsapn":1104,"ĠTaip":1105,"ymas":1106,"ejus":1107,"Ġpers":1108,"uotuv":1109,"tiek":1110,"Ġit":1111,"Tai":1112,"ingas":1113,"ymo":1114,"Ġbuvau":1115,"Ġser":1116,"aig":1117,"URL":1118,"yz":1119,"kst":1120,"tur":1121,"ja":1122,"ting":1123,"inas":1124,"Ġ...":1125,"Ġtoki":1126,"Ġtodel":1127,"Ġ'":1128,"Ġkodel":1129,"Ġlaik":1130,"Bet":1131,"ysiu":1132,"Ġatl":1133,"Ġmokyk":1134,"Ġsuk":1135,"Ir":1136,"ĠAn":1137,"Ġlietuv":1138,"Ġsud":1139,"Ġbais":1140,"Ġneg":1141,"idual":1142,"atau":1143,"Ġkain":1144,"Ġdarbo":1145,"Ġsutar":1146,"amp":1147,"iska":1148,"teb":1149,"Ġkada":1150,"eig":1151,"Ġsek":1152,"Ġnoreciau":1153,"Ġtrup":1154,"ers":1155,"amai":1156,"Ġvistiek":1157,"Ġsti":1158,"Ġpask":1159,"Ġ:]":1160,"Ġaisku":1161,"??":1162,"Ġmir":1163,"urn":1164,"Ġpasaul":1165,"Ġse":1166,"Ġlik":1167,"Ġknyg":1168,"ziau":1169,"Ġvyr":1170,"Ġatveju":1171,"As":1172,"Ġnusip":1173,"Ġuzd":1174,"ars":1175,"pas":1176,"ats":1177,"ariu":1178,"ividual":1179,"Ġkuo":1180,"Ġproc":1181,"Ġvad":1182,"Ġjuok":1183,"Ġislaid":1184,"ete":1185,"Ġnormal":1186,"tov":1187,"lo":1188,"itik":1189,"Ġlauk":1190,"Ġgam":1191,"Ġparduotuv":1192,"Ġprekes":1193,"Ġpab":1194,"Ġpvz":1195,"ci":1196,"Ġtarp":1197,"ĠKai":1198,"iev":1199,"Ġnenor":1200,"lu":1201,"Ġtev":1202,"Ġpinigu":1203,"onu":1204,"Ġmed":1205,"iausias":1206,"Ġpirma":1207,"Ġkitu":1208,"inai":1209,"las":1210,"Ġgaliu":1211,"ona":1212,"Ġ9":1213,"Ġpaslaug":1214,"Ġkoki":1215,"\",":1216,"yciau":1217,"Ġnereikia":1218,"Ġvakar":1219,"aisk":1220,"Ġpriv":1221,"Ġvalg":1222,"okie":1223,"SD":1224,"oka":1225,"Ġmoketi":1226,"ojas":1227,"ne":1228,"ytis":1229,"Ġintern":1230,"Ġkeis":1231,"Ġmoket":1232,"eklar":1233,"Ġkurios":1234,"acija":1235,"ĠGer":1236,"Ġdem":1237,"Ġjam":1238,"Ġleng":1239,"Ġei":1240,"oz":1241,"oc":1242,"Ġ6":1243,"dzia":1244,"tum":1245,"uol":1246,"Ġvisus":1247,"vark":1248,"tim":1249,"inius":1250,"Ġzinau":1251,"aziu":1252,"Ġtruputi":1253,"Ġkalb":1254,"vir":1255,"Ġpirm":1256,"ote":1257,"ĠCia":1258,"Ġkomp":1259,"Ġ8":1260,"ĠIV":1261,"Ġmusu":1262,"Ġ7":1263,"umo":1264,"Ġdu":1265,"andien":1266,"intis":1267,"ana":1268,"Ġnepas":1269,"Ġprobl":1270,"ĠMano":1271,"Ġgrazu":1272,"Ġverslo":1273,"log":1274,"ksciau":1275,"Ġnepat":1276,"tom":1277,"tine":1278,"ĠW":1279,"Ġam":1280,"ata":1281,"Ġsur":1282,"adien":1283,"Ġapl":1284,"ans":1285,"forma":1286,"ipo":1287,"Ġbev":1288,"Ġsumok":1289,"Ġmoter":1290,"Ġsut":1291,"Ġkokiu":1292,"Jei":1293,"Ġniekas":1294,"iams":1295,"of":1296,"ems":1297,"rai":1298,"Ġveiklos":1299,"elio":1300,"Ġatsir":1301,"Ġjuod":1302,"entu":1303,"Ġmus":1304,"ejai":1305,"ĠDar":1306,"Ġindividual":1307,"Ġgreit":1308,"eina":1309,"Ġbei":1310,"if":1311,"idur":1312,"tina":1313,"Ġistor":1314,"kais":1315,"ĠTur":1316,"Ġtiksl":1317,"ĠY":1318,"Ġdaznai":1319,"Ġtema":1320,"oo":1321,"Ġdeklar":1322,"Ġvasar":1323,"alu":1324,"ijoje":1325,"Ġtuos":1326,"Ġzem":1327,"Ġmais":1328,"Ġvisiskai":1329,"Ġsita":1330,"Ġtokio":1331,"Ġimones":1332,"esne":1333,"aras":1334,"Ġsukur":1335,"ub":1336,"ymu":1337,"AI":1338,"iej":1339,"ens":1340,"Ġidomu":1341,"Ġjuk":1342,"Ġpeln":1343,"Ġkartu":1344,"iant":1345,"okia":1346,"ziur":1347,"pa":1348,"ykd":1349,"Ġies":1350,"onas":1351,"Ġnuos":1352,"Ġklien":1353,"eip":1354,"Ġvirs":1355,"Ġgera":1356,"re":1357,"Ġpag":1358,"Ġch":1359,"Ġsveik":1360,"aup":1361,"oniu":1362,"Ġmama":1363,"Ġtokios":1364,"Ġimone":1365,"Ġskait":1366,"ienas":1367,"kir":1368,"uok":1369,"Ġdir":1370,"Ġturetu":1371,"MI":1372,"umas":1373,"Ġgim":1374,"Ġnak":1375,"auti":1376,"Ġfak":1377,"Ġmenesi":1378,"Ġsiek":1379,"inks":1380,"Ġnesam":1381,"Ġnuomone":1382,"angi":1383,"iame":1384,"anciu":1385,"kait":1386,"esni":1387,"anda":1388,"etas":1389,"Ġjai":1390,"Ġjusu":1391,"sta":1392,"uik":1393,"ĠJeigu":1394,"Ġpriklaus":1395,"Ġgi":1396,"iskas":1397,"Ġbij":1398,"Ġprog":1399,"Ġisvis":1400,"Ġbeveik":1401,"amb":1402,"emis":1403,"eiskia":1404,"Ġnesupr":1405,"esnis":1406,"Ġ15":1407,"olog":1408,"aipsn":1409,"okum":1410,"ausi":1411,"Ġveid":1412,"ĠLabai":1413,"Ġnur":1414,"eko":1415,":-":1416,"Ġpra":1417,"Ġinforma":1418,"elb":1419,"mos":1420,"Ġlais":1421,"kus":1422,"Ġpagr":1423,"iln":1424,"esti":1425,"ena":1426,"Ġeur":1427,"Ġpac":1428,"Ġkaina":1429,"oto":1430,"est":1431,"Ġplauk":1432,"ail":1433,"Gal":1434,"era":1435,"egal":1436,"ou":1437,"kim":1438,"Ġpatik":1439,"Ġzmogaus":1440,"Ġnum":1441,"anas":1442,"Ġsn":1443,"Ġtem":1444,"Ġisg":1445,"ivai":1446,"yte":1447,"Ġrink":1448,"Ġof":1449,"omas":1450,"Ġdokum":1451,"Ġvisu":1452,"ins":1453,"Ġrekl":1454,"ĠKaz":1455,"iasi":1456,"atur":1457,"ejas":1458,"ijas":1459,"Ġsake":1460,"Ġsr":1461,"Ġyp":1462,"esio":1463,"ung":1464,"rauk":1465,"lap":1466,"ono":1467,"ier":1468,"Ġjok":1469,"ĠLietuvoje":1470,"Ġnetik":1471,"Ġvard":1472,"jau":1473,"toj":1474,"Ġsed":1475,"ki":1476,"ĠGr":1477,"Ġban":1478,"Ġvir":1479,"Ġrod":1480,"iuosi":1481,"Ġnemok":1482,"Ġplaukai":1483,"DD":1484,"Ġreal":1485,"Ġvand":1486,"ikos":1487,"Ġbat":1488,"Ġnegali":1489,"avimo":1490,"iul":1491,"Ġjokiu":1492,"Ġsug":1493,"ĠDabar":1494,"Ġtoliau":1495,"Ġtap":1496,"etai":1497,"ump":1498,"Ġfilm":1499,"zia":1500,"Ġrim":1501,"Ġpajamu":1502,"Ġkiti":1503,"Ġpateik":1504,"Ġgrazus":1505,"Ġran":1506,"irp":1507,"Ġsusir":1508,"tinai":1509,"Ġad":1510,"Ġsil":1511,"ĠBu":1512,"Ġpatar":1513,"ĠSu":1514,"iti":1515,"lai":1516,"ese":1517,"edu":1518,"itu":1519,"Ġlig":1520,"Ġpavadin":1521,"mm":1522,"AB":1523,"Ġ100":1524,"Ġnereik":1525,"Ġdaryti":1526,"Ġnebuvo":1527,"Ġmies":1528,"ĠVMI":1529,"Ġvisas":1530,"pras":1531,"Ġpaskui":1532,"Pr":1533,"antys":1534,"aila":1535,"alo":1536,"ke":1537,"Ġziauriai":1538,"Ġisp":1539,"Ġpinigus":1540,"Ġregistr":1541,"Ġvaid":1542,"Ġprod":1543,"etum":1544,"alus":1545,"inos":1546,"ĠAt":1547,"Ġturbut":1548,"Ġpasidar":1549,"iui":1550,"ome":1551,"Ġdrauge":1552,"Ġmel":1553,"Ġvalst":1554,"enka":1555,"ojai":1556,"Ġplan":1557,"ve":1558,"ysi":1559,"anoma":1560,"Ġjiems":1561,"eisti":1562,"Ġliu":1563,"Ġfilma":1564,"Ġgaun":1565,"ejimas":1566,"Ġnusipirk":1567,"Ġsvies":1568,"yba":1569,"ciaus":1570,"Ġpabai":1571,"Ġpamat":1572,"trauk":1573,"Ġsitu":1574,"Ġtave":1575,"Ġpatys":1576,"Ġpuse":1577,"Ġsunku":1578,"Ġnar":1579,"Ġgird":1580,"Ġ:)":1581,"Ġsave":1582,"itai":1583,"Ġsvar":1584,"ro":1585,"Ġtink":1586,"Ġpatir":1587,"ru":1588,"Ġtokius":1589,"Ġjaus":1590,"Ġdom":1591,"Ġpasik":1592,"ĠSiaip":1593,"Ġatsis":1594,"Ġ/":1595,"Ġvykd":1596,"Ġdazniausiai":1597,"Ġkiekviena":1598,"ĠMB":1599,"Ġproduk":1600,"ht":1601,"tinis":1602,"Ġstraipsn":1603,"usiu":1604,"ado":1605,"Ġiv":1606,"ejimo":1607,"**":1608,"Ġmokescius":1609,"ĠKad":1610,"inc":1611,"Ġneturi":1612,"Ġem":1613,"ich":1614,"Ġmokesciu":1615,"ivaizd":1616,"Ar":1617,"Ġnesi":1618,"omu":1619,"ĠKas":1620,"daug":1621,"Ġmanes":1622,"Ġgalva":1623,"Ġen":1624,"Ġpaklaus":1625,"iziur":1626,"Ġmieg":1627,"zi":1628,"Ġplauku":1629,"ee":1630,"AS":1631,"Ġzodziu":1632,"Ġvos":1633,"Ġtais":1634,"oriu":1635,"Ġspr":1636,"alb":1637,"Ġdaik":1638,"kui":1639,"Ġproblem":1640,"etis":1641,"tab":1642,"ĠJau":1643,"Ġkitaip":1644,"inta":1645,"gan":1646,"Ġdarbuot":1647,"Ġjums":1648,"ort":1649,"Ġivai":1650,"Ġkazkur":1651,"do":1652,"ĠIn":1653,"Ġpuik":1654,"ĠNiek":1655,"ĠLt":1656,"Ġklausimas":1657,"Ġtipo":1658,"Ġbeg":1659,"Ġpasid":1660,"ĠLietuvos":1661,"Ġsim":1662,"Ġfilmu":1663,"________":1664,"Ġsaskaita":1665,"Ġgalim":1666,"Na":1667,"Ġzv":1668,"''":1669,"Ġdalykas":1670,"vos":1671,"Ġthe":1672,"uomen":1673,"imui":1674,"ĠKiek":1675,"Ġgrei":1676,"yksta":1677,"Ġniekada":1678,"Ġtams":1679,"art":1680,"Ġskaiciu":1681,"ezinau":1682,"hal":1683,"uota":1684,"Ġaug":1685,"Ġsvarb":1686,"imok":1687,"iausi":1688,"aina":1689,"obil":1690,"Ġistat":1691,"jei":1692,"Ġauks":1693,"Ġmil":1694,"davo":1695,"Ġsul":1696,"Ġklas":1697,"Ġmaziau":1698,"Ġveliau":1699,"eriu":1700,"Ġisv":1701,"Ġkokie":1702,"Ġvasara":1703,"imenu":1704,"Ġ30":1705,"Ġmyl":1706,"isi":1707,"ytas":1708,"--------":1709,"eliai":1710,"Ġsuma":1711,"ĠUz":1712,"Ġpol":1713,"Ġprekiu":1714,"Ġvid":1715,"Ġreikes":1716,"Ġstipr":1717,"Ġeg":1718,"kit":1719,"Ġuzt":1720,"ors":1721,"Ġenerg":1722,"Ġvers":1723,"Ġvisos":1724,"ieka":1725,"eris":1726,"kl":1727,"ĠPSD":1728,"ineti":1729,"iaub":1730,"anau":1731,"Ġspec":1732,"kiai":1733,"Ġpop":1734,"adau":1735,"Ġpelno":1736,"Ġsia":1737,"oliu":1738,"Ġ+":1739,"Ġsok":1740,"ala":1741,"Ġkitas":1742,"ato":1743,"ojek":1744,"imin":1745,"tines":1746,"auja":1747,"Ġneblog":1748,"eiti":1749,"Ġzenk":1750,"ukr":1751,"Ġsiandien":1752,":)":1753,"ovan":1754,"aves":1755,".,":1756,"Ġautom":1757,"yven":1758,"19":1759,"vau":1760,"ieg":1761,"Ġrank":1762,"Ġismok":1763,"Ġisras":1764,"uoda":1765,"Ġ..":1766,"Ġmal":1767,"ita":1768,"iausiu":1769,"Ġziurejau":1770,"Ġskan":1771,"Ġivair":1772,"Ġpora":1773,"Ġgauti":1774,"onai":1775,"li":1776,"Ġmaciau":1777,"ha":1778,"Ġps":1779,"Ġnegaliu":1780,"halter":1781,"Ġrez":1782,"ps":1783,"Ġanksciau":1784,"ykit":1785,"Ġkons":1786,"Ġpagrind":1787,"Ġ[":1788,"Ġprak":1789,"Ġpig":1790,".-":1791,"Ġpriklauso":1792,"Ġgaletu":1793,"ĠNet":1794,"Ġesi":1795,"Ġ0":1796,"Ġliud":1797,"ond":1798,"Ġkuria":1799,"obija":1800,"esim":1801,"eidzia":1802,"Ġneturiu":1803,"Ġknyga":1804,"ĠThe":1805,"ingi":1806,"ali":1807,"Ġjas":1808,"ymus":1809,"Ġvieta":1810,"ĠManau":1811,"Ġvadin":1812,"Ġte":1813,"Ġuzsien":1814,"Ġtiesa":1815,"Ġpanasiai":1816,"Ġsiun":1817,"ĠTaciau":1818,"Ġkokios":1819,"Ġnebus":1820,"Ġneuz":1821,"Ġsuzin":1822,"Ġmoksl":1823,"Ġ12":1824,"Ġx":1825,"Is":1826,"aun":1827,"inimo":1828,"Ġ:}":1829,"Ġpapild":1830,"Ġrek":1831,"Ġpai":1832,"tiniu":1833,"Ġkvep":1834,"inej":1835,"Ġisk":1836,"ĠUAB":1837,"uu":1838,"ode":1839,"Ġnegr":1840,"Ġprit":1841,"Ġklasi":1842,"Ġmetais":1843,"asti":1844,"Ġrud":1845,"aliu":1846,"Ġfilmo":1847,"Ġlaika":1848,"Ġstu":1849,"enta":1850,"Ġuzdar":1851,"Ġkiekvien":1852,"Ġkun":1853,"intu":1854,"Ġbaig":1855,"egstu":1856,"Ġkos":1857,"atu":1858,"Ġkalba":1859,"isti":1860,"ay":1861,"Ġprogr":1862,"Ġprojek":1863,"elef":1864,"azn":1865,"acijos":1866,"Ġsio":1867,"Ġod":1868,"Ġang":1869,"Ġtikiu":1870,"valg":1871,"Ġtinka":1872,"yst":1873,"Ġnev":1874,"Ġgraziai":1875,"Ġtvark":1876,"Ġreiks":1877,"Ġstat":1878,"iko":1879,"Ġiskar":1880,"Ġsiuo":1881,"Ġreiskia":1882,"Ġtureti":1883,"Ġdalis":1884,"Tik":1885,"Ġpaaisk":1886,"Ġjaun":1887,"Ġzino":1888,"Ġkartus":1889,"zio":1890,"eiks":1891,"Ġkart":1892,"tyv":1893,"Ġkelis":1894,"Ġgyvent":1895,"Ġpradejo":1896,"Ġvadov":1897,"galv":1898,"Ġmegstu":1899,"Ġnurod":1900,"Ġplaukus":1901,"Ġmei":1902,"Ġspalva":1903,"be":1904,"ara":1905,"ĠJo":1906,"ast":1907,"oli":1908,"inus":1909,"Ġneap":1910,"Ġtrump":1911,"esniu":1912,"ied":1913,"ĠNors":1914,"Ġtad":1915,"avimas":1916,"Ġnebent":1917,"hn":1918,"ako":1919,"entas":1920,"esu":1921,"ininkas":1922,"Ġreg":1923,"Ġeina":1924,"Nu":1925,"ojus":1926,"ĠTies":1927,"Ġorgan":1928,"akc":1929,"Ġkeli":1930,"Kaip":1931,"toje":1932,"imi":1933,"Ġrus":1934,"ow":1935,"Ġistorija":1936,"Ġkazkokia":1937,"Ġav":1938,"Ġlt":1939,"Ġsam":1940,"Ġneats":1941,"Ġmokyt":1942,"Ġantra":1943,"Ġpasiul":1944,"Ġskiep":1945,"ziai":1946,"ingo":1947,"Ġbuhalter":1948,"Ġpasis":1949,"pu":1950,"tadien":1951,"Ġypac":1952,"Ġnemaz":1953,"Ġnaudoj":1954,"kiu":1955,"Ġ201":1956,"Ġbutent":1957,"ĠJus":1958,"mi":1959,"inimas":1960,"Ġnepatinka":1961,"Ġvisok":1962,"istu":1963,"atos":1964,"Ġdaro":1965,"Ġgan":1966,"ieji":1967,"Ġvaiks":1968,"Ġzurn":1969,"Ġpriem":1970,"itas":1971,"Ġlabiausiai":1972,"andu":1973,"ĠKa":1974,"dzio":1975,"Ġuzk":1976,"Ġsavaite":1977,"ybos":1978,"Ġfiz":1979,"?-":1980,"IN":1981,"Ġtelef":1982,"Ġtarkim":1983,"iama":1984,"Ġ200":1985,"Ġkeliu":1986,"Ġpuslap":1987,"Ġzinoma":1988,"Ġdirbti":1989,"Ġklasiok":1990,"Ġdain":1991,"ĠKar":1992,"ektr":1993,"ilg":1994,"Ġvy":1995,"Ġgero":1996,"Ġsusit":1997,"Ġpasirink":1998,"Ġzmogu":1999,"auks":2000,"raz":2001,"eto":2002,"arg":2003,"varbu":2004,"ove":2005,"Ġsiaub":2006,"ininkai":2007,"IS":2008,"Ġdur":2009,"Ġisig":2010,"ĠPer":2011,"Ġreiktu":2012,"Ġkap":2013,"Ġkokius":2014,"uju":2015,"Ġtel":2016,"esnes":2017,"alai":2018,"Ġsist":2019,"Ġmokykla":2020,"Ġsuprantu":2021,"Ġraud":2022,"Ġvisiems":2023,"Ġvais":2024,"Pas":2025,"tinka":2026,"Ġpadaryti":2027,"Ġskr":2028,"Ġbrang":2029,"dr":2030,"Ġ50":2031,"Ġapskai":2032,"!!!":2033,"uotu":2034,"Ġkadangi":2035,"Ġpasakyti":2036,"ere":2037,"Ġvieno":2038,"Ġkvai":2039,"20":2040,"ekit":2041,"Ġtru":2042,"Ġlengv":2043,"ĠTaigi":2044,"sis":2045,"elius":2046,"Ġkamb":2047,"ost":2048,"IE":2049,"Ġkoj":2050,"eiv":2051,"Ġkazkada":2052,"Ġskirtu":2053,"inink":2054,"Ġgaila":2055,"onus":2056,"Ġpuses":2057,"Ġvaizd":2058,"inys":2059,"kos":2060,"kiau":2061,"iimti":2062,".:":2063,"Ġaus":2064,"erv":2065,"uc":2066,"Ġsum":2067,"Ġbai":2068,"ros":2069,"anga":2070,"Ġspecial":2071,"Ġpagalv":2072,"imais":2073,"Ġaplink":2074,"Ġnakti":2075,"ipaz":2076,"Ġlinks":2077,"omi":2078,"ykite":2079,"kite":2080,"uotas":2081,"abuz":2082,"Ġket":2083,"Ġprof":2084,"ito":2085,"Ġmuz":2086,"ons":2087,"Ġegz":2088,"br":2089,"Ġmenes":2090,"iun":2091,"Ġpasteb":2092,"Ġ''":2093,"Ġ~":2094,"ĠDel":2095,"Ġkat":2096,"Ġses":2097,"iar":2098,"Ġinves":2099,"Ġsitas":2100,"Ġvaziu":2101,"Ġgalbut":2102,"ĠBe":2103,"Ġparod":2104,"Ġakc":2105,"Ġeks":2106,"Ġgar":2107,"Ġskaud":2108,"ziaug":2109,"Ġkab":2110,"eniai":2111,"entr":2112,"Ġsod":2113,"Ġnebutu":2114,"Ġuzp":2115,"Ġorganiz":2116,"ĠTr":2117,"Ġsup":2118,"Ġuzm":2119,"Ġru":2120,"Ġjauciu":2121,"Ġkitos":2122,"Ġreiketu":2123,"Ġautomobil":2124,"raf":2125,"eze":2126,"Ġmazai":2127,"Ġilgai":2128,"US":2129,"Ġkil":2130,"Ġpirkti":2131,"Ġneat":2132,"Ġviso":2133,"Ġdraud":2134,"unk":2135,"Ġziuriu":2136,"Ġpajamas":2137,"iema":2138,"Ġvakc":2139,"Ġbur":2140,"Ġvat":2141,"Ġgyvenima":2142,"Ġmazdaug":2143,"Ġkazko":2144,"ĠTada":2145,"Ġnegraz":2146,"Ġlaim":2147,"Ġdarba":2148,"ukus":2149,"Ġter":2150,"Ġsird":2151,"ĠDDD":2152,"Ġtikra":2153,"Ġakis":2154,"Ġbijau":2155,"Ġinformacija":2156,"Ġuzsak":2157,"Ġiskart":2158,"Ġapmok":2159,"Ġnuol":2160,"Ġmergina":2161,"iski":2162,"res":2163,"Ġpatog":2164,"trau":2165,"atiko":2166,"ineja":2167,"tini":2168,"Ġstud":2169,"Ġvald":2170,"Ġjur":2171,"ĠJis":2172,"Ġtus":2173,"anta":2174,"eme":2175,"ĠDaug":2176,"min":2177,"Ġkarto":2178,"Ġasmeniskai":2179,"com":2180,"Ġstov":2181,"Ġmo":2182,"Ġsudar":2183,"Ġgyd":2184,"yla":2185,"Ġdvi":2186,"Ġist":2187,"Ġ(:":2188,"yzdziu":2189,"Ġnatur":2190,"ĠTuriu":2191,"Ġiesko":2192,"Ġkambar":2193,"ĠPa":2194,"Ġdalyku":2195,"Ġkod":2196,"ĠPir":2197,"Ġsutarti":2198,"net":2199,"auz":2200,"Ġstai":2201,"Ġkuriuos":2202,"Ġ19":2203,"Ġbudu":2204,"Ġatidar":2205,"ĠCh":2206,"ingu":2207,"Ġnup":2208,"Ġuzdirb":2209,"Ġdrabuz":2210,"ult":2211,"iver":2212,"Ġpavy":2213,"mer":2214,"Ġkav":2215,"rag":2216,"Ġnorejau":2217,"torius":2218,"Ġislaidas":2219,"Nes":2220,"Ġimanoma":2221,"ake":2222,"Ġziuret":2223,"Taip":2224,"Ġverta":2225,"Ġgyvenimo":2226,"Ġ13":2227,"Ġnegu":2228,"ator":2229,"Ġig":2230,"ijai":2231,"Ġideja":2232,"ininku":2233,"Ġversla":2234,"uv":2235,"ĠAp":2236,"Ġnag":2237,"Ġvisokiu":2238,"Ġelektr":2239,"Ġpsich":2240,"Ne":2241,"entus":2242,"Vis":2243,"dav":2244,"Ġgyventi":2245,"Ġzal":2246,"ikr":2247,"ĠDr":2248,"Ġimon":2249,"ald":2250,"Ġjuo":2251,"Ġtrec":2252,"Ġteks":2253,"Ġram":2254,"ĠSi":2255,".\"":2256,"Ġteko":2257,"ĠBr":2258,"eri":2259,"ega":2260,"nis":2261,"Ġbel":2262,"Ġdauguma":2263,"iks":2264,"Ġnepam":2265,"Ġdek":2266,"kes":2267,"Ġnesamone":2268,"tui":2269,"okas":2270,"sp":2271,"ijoj":2272,"Dar":2273,"gos":2274,"Ġfain":2275,"Ġkazkoks":2276,"Ġsuv":2277,"Ġuzsid":2278,"Ġsie":2279,"Ġgreitai":2280,"ĠPo":2281,"50":2282,"dien":2283,"Ġnul":2284,"Ġdaryt":2285,"Ġidomus":2286,"emp":2287,"Ġplat":2288,"PM":2289,"Ġprid":2290,"Ġisr":2291,"Ġdienos":2292,"Ġand":2293,"Ġsiul":2294,"Ġnauja":2295,"Ġsis":2296,"ĠSk":2297,"Ġkelias":2298,"Ġkrauj":2299,"Ġindividualia":2300,"Ġvietos":2301,"lis":2302,"sti":2303,"Ġryt":2304,"ejima":2305,"Ġsupratau":2306,"alas":2307,"Ġzaid":2308,"omend":2309,"Ġvisko":2310,"Ġvisur":2311,"ly":2312,"Ġvez":2313,"Ġkurio":2314,"ĠAciu":2315,"Ġinf":2316,"Ġiesk":2317,"Ġtes":2318,"ĠNezinau":2319,"Ġsusij":2320,"Ġatskir":2321,"Ġdiev":2322,"ĠPat":2323,"AR":2324,"virtin":2325,"irks":2326,"ĠId":2327,"Ġgriz":2328,"ĠViln":2329,"Ġtec":2330,"ijau":2331,"Ġtrauk":2332,"Ġnemanau":2333,"Ġmokykl":2334,"ĠAisku":2335,"Ġpaciu":2336,"zas":2337,"Ġpenk":2338,"Ġpradeda":2339,"Ġlog":2340,"Ġgale":2341,"ĠDiev":2342,"ĠJusu":2343,"vm":2344,"Ġpreke":2345,"Ġgars":2346,"Ġpaband":2347,"Ġnamu":2348,"Ġblogai":2349,"sk":2350,"Ġteik":2351,"Ġpran":2352,"Ġsaug":2353,"ĠNep":2354,"Ġmokesciai":2355,"Ġpradejau":2356,"ĠYra":2357,"ikas":2358,"ĠNem":2359,"iukas":2360,"etain":2361,"Ġklaid":2362,"Ġnerv":2363,"Ġprasid":2364,"Ġkitus":2365,"&#":2366,"zn":2367,"!!!!":2368,"Ġsald":2369,"ejom":2370,"ĠLT":2371,"Ġprasme":2372,"Ġpanasaus":2373,"asak":2374,"inet":2375,"Ġkito":2376,"Ġgaleciau":2377,"oki":2378,"Ġsusidur":2379,"usios":2380,"eidz":2381,"Ġnereal":2382,"aut":2383,"Ġbern":2384,"Ġgrup":2385,"und":2386,"Ġvanden":2387,"muo":2388,"Ġkul":2389,"Ġtaigi":2390,"ĠKr":2391,"Ġduomen":2392,"ĠKur":2393,"Ġstor":2394,"ark":2395,"Ġyou":2396,"nek":2397,"Ġkoment":2398,"lius":2399,"Ġdeg":2400,"Ġgalite":2401,"Ġnormaliai":2402,"omai":2403,"Ġjokio":2404,"Ġkirp":2405,"Ġgalo":2406,"iot":2407,"Ġtaup":2408,"Ġvyksta":2409,"ĠNuo":2410,"Ġfin":2411,"eo":2412,"Ġserial":2413,"iuter":2414,"eliau":2415,"AV":2416,"Ġlap":2417,"Ġgrazi":2418,"Ġproblemu":2419,"voti":2420,"iamas":2421,"Ġirod":2422,"Ġlup":2423,"uoji":2424,"azia":2425,"Ġpasiek":2426,"Ġvariant":2427,"Ġ*":2428,"aliai":2429,"ĠJuk":2430,"Ġsaves":2431,"Ġnegalima":2432,"Ġdvas":2433,"Ġziureti":2434,"Ġkonkur":2435,"Ġ18":2436,"Lt":2437,"ĠLietuva":2438,"zius":2439,"ĠJie":2440,"Ġdirba":2441,"iniais":2442,"Ġnamo":2443,"uosi":2444,"Ġpasake":2445,"An":2446,"Ġnepad":2447,"Ġjais":2448,"Ġpasit":2449,"ĠVien":2450,"Ġturejo":2451,"Ġlb":2452,"ejes":2453,"Ġfir":2454,"Ġakys":2455,"Ġzinot":2456,"kritai":2457,"ĠTiesiog":2458,"Ġskelb":2459,"ibu":2460,"por":2461,"ymai":2462,"Ġvietoj":2463,"nai":2464,"Ġnemazai":2465,"are":2466,"Ġsvaj":2467,"Ġsvetain":2468,"Ġtobu":2469,"Ġsij":2470,"Ġdemesio":2471,"ieju":2472,"Ġdes":2473,"Ġpasiras":2474,"ĠEur":2475,"ĠNE":2476,"Ġnamie":2477,"ight":2478,"Ġklausimu":2479,"Ġgel":2480,"Ġnesus":2481,"Ġfaktur":2482,"Ġisd":2483,"odziu":2484,"Ġmaza":2485,"Ġdovan":2486,"po":2487,"Ġom":2488,"Ġpvm":2489,"uriu":2490,"Ġfoto":2491,"ultat":2492,"Ġsma":2493,"Ġre":2494,"Ġnustat":2495,"Ġsakau":2496,"sim":2497,"Ġforum":2498,"Ġprival":2499,"fek":2500,"Ġkreip":2501,"Ġforma":2502,"Ġdienas":2503,"Ġdziaug":2504,"Ġgat":2505,"Ġrys":2506,"ĠGPM":2507,"ieb":2508,"Ġai":2509,"atai":2510,"Ġseim":2511,"Ġsvarbu":2512,"Ġlaikas":2513,"Ġlak":2514,"Ġsub":2515,"ĠTu":2516,"ulk":2517,"Ġnusis":2518,"Ġlov":2519,"ybiu":2520,"Ġmatau":2521,"Ġsusig":2522,"Ġpradeti":2523,"Ġkosm":2524,"Ġmu":2525,"Ġgeriausia":2526,"tra":2527,"elia":2528,"oog":2529,"Ġek":2530,"Ġrem":2531,"tiskai":2532,"Ġlaiku":2533,"Ġzmogui":2534,"Ġdienu":2535,"Ġpies":2536,"ĠKal":2537,"Ġdidele":2538,"ĠTikrai":2539,"Ġnedar":2540,"tink":2541,"Ġmoka":2542,"ikti":2543,"Ġperk":2544,"kaiciau":2545,"Ġturejau":2546,"Mano":2547,"ĠZiur":2548,"Ġarb":2549,"ĠZm":2550,"form":2551,"Kai":2552,"Ġgarb":2553,"Ġparduod":2554,"Ġniekur":2555,"Ġmatyt":2556,"yste":2557,"Ġpaciam":2558,"iez":2559,"IK":2560,"Ġkor":2561,"Ġsez":2562,"Ġvamp":2563,"Ġgir":2564,"Ġkokio":2565,"Ġ;}":2566,"davau":2567,"ĠNeb":2568,"ĠVa":2569,"Ġnuv":2570,"Ġmast":2571,"damas":2572,"ano":2573,"uotis":2574,"ienos":2575,"Ġgalvoju":2576,"Ġrimtai":2577,"ims":2578,"Ġrup":2579,"AU":2580,"mai":2581,"okai":2582,"enc":2583,"Ġkonkr":2584,"Ġmergai":2585,"Ġsaul":2586,"ĠZin":2587,"Ġpild":2588,"otas":2589,"entai":2590,"aru":2591,"Ġcentr":2592,"Ġbaisu":2593,"Ġdzin":2594,"Ġgav":2595,"Ġgreiciau":2596,"iras":2597,"ciausiai":2598,"Ġnuspr":2599,"Ġtukst":2600,"Ġveiks":2601,"Ġpopier":2602,"AL":2603,"ax":2604,"Ġvienos":2605,"Cia":2606,"Ġkaim":2607,"egu":2608,"otis":2609,"Ġpaziuret":2610,"vel":2611,"ĠX":2612,"anu":2613,"Ġpral":2614,"nors":2615,"iet":2616,"Ġnuostab":2617,"una":2618,"Ġvies":2619,"Ġgul":2620,".....":2621,"Ġrasti":2622,"niu":2623,"Ġmis":2624,"Ġrezultat":2625,"Ġmegst":2626,"Ġaciu":2627,"Ġdraugu":2628,"Ġgalvos":2629,"Ġnuotrau":2630,"Ġsprend":2631,"intys":2632,"Ġ,,":2633,"Ġjud":2634,"Ġkazkoki":2635,"ji":2636,"Ġsku":2637,"ry":2638,"Ġer":2639,"ho":2640,"nas":2641,"Ġminim":2642,"Ġag":2643,"Ġkainos":2644,"Ġisb":2645,"Ġpatal":2646,"arba":2647,"ĠMok":2648,"Ġpinigai":2649,"Ġspalvos":2650,"eras":2651,"esnio":2652,"Ġnenoriu":2653,"Ġgaus":2654,"Ġnaudoju":2655,"Ġmaisto":2656,"yzdziui":2657,"Ġmetai":2658,"Ġsteig":2659,"ook":2660,"kaiciu":2661,"ksta":2662,"Ġkainuoja":2663,"ĠTodel":2664,"inima":2665,"ieciu":2666,"iuos":2667,"Ġles":2668,"Ġgyvun":2669,"))":2670,"ori":2671,"apras":2672,"Ġapras":2673,"Ġislaidu":2674,"AN":2675,"ingos":2676,"intas":2677,"ancia":2678,"Ġmums":2679,"Ġrodo":2680,"Ġvaiku":2681,"Ġparduotuve":2682,"Ġtevai":2683,"Siaip":2684,"liai":2685,"ute":2686,"Ġtechn":2687,"Ġlaid":2688,"idom":2689,"Ġpajamos":2690,"Ġkompiuter":2691,"Ġpazym":2692,"Ġinformacijos":2693,"dziau":2694,"Ġpasaulio":2695,"vies":2696,"inam":2697,"olis":2698,"Ġdalyk":2699,"mus":2700,"alg":2701,"estin":2702,"omos":2703,"Ġvietoje":2704,"okios":2705,"Ġretai":2706,"Ġlank":2707,"Ġsusimok":2708,"Ġparasyta":2709,"Ġdy":2710,"Ġtame":2711,"aisku":2712,"Ġnebe":2713,"Ġgyvenime":2714,"angu":2715,"iskait":2716,"Ġnesuprantu":2717,"ancius":2718,"ofobija":2719,"Ġkarant":2720,"ancios":2721,"Ġpaslaugas":2722,"'s":2723,"Ġdet":2724,"Ġreikejo":2725,"yrus":2726,"ĠArba":2727,"iku":2728,"iskir":2729,"Ġmilij":2730,"Ġseniai":2731,"ike":2732,"Ġkep":2733,"Ġsilp":2734,"Ġpos":2735,"itr":2736,"umu":2737,"Ġatsidar":2738,"12":2739,"Ġth":2740,"Ġneim":2741,"Ġdurn":2742,"Ġsnek":2743,"Ġun":2744,"tiniai":2745,"Ġuztenka":2746,"Ġvidu":2747,"Ġfot":2748,"Ġdidelis":2749,"ĠSp":2750,"Ġpabaiga":2751,"okit":2752,"Ġsant":2753,"Ġkompl":2754,"Ġkiekvienas":2755,"Ġminu":2756,"Ġkazkiek":2757,"Ġvideo":2758,"enciu":2759,"Ġisim":2760,"Ġeiti":2761,"let":2762,"Ġsvent":2763,"Ġliudij":2764,"ciais":2765,"ĠKodel":2766,"Ġraso":2767,"Ġet":2768,"Ġpradziu":2769,"ikai":2770,"Ġisivaizd":2771,"Ġob":2772,"Ġnetgi":2773,"Ġmintis":2774,"Ġ14":2775,"Ġvirus":2776,"Ġnever":2777,"Ġnemegstu":2778,"Ġgana":2779,"Ġtaik":2780,"Ġtokias":2781,"Ġtikriausiai":2782,"Ġpirmas":2783,"Ġtuomet":2784,"The":2785,"jos":2786,"Ġkak":2787,"Ġlink":2788,"ale":2789,"Ġkru":2790,"Ġkvap":2791,"tak":2792,"Ġtikruju":2793,"ankamai":2794,"Ġdidz":2795,"99":2796,"ĠEsu":2797,"Ġgyvena":2798,"Ġproblema":2799,"ĠKazk":2800,"//":2801,"tinio":2802,"Ġsituacija":2803,"Ġiras":2804,"ioj":2805,"Ġaktor":2806,"Ġprogram":2807,".)":2808,"yliu":2809,"Ġiz":2810,"Ġaisk":2811,"Ġzmonems":2812,"Ġindividualios":2813,"Ġpaskol":2814,"II":2815,"Ġpri":2816,"ĠVer":2817,"ĠES":2818,"60":2819,"Ġskam":2820,"Ġnukr":2821,"Ġsh":2822,"ni":2823,"Ġplius":2824,"tikos":2825,"Ġgroz":2826,"vaizd":2827,"ĠAts":2828,"Ġpama":2829,"iskus":2830,"Ġpasakyt":2831,"Ġpacios":2832,"Ġgeru":2833,"Ġtris":2834,"Ġaukst":2835,"Ġkasdien":2836,"Ġinfo":2837,"alis":2838,"Ġde":2839,"Ġkeleta":2840,"Ġziuri":2841,"Ġprim":2842,"Ġnepav":2843,"Ġmoteris":2844,"Ġsusik":2845,"Ġsteng":2846,"Ġparduotuves":2847,"Ġkeista":2848,"ygu":2849,"idaz":2850,"ĠAl":2851,"vas":2852,"uog":2853,"Ġskol":2854,"Ġskirting":2855,"Ġskon":2856,"irg":2857,"Ġrub":2858,"dyti":2859,"upr":2860,"Ġvidur":2861,"atas":2862,"Ġsc":2863,"ietis":2864,"Ġapg":2865,"Ġvienint":2866,"Ġkitiems":2867,"Ġvyras":2868,"Ġsaskaitos":2869,"dziai":2870,"Ġpadeda":2871,"Ġpatirties":2872,"ON":2873,"Ġnesvarbu":2874,"alv":2875,"ystes":2876,"Ġtokiais":2877,"Ġgyvenimas":2878,"Ġapskritai":2879,"Ġdarbas":2880,"Ġdali":2881,"Ġ!":2882,"Ġpaprasta":2883,"Ġsumoketi":2884,"uoliu":2885,"Ġsito":2886,"erio":2887,"ĠPav":2888,"ĠViskas":2889,"Ġsaus":2890,"aktar":2891,"Jeigu":2892,"Ġjokios":2893,"Ġtyr":2894,"Ġbes":2895,"ates":2896,"Ġziema":2897,"Ġoper":2898,"Ġpazyma":2899,"Ġnenus":2900,"Ġreklama":2901,"Ġasmuo":2902,"ĠNoreciau":2903,"Ġber":2904,"Ġgavau":2905,"ĠJi":2906,"Ġdalyv":2907,"ĠVisi":2908,"........":2909,"iuo":2910,"Ġakim":2911,"Ġeinu":2912,"Ġtaves":2913,"osios":2914,"Ġprik":2915,"ioti":2916,"Ġgryn":2917,"Ġsugeb":2918,".;":2919,"ES":2920,"ff":2921,"ion":2922,"Ġbutinai":2923,"ento":2924,"OO":2925,"pard":2926,"vie":2927,"ijung":2928,"Ġsrit":2929,"Ġbanko":2930,"Ġranka":2931,"Ġkojos":2932,"Ġteises":2933,"Ġtemos":2934,"Kas":2935,"ektu":2936,"Ġpacia":2937,"yne":2938,"Ġivyk":2939,"no":2940,"yko":2941,"Ġsuper":2942,"ĠEUR":2943,"pat":2944,"sh":2945,"auna":2946,"Ġatid":2947,"ĠNer":2948,"Ġatsil":2949,"ukas":2950,"Ġtvar":2951,"Ġrib":2952,"Ġsalyg":2953,"utes":2954,"insiu":2955,"Ġgeri":2956,"Ġauto":2957,"Ġnesveik":2958,"Ġvienu":2959,"Ġmeile":2960,"Ġeil":2961,"erai":2962,"ĠDz":2963,"ivil":2964,"acius":2965,"Ġpilna":2966,"Ġnuk":2967,"juok":2968,"kreip":2969,"Ġatlyg":2970,"Ġradau":2971,"Ġgaunasi":2972,"sus":2973,"Ġklausima":2974,"Ġskaicius":2975,"Ġmoketoju":2976,"edos":2977,"Ġvaikai":2978,"Ġegzist":2979,"tel":2980,"osiu":2981,"Ġniekad":2982,"ĠNieko":2983,"Ġzym":2984,"Ġbuciau":2985,"iskos":2986,"ck":2987,"ĠTen":2988,"iesi":2989,"Ġatsik":2990,"ipirk":2991,"Ġvertin":2992,"Ġinternete":2993,"Ġzud":2994,"Ġnetikiu":2995,"Ġniekaip":2996,"Ġblond":2997,"Ġok":2998,"Ġsios":2999,"ura":3000,"Ġverslas":3001,"Ġslyks":3002,"isu":3003,"uom":3004,"Ġatvej":3005,"Ġmerginos":3006,"ĠTa":3007,"Ġatsiranda":3008,"Ġleid":3009,"ieno":3010,"Ġdarbu":3011,"Ġu":3012,"Ġgaletum":3013,"Ġpakankamai":3014,"Ġfinans":3015,"Ġprekiau":3016,"Ġuzsienio":3017,"Ġmociu":3018,"se":3019,"Ġkauk":3020,"etus":3021,"Ġpastov":3022,"Ġnusik":3023,"Ġnamuose":3024,"Ġmasina":3025,"oku":3026,"ĠRus":3027,"Ġpaveik":3028,"AT":3029,"akau":3030,"vaig":3031,"Ġeuru":3032,"Ġypat":3033,"Ġpasiziur":3034,"egul":3035,"Ġmokytoja":3036,"Ġ>":3037,"aliz":3038,"Ġkompan":3039,"Ġzemes":3040,"ĠKartais":3041,"ER":3042,"Ġug":3043,"Ġkin":3044,"Ġgil":3045,"Ġligon":3046,"Ġatr":3047,"Ġskaiciau":3048,"Ġgalvojau":3049,"Ġateit":3050,"Ġlitu":3051,"ĠTas":3052,"tarp":3053,"Ġnenori":3054,"Ġrealiai":3055,"Ġzinai":3056,"???":3057,"ge":3058,"Ġneseniai":3059,"mete":3060,"Ġpaslap":3061,"30":3062,"At":3063,"Ġrad":3064,"ĠiA":3065,"Ġapsaug":3066,"Ġpaslaugu":3067,"Ġdemesi":3068,"taip":3069,"uosiu":3070,"Ġvaland":3071,"ocial":3072,"Ġpic":3073,"Ġrag":3074,"Ġsumos":3075,"Dabar":3076,"Ġtv":3077,"Ġbank":3078,"ĠSt":3079,"Ġatsp":3080,"Ġprav":3081,"Ġbudavo":3082,"Ġrekomend":3083,"ĠDazn":3084,"yps":3085,"Ġpateikti":3086,"bod":3087,"Ġoda":3088,"Ġvariantas":3089,"ytos":3090,"Ġefek":3091,"Ġpasitik":3092,"iami":3093,"Ġpasaulyje":3094,"Ġmedzia":3095,"IT":3096,"Ġpapasak":3097,"Ġdalykai":3098,"oogle":3099,"Ġpastat":3100,"Ġuzsis":3101,"Ġpazist":3102,"15":3103,"ero":3104,"azin":3105,"Ġpasig":3106,"Ġtiesu":3107,"Ġpuikiai":3108,"Ġ16":3109,"Ġnug":3110,"AA":3111,"nd":3112,"Ġkitam":3113,"Ġantr":3114,"Ġpsi":3115,"Ġsugalv":3116,"edamas":3117,"oves":3118,"Ġpamirs":3119,"Ġklientu":3120,"lus":3121,"Ġseima":3122,"Ġinternetu":3123,"inant":3124,"IU":3125,"Ġ000":3126,"avus":3127,"ograf":3128,"Ġsuteik":3129,"Ġrasyti":3130,"ĠReikia":3131,"Ġesme":3132,"Ġveln":3133,"Ġnusipirkau":3134,"ĠZinoma":3135,"Ġpel":3136,"Ġneziur":3137,"Ġuzsim":3138,"Ġnaujo":3139,"Ġvil":3140,"engi":3141,"ilo":3142,"Ġelg":3143,"ijo":3144,"Ġpaziureti":3145,"Ġsaras":3146,"Ġrasyt":3147,"Ġturite":3148,"Ġeit":3149,"use":3150,"Ġgimtadien":3151,"Ġvandens":3152,"Ġanks":3153,"Ġgalimybe":3154,"Ġnzn":3155,"Ġlieka":3156,"Ġniekam":3157,"Ġnesioju":3158,"Ġrankos":3159,"Labai":3160,"esk":3161,"Ġpatvirtin":3162,"ole":3163,"ksl":3164,"Ġreikalas":3165,"Ġvampyr":3166,"ill":3167,"uojant":3168,"Ġpriezas":3169,"Ġmenesiu":3170,"Ġveido":3171,"Ġmalon":3172,"ĠSiandien":3173,"ekui":3174,"ĠVakar":3175,"icial":3176,"Ġsmeg":3177,"Ġsapnavau":3178,"Taigi":3179,"----------------":3180,"Ġenergija":3181,"Ġlin":3182,"Ġnepa":3183,"Ġ=":3184,"Ġdev":3185,"Ġteisingai":3186,"Ġfilmai":3187,"ton":3188,"Ġneig":3189,"mano":3190,"EUR":3191,"truk":3192,"Ġkokias":3193,"ever":3194,"Ġspor":3195,"Ġtiksliai":3196,"Ġkie":3197,"Ġpadeti":3198,"Ġdideli":3199,"AM":3200,"ĠJums":3201,"Ġdraugai":3202,"Ġneimanoma":3203,"ioje":3204,"pac":3205,"Ġ11":3206,"Ġvalstybes":3207,"inama":3208,"Ġzai":3209,"Ġskaus":3210,"aikyti":3211,"Ġinvest":3212,"Ġsand":3213,"Ġapr":3214,"ytes":3215,"Ġgeriausias":3216,"Ġjausmas":3217,"Ġdie":3218,"Ġop":3219,"ykl":3220,"Ġsteb":3221,"iaug":3222,"Ġliep":3223,"Ġprinc":3224,"Ġskamb":3225,"Ġnepris":3226,"Ġuk":3227,"antas":3228,"Ġapk":3229,"edi":3230,"Ġvarg":3231,"Aciu":3232,"tau":3233,"Ġism":3234,"Ġisn":3235,"ĠKl":3236,"ĠLab":3237,"Ġautor":3238,"Ġsistema":3239,"avai":3240,"Ġissig":3241,"Ġpasirode":3242,"Ġneras":3243,"Ġiseina":3244,"Ġ1000":3245,"uliu":3246,"Ġsutartis":3247,"ekite":3248,"Ġsudet":3249,"Ġgirdejau":3250,"Ġreng":3251,"tube":3252,"eigi":3253,"Ġnepak":3254,"Ġveikia":3255,"Ġinternet":3256,"Ġon":3257,"Ġislaidos":3258,".*":3259,"Ġryte":3260,"ĠAi":3261,"Ġvalstyb":3262,"ieciai":3263,"eisiu":3264,"Ġkuno":3265,"Ġnuolat":3266,"jp":3267,"Ġnevalg":3268,"Ġpasidal":3269,"Ġadres":3270,"Ġbo":3271,"ess":3272,"uliar":3273,"Ġlaikotarp":3274,"Ġprofes":3275,"Ġpavyzd":3276,"ezid":3277,"Ġatsirado":3278,"Ġpatikr":3279,"Ġtep":3280,"Ġtures":3281,"Ġnedid":3282,"Ġmire":3283,"Ġdirek":3284,"Ġriz":3285,"Ġsukurti":3286,"ber":3287,"de":3288,"Ġtal":3289,"Ġmacius":3290,"Ġatgal":3291,"Ġknygos":3292,"akst":3293,"vu":3294,"Ġmai":3295,"adu":3296,"Ġsavaites":3297,"Ġfilmus":3298,"aro":3299,"Ġabej":3300,"ciasi":3301,"edija":3302,"tiko":3303,"Ġkurias":3304,"eist":3305,"aike":3306,"Ġlietuviu":3307,"Ġkonsult":3308,"iausios":3309,"Ġsantyk":3310,"uri":3311,"arus":3312,"Ġdb":3313,"onom":3314,"tinku":3315,"enda":3316,"avima":3317,"Ġdarz":3318,"ejos":3319,"Ġakiu":3320,"ĠKazkaip":3321,"Ġpranes":3322,"Ġnesk":3323,"Ġtenka":3324,"Ġpristat":3325,"Ġsukn":3326,"IM":3327,"Ġseks":3328,"ĠSim":3329,"iusti":3330,"Ġtikras":3331,"ice":3332,"Ġparduoti":3333,"engti":3334,"Ġapsim":3335,"Ġsalia":3336,"our":3337,"eka":3338,"ĠMes":3339,"ĠGeras":3340,"ĠEurop":3341,"Ġsutik":3342,"Ġnorint":3343,"ĠVSD":3344,"Ġapsir":3345,"Ġitrauk":3346,"Ġskirtumas":3347,"yna":3348,"Ġmak":3349,"Ġ^":3350,"Ġissip":3351,"Ġvart":3352,"Ġasmens":3353,"Ġamz":3354,"tn":3355,"Ġtevu":3356,"Ġsistem":3357,"ns":3358,"vot":3359,"Ġsvarbiausia":3360,"Ġelektron":3361,"aim":3362,"ekmes":3363,"Ġpradzi":3364,"ont":3365,"Ġvaikinu":3366,"otu":3367,"ĠNus":3368,"tinga":3369,"EN":3370,"Ġateina":3371,"ww":3372,"Ġdantis":3373,"Ġdantu":3374,"eke":3375,"Ġjuoda":3376,"Ġdalykus":3377,"Del":3378,"line":3379,"Ġisitik":3380,"Ġsakant":3381,"jek":3382,"Ġnesig":3383,"Ġmegstam":3384,"Ġpriek":3385,"ede":3386,"Ġnaudoti":3387,"11":3388,"Ġteig":3389,"Ġkiau":3390,"ineje":3391,"Ġder":3392,"uole":3393,"ejusi":3394,"Ġispud":3395,"Uz":3396,"uojama":3397,"ĠGali":3398,"Ġruk":3399,"Ġpriim":3400,"Ġgalit":3401,"Ġkontr":3402,"Ġeksper":3403,"ile":3404,"Ġ25":3405,"Ġlengva":3406,"Ġsiaubo":3407,"ycia":3408,"Ġisvaizd":3409,"aziur":3410,"maciau":3411,"Ġkitur":3412,"Ġ21":3413,"Ġliko":3414,"eciu":3415,"ineze":3416,"ĠMar":3417,"Ġnuobod":3418,"Ġgen":3419,"Ġprekyba":3420,"vien":3421,"Ġnematau":3422,"Ġbals":3423,"Ġkurti":3424,"Ġslap":3425,"Ġpabaig":3426,"Ġmag":3427,"aks":3428,"ĠMaz":3429,"za":3430,"Ġserg":3431,"tinius":3432,"Ġrankas":3433,"nus":3434,"Ġkei":3435,"ĠJAV":3436,"ĠReik":3437,"Ġesate":3438,"Ġdrauges":3439,"Ġtampa":3440,"Ġsekm":3441,"Ġsuzinoti":3442,"Ġforume":3443,"Ġpur":3444,"ĠPvz":3445,"Ġnorisi":3446,"Ġkitais":3447,"___":3448,"enkia":3449,"Ġnuomones":3450,"Ġpaim":3451,"Ġdokumentus":3452,"Ġkompleks":3453,"Ġnuz":3454,"Ġdraugais":3455,"Ġmatosi":3456,"Ġ40":3457,"ostog":3458,"bol":3459,"Ġsamp":3460,"Ġvisgi":3461,"Ġatostog":3462,"eciai":3463,"Ġgauna":3464,"Ġsokol":3465,"elti":3466,"Ġartim":3467,"da":3468,"Ġpok":3469,"Ġvaikinas":3470,"Ġpolic":3471,"elyje":3472,"Ġsugr":3473,"Ġ17":3474,"Ġkazkokiu":3475,"ĠPrad":3476,"EL":3477,"ny":3478,"Ġdaina":3479,"Ġskl":3480,"Ġuzdarb":3481,"Ġgydyt":3482,"atyv":3483,"ach":3484,"Ġkurioje":3485,"Ġpaprastai":3486,"Ġez":3487,"Ġsiur":3488,"arai":3489,"itor":3490,"ĠPati":3491,"Ġform":3492,"ĠAng":3493,"Ġmatyti":3494,"Ġpanasus":3495,"Ġsavait":3496,",,":3497,"Ġnuorod":3498,"Ġminus":3499,"Ġpavadinimas":3500,"Ġomen":3501,"Tr":3502,"bos":3503,"lys":3504,"tinas":3505,"Ġnuotai":3506,"Ġissir":3507,"aaaa":3508,"Ġpaklausti":3509,"ĠMat":3510,"Ġmesos":3511,"Ġpadaryt":3512,"Ġsaskaitas":3513,"Ġlengvai":3514,"ĠVilniu":3515,"ane":3516,"Ġdiz":3517,"ancuz":3518,"ijus":3519,"Ġnezino":3520,"Ġpasirod":3521,"ĠGerai":3522,"Ġnauju":3523,"Ġlaikrod":3524,"ciju":3525,"Ġnez":3526,"Ġbla":3527,"Ġproting":3528,"ebook":3529,"Ġjuokinga":3530,"Ġneblogas":3531,"nos":3532,"tol":3533,"Ġsoli":3534,"itus":3535,"Ġsan":3536,"iuka":3537,"Ġmamos":3538,"uomet":3539,"ore":3540,"ejimu":3541,"yse":3542,"ĠApie":3543,"Su":3544,"okite":3545,"Ġdidziu":3546,"Ġstraipsnis":3547,"Ġpigiau":3548,"Ġpamaciau":3549,"berg":3550,"yra":3551,"Ġbaud":3552,"amo":3553,"Ġryz":3554,"Ġperv":3555,"Ġpalik":3556,"Ġdokumentu":3557,"Ġvaiduok":3558,"ger":3559,"laid":3560,"Ġauk":3561,"Ġima":3562,"isko":3563,"Ġangl":3564,"Ġsmagu":3565,"Ġisskir":3566,"Ġdvieju":3567,"ĠInd":3568,"Ġsocial":3569,"Ġpraeit":3570,"Ġapmokestin":3571,"isa":3572,"akter":3573,"Ġsuprasti":3574,"Ġoficial":3575,"Ġtaisyk":3576,"Nor":3577,"igin":3578,"vertin":3579,"Ġatsiras":3580,"Ġpsicholog":3581,"hat":3582,"Ġatm":3583,"ĠSus":3584,"Ġreklam":3585,"aiv":3586,"Ġlau":3587,"ĠSv":3588,"Ġvienod":3589,"Ġpavyzdziui":3590,"ĠUK":3591,"Ġdarbuotoju":3592,"Ġskauda":3593,"Bu":3594,"iantis":3595,"Ġiregistr":3596,"ydamas":3597,"Ġnebuna":3598,"ĠFil":3599,"ĠKadangi":3600,"kaz":3601,"ancio":3602,"Ġlaikais":3603,"Ġpirkt":3604,"Kaz":3605,"jo":3606,"Ġveg":3607,"Ġgl":3608,"yvend":3609,"Ġnepatiko":3610,"Ġkelnes":3611,"Ġtapti":3612,"Ġisband":3613,"Ġturet":3614,"Ġnuotrauk":3615,"vard":3616,"Ġsamd":3617,"enas":3618,"Ġreisk":3619,"Ġpanaud":3620,"ĠAnt":3621,"ask":3622,"Ġkov":3623,"iniams":3624,"aros":3625,"Ġme":3626,"koh":3627,"ynas":3628,"Ġpasidare":3629,"IA":3630,"einu":3631,"ris":3632,"Ġdesim":3633,"Ġgab":3634,"ods":3635,"Ġgrazios":3636,"Ġvaldzia":3637,"Ġjurid":3638,"Ġ|":3639,"alia":3640,"aukiu":3641,"TI":3642,"ĠKol":3643,"Ġkraujo":3644,"jpg":3645,"Ġdeja":3646,"atv":3647,"ĠTad":3648,"Ġsusitik":3649,"Ġimoniu":3650,"Ġvakare":3651,"okieti":3652,"asd":3653,"ietu":3654,"ord":3655,"ĠPar":3656,"maz":3657,"Ġ#":3658,"inciu":3659,"Ġled":3660,"edama":3661,"iaisk":3662,"Ġmuzika":3663,"200":3664,"Ġste":3665,"prot":3666,"Ġatsib":3667,"inkit":3668,"ĠGraz":3669,"Kad":3670,"jung":3671,"Ġvaz":3672,"Ġgalejo":3673,"Ġdraugas":3674,"Ġmenesio":3675,"Ġreklamos":3676,"auju":3677,"Ġuzsiim":3678,"ynu":3679,"ykst":3680,"Ġblogo":3681,"vep":3682,"Ġpaziurejau":3683,"ce":3684,"siaip":3685,"Ġtul":3686,"Ġsiais":3687,"okio":3688,"Ġnemat":3689,"Ġpagalba":3690,"Ġlengviau":3691,"ogus":3692,"tingi":3693,"Ġvienam":3694,"Ġmokesti":3695,"Ġgarban":3696,"Ġpik":3697,"Ġsik":3698,"eliais":3699,"Ġuzras":3700,"Ġneiss":3701,"uote":3702,"Ġpaaug":3703,"yvar":3704,"Ġ:>":3705,"ydavo":3706,"Ġmenesius":3707,"Kiek":3708,"ota":3709,"Ġdras":3710,"ĠAmer":3711,"Ġperd":3712,"iamos":3713,"ibaig":3714,"ĠBuvo":3715,"nor":3716,"Ġtrans":3717,"Ġmesa":3718,"Ġsaule":3719,"Ġtruksta":3720,"Ġdaktar":3721,"akul":3722,"Ġdalies":3723,"Ġkelia":3724,"Ġzvilg":3725,"yle":3726,"itariu":3727,"Ġdez":3728,"eriai":3729,"Ġmokestis":3730,"aja":3731,"adieni":3732,"Ġpaveiksl":3733,"sai":3734,"amus":3735,"Ġpasil":3736,"rati":3737,"esioju":3738,"Ġabu":3739,"Ġvadinasi":3740,"eni":3741,"enos":3742,"Ġbutina":3743,"Ġkuriame":3744,"eista":3745,"Ġdelto":3746,"Ġvalgyt":3747,"kis":3748,"Ġgalu":3749,"Ġatg":3750,"esnius":3751,"Ġvaikscio":3752,"inasi":3753,"Ġsvor":3754,"Ġmirs":3755,"ienu":3756,"ĠTar":3757,"Ġpirkimo":3758,"Ġnesamones":3759,"Ġvardu":3760,"qu":3761,"rus":3762,"uko":3763,"Ġting":3764,"Ġmokyklos":3765,"Ġranku":3766,"Ġauskar":3767,"Ġup":3768,"Ġtyl":3769,"Ġzvaig":3770,"olio":3771,"Ġpadare":3772,"Ġmirties":3773,"Ġnegrazu":3774,"Ġnuotaika":3775,"Ġsoliariu":3776,"Ġnemaciau":3777,"itan":3778,"ĠKam":3779,"ĠVal":3780,"Ġtikro":3781,"Ġvair":3782,"Ġkontak":3783,"Ġnot":3784,"Ġmars":3785,"elabai":3786,"Ġstik":3787,"azd":3788,"rodo":3789,"Ġvaikas":3790,"ĠPries":3791,"Ġgamint":3792,"Ġmoketojas":3793,"Ġveidrod":3794,"Ġrieb":3795,"Ġproto":3796,"Ġarti":3797,"Ġastr":3798,"Ġsiol":3799,"ĠPagal":3800,"Ġskamba":3801,"Ġkyla":3802,"Ġmodel":3803,"Ġatejo":3804,"ĠTau":3805,"ĠPats":3806,"Ġpatenk":3807,"Ġblakst":3808,"Ġvirsu":3809,"Ġrom":3810,"Ġruos":3811,"ĠPl":3812,"ĠRut":3813,"Ġkrem":3814,"Ġatrode":3815,"kam":3816,"Ġpaskait":3817,"umai":3818,"Ġperku":3819,"Ġlaukiu":3820,"iel":3821,"okos":3822,"Ġskyr":3823,"Ġlygiai":3824,"Ġduoda":3825,"Ġrug":3826,"Ġvisad":3827,"Ġsunk":3828,"Ġnagu":3829,"ĠDid":3830,"Ġnieks":3831,"Ġvietu":3832,"Ġsveikatos":3833,"Ġskaityti":3834,"Ġvardas":3835,"Ġkapit":3836,"ely":3837,"avimu":3838,"Ġuzr":3839,"Ġpoz":3840,"Ġ;/":3841,"Ġatsakyma":3842,"Ġsedi":3843,"Ġped":3844,"istika":3845,"Ġseimos":3846,"Ġamziaus":3847,"asis":3848,"Ġres":3849,"Ġnesin":3850,"inkite":3851,"Ġapskaitos":3852,"timi":3853,"iste":3854,"Ġkuriems":3855,"ingsn":3856,"Ġkokybe":3857,"plauk":3858,"ĠKoks":3859,"Ġdideles":3860,"Ġkonc":3861,"Ġsmulk":3862,"Ġinvesti":3863,"Ġlek":3864,"ĠBl":3865,"Ġzmona":3866,"Ġdeklaracija":3867,"ath":3868,"ell":3869,"Ġlang":3870,"apl":3871,"ido":3872,"ĠMu":3873,"Ġkamuol":3874,"Ġraudon":3875,"Ka":3876,"ii":3877,"inimu":3878,"Ġpripaz":3879,"Ġiskr":3880,"Ġklausimus":3881,"Ġbudas":3882,"Ġatlik":3883,"Ġrinktis":3884,"dami":3885,"pvz":3886,"Ġtureciau":3887,"edavau":3888,"ĠBeje":3889,"Ġsalis":3890,"Ġsuprant":3891,"Ġpasauli":3892,"Ġpamatyti":3893,"Ġapyvar":3894,"Ġzinoti":3895,"Ġgraziau":3896,"Ġkop":3897,"Ġ500":3898,"tyn":3899,"Ġkud":3900,"etes":3901,"ĠSe":3902,"Ties":3903,"Ġpavasar":3904,"angos":3905,"eido":3906,"Ġpasirodo":3907,"Ġmokykloj":3908,"Ġmociute":3909,"Ġkazkodel":3910,"arde":3911,"iregistr":3912,"Ġdantys":3913,"ene":3914,"edavo":3915,"Ġvieni":3916,"Ġsport":3917,"Ġprisim":3918,"ytum":3919,"fobija":3920,"austi":3921,"Ġturesi":3922,"ick":3923,"OM":3924,"istra":3925,"Ġprisid":3926,"Ġsnieg":3927,"oke":3928,"Ġrand":3929,"ĠToks":3930,"Ġsusirg":3931,"ivaizduoju":3932,"Ġduris":3933,"labai":3934,"aiko":3935,"ert":3936,"Ġpamenu":3937,"Ġpaprastas":3938,"Ġkort":3939,"Ġnejau":3940,"Ġmad":3941,"Ġgeros":3942,"Ġbatai":3943,"Ġenergijos":3944,"Ġnos":3945,"iuose":3946,"esys":3947,"Ġpartn":3948,"Ġskiriasi":3949,"Ġabs":3950,"Ġpelnas":3951,"Ġpns":3952,"enai":3953,"Ġzais":3954,"Ġalkoh":3955,"Ġmieste":3956,"Ġpaies":3957,"Ġnuzud":3958,"On":3959,"eur":3960,"ipras":3961,"iecia":3962,"oras":3963,"ĠFr":3964,"ininko":3965,"Ġmintys":3966,"Ġgavo":3967,"Ġgales":3968,"tingu":3969,"Ġpavadinima":3970,"rez":3971,"Ġsese":3972,"encija":3973,"umi":3974,"Ġideal":3975,"TU":3976,"aciu":3977,"lio":3978,"etos":3979,"iav":3980,"ojimas":3981,"ĠPris":3982,"Ġarbata":3983,"Ġprig":3984,"Ġateiv":3985,"ivers":3986,"Ġgraziu":3987,"tusi":3988,"Ġkazkokie":3989,"Ġmegsta":3990,"jeigu":3991,"Ġteor":3992,"Ġzingsn":3993,"Ġparti":3994,"Ġsusil":3995,"acebook":3996,"Ġesmes":3997,"Ġneblogai":3998,"Ġserialas":3999,"Ġlegal":4000,"ĠViena":4001,"yre":4002,"Ġnedaug":4003,"Ġskaitau":4004,"Ġbatu":4005,"Ġsilpn":4006,"iat":4007,"ten":4008,"itam":4009,"ĠSiuo":4010,"ĠBal":4011,"Ġatstov":4012,"Ġsusidar":4013,"Ġatsakymus":4014,"Ġpritariu":4015,"AD":4016,"fr":4017,"niek":4018,"ykti":4019,"Ġteise":4020,"Ġsapnuoju":4021,"Ġtapo":4022,"Ġmergaite":4023,"Ġtvarka":4024,"fik":4025,"Ġnesp":4026,"ĠVienas":4027,"Ġnereiskia":4028,"Ġskaityt":4029,"Ġkiekvieno":4030,"Ġpastebejau":4031,"Ġrubu":4032,"els":4033,"Ġgyvenu":4034,"Ġtobul":4035,"Ġvmi":4036,"Ġpaskir":4037,"Ġklausia":4038,"Be":4039,"rr":4040,"Ġpacio":4041,"ĠZodziu":4042,"ĠDraug":4043,"Ġegzistuoja":4044,"tion":4045,"ith":4046,"inkti":4047,"Ġkred":4048,"koti":4049,"Ġnepaz":4050,"Ġknygu":4051,"Ġanglu":4052,"OK":4053,"Ġkaup":4054,"eno":4055,"Ġvalgyti":4056,"Ġieskoti":4057,"Ġveget":4058,"Ġkiaus":4059,"Ġneaisku":4060,"Ġding":4061,"Ġikur":4062,"Ġbando":4063,"Ġbloga":4064,"Ġsuras":4065,"Ġzymiai":4066,"uku":4067,"Ġtuoj":4068,"ilank":4069,"Ġciu":4070,"ĠEl":4071,"Ġnamus":4072,"Ġpasim":4073,"Ġdizain":4074,"Ġsakyti":4075,"Ġmazas":4076,"Ġissil":4077,"Ġamer":4078,"anor":4079,"atus":4080,"Ġpaciai":4081,"Ġimonei":4082,"Ġtiems":4083,"ejausi":4084,"ĠTV":4085,"Ġmokescio":4086,"Ġnupirk":4087,"Niek":4088,"iima":4089,"uka":4090,"ĠKokia":4091,"ipas":4092,"Ġantras":4093,"Ġsakiau":4094,"ciav":4095,"Ġvadina":4096,"Ġsyps":4097,"Ġmax":4098,"Ġves":4099,"Ġsugal":4100,"Ġspaud":4101,"ĠGalbut":4102,"Ġnusipirkti":4103,"Ġnetinka":4104,"Ġviz":4105,"Ġisties":4106,"Ġkeliau":4107,"Ġissk":4108,"ĠZiaur":4109,"Ġsenai":4110,"Ġslep":4111,"Ġbaisus":4112,"Ġkeisti":4113,"Ġzeme":4114,"ibud":4115,"23":4116,"Jau":4117,"Va":4118,"Ġpasisk":4119,"Ġmoku":4120,"Ġidomi":4121,"Ġziauru":4122,"Ġkalbos":4123,"Ġgalimybes":4124,"Ġvisuomen":4125,"dzius":4126,"ĠLietuvoj":4127,"Ġitak":4128,"Gr":4129,"Nors":4130,"liaus":4131,"viena":4132,"ire":4133,"Ġjame":4134,"audoju":4135,"inese":4136,"ĠGalima":4137,"Ġdydzio":4138,"akt":4139,"ype":4140,"Ġsumaz":4141,"pan":4142,"sak":4143,"Ġtrag":4144,"ikab":4145,"Ġmoki":4146,"Ġpavad":4147,"Ġnepriklaus":4148,"ĠIdomu":4149,"Ġsaules":4150,"Ġ^^":4151,"fu":4152,"mat":4153,"Ġtak":4154,"imis":4155,"ojant":4156,"Ġzinote":4157,"Ġpaslauga":4158,"Ġpaslaugos":4159,"outube":4160,"Ġbir":4161,"ejui":4162,"Ġzav":4163,"Ġgerb":4164,"Ġveiklai":4165,"Ġreikalinga":4166,"Ġ90":4167,"Ġklasioke":4168,"Ġtrecia":4169,"Ġkis":4170,"Ġneteis":4171,"arakter":4172,"Ġtren":4173,"Ġ23":4174,"Ġaktu":4175,"Ġdarbdav":4176,"Ġnaujas":4177,"Ġsusimoketi":4178,"Ġpunk":4179,"Ġkan":4180,"ĠIR":4181,"Ġsaliu":4182,"ydis":4183,"Ġekonom":4184,"Ġjum":4185,"Ġvisais":4186,"ĠPet":4187,"Ġ:/":4188,"ypal":4189,"Ġdrabuziu":4190,"Ch":4191,"Ġmar":4192,"uociau":4193,"ity":4194,"ĠSh":4195,"Ġverte":4196,"Ġziurint":4197,"Ġpagaliau":4198,"Ġpagalbos":4199,"egaliu":4200,"Ġ2012":4201,"25":4202,"::":4203,"abr":4204,"aps":4205,"Ġaptar":4206,"Ġneper":4207,"Ġtoli":4208,"Ġvakcina":4209,"Daug":4210,"Pir":4211,"enti":4212,"Ġlas":4213,"Ġprisimin":4214,"Ġtruku":4215,"Ġisid":4216,"Ġsuku":4217,"Ġnemal":4218,"Ġbalta":4219,"ĠNoriu":4220,"Ġep":4221,"antr":4222,"eistu":4223,"ipu":4224,"Ġpoziur":4225,"Ġformos":4226,"Ġitin":4227,"Ger":4228,"Ġkras":4229,"okius":4230,"Ġperziur":4231,"Ġorigin":4232,"Manau":4233,"://":4234,"iniam":4235,"ĠNeg":4236,"kasi":4237,"Ġnusidaz":4238,"ĠHar":4239,"Ġnenoreciau":4240,":\"":4241,"Ġvisokie":4242,"Ġperka":4243,"Ġvirtuv":4244,"Ġgauni":4245,"iom":4246,"istas":4247,"Ġleidz":4248,"Ġatsig":4249,"aciju":4250,"Ġvalanda":4251,"Ġex":4252,"Ġkalbu":4253,"Ġilgiau":4254,"Ġistorijos":4255,"Ġatsisak":4256,"Ġsirdies":4257,"tiks":4258,"Ġbend":4259,"Ġistr":4260,"eitu":4261,"Ġnesis":4262,"ĠKo":4263,"ĠKin":4264,"Ġatsip":4265,"Ġnebes":4266,"paud":4267,"sid":4268,"iete":4269,"Ġdarau":4270,"ogu":4271,"Ġsalies":4272,"Ġvyrai":4273,"kiek":4274,"tys":4275,"Ġtetis":4276,"insi":4277,"Ġprab":4278,"Ġprezid":4279,"iene":4280,"Ġcivil":4281,"ival":4282,"ymui":4283,"Ġatitink":4284,"Ġvalgau":4285,"Ġnuras":4286,"Ġpopuliar":4287,"Ġberods":4288,"Kar":4289,"th":4290,"Ġturto":4291,"Ġneber":4292,"Ġaiskiai":4293,"Ġsulauk":4294,"uciu":4295,"Ġker":4296,"irba":4297,"tras":4298,"Ġantak":4299,"asara":4300,"Ġnemokamai":4301,"Ġigyvend":4302,"Ġsavaitgal":4303,"\"?":4304,"nep":4305,"tp":4306,"Ġminti":4307,"Ġded":4308,"Ġkazkam":4309,"eviz":4310,"****":4311,"Ġzvaigzd":4312,"Ap":4313,"Ġraid":4314,"avom":4315,"Ġtarsi":4316,"Ġsunkiai":4317,"Ġnepasak":4318,"enku":4319,"Ġnesir":4320,"Ġbliz":4321,"Ġseniau":4322,"Net":4323,"Ġpram":4324,"ĠAk":4325,"pres":4326,"Ġpu":4327,"Ġtegul":4328,"Ġjega":4329,"Ġsuvalg":4330,"emija":4331,"ĠAd":4332,"Ġfig":4333,"Ġdarbus":4334,"porto":4335,"enz":4336,"ojams":4337,"Ġnesiot":4338,"giasi":4339,"toti":4340,"Ġvaldz":4341,"Ġhor":4342,"Ġmeiles":4343,"Ġzvilgsn":4344,"Beje":4345,"Ġmyliu":4346,"Ġsuz":4347,"ĠDe":4348,"Ġproces":4349,"Ġdomina":4350,"Ġivairiu":4351,"Ġkiekvienam":4352,"vok":4353,"Ġzyd":4354,"Ġivertin":4355,"Ġbul":4356,"ĠAps":4357,"Ġnoras":4358,"ĠBent":4359,"Ġauksciau":4360,"Ġminciu":4361,"Ġmiegot":4362,"Ġbelek":4363,"istai":4364,"Ġprar":4365,"ciausi":4366,"Ġpraded":4367,"Ġinter":4368,"Pa":4369,"Ġlem":4370,"ĠPal":4371,"ĠPam":4372,"Ġpasakojo":4373,"Ġpardavimo":4374,"Ġpelna":4375,"21":4376,"aw":4377,"Ġaud":4378,"anai":4379,"ust":4380,"aba":4381,"Ġkair":4382,"ogr":4383,"ysk":4384,"Ġpirks":4385,"Ġmate":4386,"Ġbuve":4387,"Ġkreiptis":4388,"40":4389,"arn":4390,"ektyv":4391,"Ġdaugelis":4392,"Ġmatai":4393,"Ġdirbu":4394,"Ġstovi":4395,"Zm":4396,"ista":4397,"ojimo":4398,"Ġkaime":4399,"Ġapar":4400,"ausd":4401,"Ġtiesiai":4402,"Ġapsis":4403,"Ġdvir":4404,"Ġpasidom":4405,"yventi":4406,"Ġuzmig":4407,"In":4408,"Ġtav":4409,"Ġved":4410,"ites":4411,"ĠKlaus":4412,"ĠDekui":4413,"Ġtruk":4414,"Ġdidesne":4415,"Ġgaunu":4416,"Ġkazkokios":4417,"Ġklases":4418,"Ġzied":4419,"Ġatsiskait":4420,"ykla":4421,"Ġsveln":4422,"Ġvari":4423,"Ġvyru":4424,"Ġapskaita":4425,"gas":4426,"pi":4427,"tal":4428,"tams":4429,"vienas":4430,"ure":4431,"Ġtikiuosi":4432,"ĠMane":4433,"Ġhum":4434,"Ġnekal":4435,"Ġmoterys":4436,"Ġnarys":4437,"http":4438,"pos":4439,"erk":4440,"Ġfaina":4441,"Ġbandziau":4442,"Ġpasaulis":4443,"Ġmaista":4444,"Ġkava":4445,"du":4446,"inko":4447,"Ġrusu":4448,"butu":4449,"Ġnenu":4450,"Ġdazniau":4451,"Ġgalvoja":4452,"ĠYpac":4453,"Ġbatus":4454,"aumen":4455,"Ġsep":4456,"Ġbeje":4457,"Ġret":4458,"Ġatras":4459,"ipl":4460,"Ġnub":4461,"ydavau":4462,"Ġparasyti":4463,"Ġpilnai":4464,"Ġtvir":4465,"inejo":4466,"auga":4467,"emes":4468,"ĠVokieti":4469,"Ġpalaik":4470,"Ġnemoku":4471,"13":4472,":<":4473,"del":4474,"kol":4475,"ejimai":4476,"Ġtrys":4477,"Ġ300":4478,"cion":4479,"Ġcharakter":4480,"Ġnereikal":4481,"ty":4482,"Ġie":4483,"Ġkoju":4484,"aaa":4485,"Ġvadovas":4486,"pir":4487,"port":4488,"inaud":4489,"ieti":4490,"Ġleidzia":4491,"Ġpaskai":4492,"Ġnorejo":4493,"uojasi":4494,"Ġvert":4495,"esion":4496,"Ġsioje":4497,"ĠHe":4498,"Ġoro":4499,"tura":4500,"Ġvaiksto":4501,"tyje":4502,"ykim":4503,"Ġpalyg":4504,"Ġnuotrauka":4505,"Se":4506,"Ġcukr":4507,"Ġsmegen":4508,"Mok":4509,"Nuo":4510,"aune":4511,"otos":4512,"tikr":4513,"Ġsupras":4514,"Ġlauke":4515,"ĠBuvau":4516,"ĠMuOn":4517,"LT":4518,"ph":4519,"anka":4520,"Ġmom":4521,"Ġpadid":4522,"Ġissiaisk":4523,"Ġalerg":4524,"Ġperskait":4525,"Ġeiles":4526,"Ġstaiga":4527,"OR":4528,"eba":4529,"Ġliek":4530,"ĠNen":4531,"ĠSod":4532,"Ġfr":4533,"Ġziniu":4534,"ĠZinau":4535,"Ġdalykais":4536,"Ġodos":4537,"fil":4538,"nuo":4539,"arank":4540,"ikl":4541,"iusi":4542,"Ġbusiu":4543,"Ġtarn":4544,"Tur":4545,"das":4546,"Ġ]":4547,"Ġkank":4548,"Ġprir":4549,"Ġsutr":4550,"Ġnesim":4551,"Ġsmul":4552,"Ġatlikti":4553,"Ġpabaigos":4554,"alios":4555,"ojasi":4556,"Ġzuv":4557,"Ġvisiem":4558,"Ġnervina":4559,"ID":4560,"aunu":4561,"Ġly":4562,"ojam":4563,"ĠSak":4564,"edas":4565,"Ġsakyt":4566,"Ġissit":4567,"tern":4568,"ĠPrie":4569,"Ġatsakom":4570,"vesti":4571,"Ġzurnala":4572,"uks":4573,"idas":4574,"Ġverk":4575,"Ġketvir":4576,"Ġkambari":4577,"Ġnepamenu":4578,"Ġaukstakul":4579,"ĠDazniausiai":4580,"bus":4581,"Ġtoje":4582,"Ġbil":4583,"Ġpastar":4584,"Ġnesug":4585,"ĠPirma":4586,"Ġvartot":4587,"kin":4588,"Ġsiame":4589,"inei":4590,"Ġneid":4591,"Ġpriskir":4592,"oro":4593,"Ġfant":4594,"Ġcek":4595,"ĠBut":4596,"Ġvaikus":4597,"Ġproga":4598,"Ġkonserv":4599,"Ġmokykloje":4600,"Ġanksto":4601,"Ġnariu":4602,"Ġmot":4603,"ĠNauj":4604,"ĠSm":4605,"Ġnuot":4606,"iskut":4607,"ĠGeriau":4608,"Ġvasaros":4609,"Ġproblemos":4610,"Ġnuspren":4611,"Ġleg":4612,"ojos":4613,"ĠSen":4614,"tino":4615,"agr":4616,"Ġmiegu":4617,"Ġstipriai":4618,"Ġpriemones":4619,"Ġpradzioje":4620,"Per":4621,"hop":4622,"ieme":4623,"toriu":4624,"Ġ))":4625,"Ġprivalo":4626,"Ġdeklaruoti":4627,"Ġrode":4628,"IR":4629,"Ġkino":4630,"Ġpatrauk":4631,"Ġcig":4632,"Ġpakeisti":4633,"Ġmirti":4634,"Ġuzpak":4635,"usius":4636,"Ġatsimenu":4637,"eisi":4638,"Ġsavimi":4639,"iskaiciu":4640,"Ġprekybos":4641,"Ġteleviz":4642,"af":4643,"dabar":4644,"Ġ....":4645,"ansu":4646,"Ġnevis":4647,"imti":4648,"ava":4649,"oles":4650,"Ġnemeg":4651,"Ġdalyka":4652,"Ġkainas":4653,"14":4654,"Ġsuaug":4655,"ĠPapras":4656,"Ġpradet":4657,"yno":4658,"ĠVisa":4659,"Ġasmenys":4660,"Ġ45":4661,"Ġsekasi":4662,"Ġnormalus":4663,"##":4664,"Taciau":4665,"usia":4666,"Ġgeda":4667,"ojama":4668,"uotes":4669,"Ġbaisiai":4670,"Ġnormalu":4671,"Ġregistruoti":4672,"iter":4673,"omus":4674,"Ġpasal":4675,"ĠSo":4676,"Ġnorit":4677,"izmas":4678,"unku":4679,"irsti":4680,"Ġporeik":4681,"Ġuzknis":4682,"Ġdraudimo":4683,"Ġuzsisak":4684,"Ġduk":4685,"Ġdov":4686,"atiskai":4687,"amone":4688,"ĠNera":4689,"ĠStai":4690,"aust":4691,"Ġreikalingas":4692,"Ġlaukia":4693,"Ġnusipirkt":4694,"Ġtaupau":4695,"Po":4696,"youtube":4697,"erc":4698,"Ġturit":4699,"Ġzodis":4700,"Ġpaaiskinti":4701,"Ġsaldain":4702,"Ġmanymu":4703,"buvo":4704,"Ġuzsiimti":4705,"Ġdideliu":4706,"Ġserijos":4707,"Ġbijo":4708,"Ġtinklap":4709,"Ġklase":4710,"arket":4711,"Ġsvetaine":4712,"Ġtechnolog":4713,"Ġpastoviai":4714,"iomis":4715,"iukai":4716,"Ġraj":4717,"uotos":4718,"ili":4719,"Ġvalandu":4720,"Ġfaktura":4721,"eite":4722,"Ġrep":4723,"iol":4724,"Ġkara":4725,"Ġpamoka":4726,"Ġproduktu":4727,"Ġgarant":4728,"xx":4729,"zo":4730,"Ġtt":4731,"okineze":4732,"Ġkuriam":4733,"Ġsusis":4734,"Ġsitie":4735,"Ġsutarties":4736,".(":4737,"Yra":4738,"adas":4739,"omo":4740,"Ġpasip":4741,"Ġsakai":4742,"Ġprades":4743,"Ġsiuz":4744,"Ġatvirks":4745,"Ġmegz":4746,"Ġkuriuo":4747,"ampa":4748,"Ġgreiciausiai":4749,"Ġnuolaid":4750,"mon":4751,"Ġmamai":4752,"olf":4753,"ipa":4754,"Ġnepal":4755,"Ġbusi":4756,"Ġpradzia":4757,"Ġnekenciu":4758,"Ġprocentu":4759,"Ġnepasteb":4760,"Ġskanus":4761,"Ġpraktiskai":4762,"Ġisteig":4763,"Ġsuvok":4764,"Ġamerik":4765,"pus":4766,"sto":4767,"Ġvon":4768,"Ġvitam":4769,"Ġturetum":4770,"Ġmato":4771,"Ġatvir":4772,"Ġ60":4773,"Ġvienintelis":4774,"Ġkoja":4775,"Ġitik":4776,"Ġgeriausiu":4777,"Ġatsipras":4778,"bay":4779,"ĠVisai":4780,"Ġpabeg":4781,"Ġzalia":4782,"sas":4783,"Ġpot":4784,"Ġnetr":4785,"Ġmi":4786,"Ġgoogle":4787,"ĠOr":4788,"Ġknygas":4789,"Ġuzdirbti":4790,"Ġisskyrus":4791,"OJ":4792,"]<":4793,"nem":4794,"Ġpasibaig":4795,"Ġatliek":4796,"Ġsiunti":4797,"Ġkodas":4798,"ĠPirm":4799,"Ġsukuos":4800,"Ġstum":4801,"adina":4802,"Ġrinka":4803,"Ġraumen":4804,"Ġipras":4805,"Ġatsitik":4806,"Ġtikru":4807,"eliui":4808,"Ġnesupratau":4809,"________________":4810,"Ġtraukia":4811,"Ġprasideda":4812,"cios":4813,"hh":4814,"ood":4815,"Ġpud":4816,"Ġked":4817,"Ġgausi":4818,"ĠNek":4819,"ĠAv":4820,"Ġpades":4821,"Ġpirkau":4822,"Ġparasiau":4823,"Ġvarda":4824,"itaiko":4825,"Ġbaime":4826,"ĠZmones":4827,"ĠNebent":4828,"fer":4829,"Ġduo":4830,"ide":4831,"Ġisvaizda":4832,"Ġsampun":4833,"tam":4834,"Ġlaip":4835,"uosius":4836,"Ġnerandu":4837,"Ġsiulo":4838,"Ġduomenu":4839,"Ġpaskola":4840,"18":4841,">]":4842,"eidziu":4843,"Ġskanu":4844,"Ġmuzikos":4845,"Ġsiulau":4846,"Tu":4847,"kom":4848,"neb":4849,"Ġtom":4850,"Ġmon":4851,"ĠPR":4852,"Ġparsis":4853,"Ġnusil":4854,"tingas":4855,"uolis":4856,"Ġnesamoniu":4857,"Ġvykdyti":4858,"Ġdaiktus":4859,"ukuse":4860,"Dr":4861,"irko":4862,"Ġsalta":4863,"Ġdirbi":4864,"velg":4865,"Lietuv":4866,"ukai":4867,"Ġeik":4868,"Ġac":4869,"Ġstar":4870,"pratau":4871,"Ġdaugybe":4872,"Ġasmenu":4873,"Ġatsakyti":4874,"Ġvisokius":4875,"Ġpenktadien":4876,"Ġatsiliep":4877,"Ġnesinori":4878,"inami":4879,"Ġluz":4880,"Ġpast":4881,"Ġkazin":4882,"Ġneteko":4883,"Ġpirmo":4884,"Ġfilme":4885,"Ġpasirinkti":4886,"Ġramiai":4887,"ĠKazkada":4888,"?!":4889,"atinka":4890,"Ġprot":4891,"Ġsutinku":4892,"ĠJos":4893,"ĠLenk":4894,"Ġnaudos":4895,"Ġzenklas":4896,"Ġnurodyti":4897,"Ġpagalvojau":4898,"Ġuzpild":4899,"Ġapsimoka":4900,"juk":4901,"Ġsius":4902,"ĠVIS":4903,"ynes":4904,"Ġneleidzia":4905,"Ġilga":4906,"Ġprofesion":4907,"Ġfainas":4908,"Ġsrityje":4909,"Ġatvejais":4910,"16":4911,"lais":4912,"pak":4913,"so":4914,"Ġpand":4915,"Ġtiketi":4916,"ĠKuo":4917,"Ġkazkuo":4918,"Ġsutvark":4919,"yy":4920,"Ġistai":4921,"ekomend":4922,"Ġapac":4923,"ĠKit":4924,"ĠEs":4925,"engia":4926,"Ġ35":4927,"Ġsekmes":4928,"Ġpasidaro":4929,"Ġminuciu":4930,"Ġneverta":4931,"tika":4932,"Ġduoti":4933,"Ġginc":4934,"atoriu":4935,"Ġbunu":4936,"ement":4937,"edami":4938,"ands":4939,"ivyl":4940,"Ġdalys":4941,"Ġsukure":4942,"Ġliga":4943,"Ġnereikes":4944,"Ġneaps":4945,"01":4946,"ED":4947,"SI":4948,"lep":4949,"ietus":4950,"anos":4951,"Ġpriziur":4952,"ora":4953,"orius":4954,"Ġgalesi":4955,"iolog":4956,"ĠTokiu":4957,"Ġstamb":4958,"Ġilgi":4959,"iuku":4960,"old":4961,"Ġpaskutinis":4962,"ĠAnksciau":4963,"Ġklientas":4964,"Ġobjek":4965,"mis":4966,"Ġkojas":4967,"Ġataskai":4968,"ynai":4969,"Ġperskaiciau":4970,"Ġrodos":4971,"Ġvalandas":4972,"cm":4973,"Ġpens":4974,"Ġapd":4975,"Ġplaciau":4976,"Ġsusid":4977,"Ġamzin":4978,"Arba":4979,"Ġgyventoju":4980,"Ġgaranti":4981,"Ġterm":4982,"Turiu":4983,"ah":4984,"tenka":4985,"anks":4986,"Ġjap":4987,"omb":4988,"Ġpaties":4989,"Ġturesiu":4990,"Ġmokytis":4991,"ĠBand":4992,"uper":4993,"Ġsiuos":4994,"Ġvalstybe":4995,"Ġlinksmas":4996,"Ġduomenis":4997,"ET":4998,"OL":4999,"yju":5000,"Ġsap":5001,"Ġlanga":5002,"ojimu":5003,"Ġdarai":5004,"ĠIm":5005,"Ġneradau":5006,"Ġkomedija":5007,"Ġprisimenu":5008,"Ġnagus":5009,"RA":5010,"Ġkeb":5011,"Ġsor":5012,"ineju":5013,"Ġbas":5014,"uras":5015,"uros":5016,"Ġnut":5017,"Ġnutrauk":5018,"Ġaki":5019,"Ġaktyv":5020,"varb":5021,"Ġsveika":5022,"DDD":5023,"Ġprasidejo":5024,"Ġpildyti":5025,")?":5026,"?\"":5027,"nei":5028,"Ġneati":5029,"ĠAtr":5030,"Ġgeriausiai":5031,"Ġpoveik":5032,"Ġveikti":5033,"Ġsaskaitu":5034,"Ġmaistas":5035,"Ġemoc":5036,"Ġkonsultant":5037,"dama":5038,"Ġtegu":5039,"all":5040,"etina":5041,"uoz":5042,"ĠPak":5043,"Ġnepiln":5044,"Ġsupranta":5045,"ĠButu":5046,"Ġsmag":5047,"Ġus":5048,"Ġkupr":5049,"Ġbar":5050,"Ġlent":5051,"Ġpasinaud":5052,"Ġtiktu":5053,"Ġpaskutine":5054,"Ġserija":5055,"Ġstilius":5056,"Ġpaskamb":5057,"Ġkalbeti":5058,"Ġpapildomai":5059,"Ġgrupe":5060,"Ġsusigraz":5061,"Ġsvente":5062,"Ġnusikal":5063,"Ġabejoju":5064,"Aisku":5065,"Ġpc":5066,"Ġsuo":5067,"erial":5068,"adic":5069,"Ġ24":5070,"ĠEn":5071,"Ġpakab":5072,"Ġstebu":5073,"Ġatvirksciai":5074,"Ġnej":5075,"Ġisejo":5076,"Ġpastu":5077,"ĠAha":5078,"ysti":5079,"Ġ28":5080,"ende":5081,"tosi":5082,"Ġnebuvau":5083,"Ġplaukais":5084,"Ġinterneto":5085,"Ġteat":5086,"Ġskirtumo":5087,"co":5088,"dd":5089,"ual":5090,"elem":5091,"tuka":5092,"Ġnuoma":5093,"Ġakinius":5094,"Ġkelios":5095,"ĠEr":5096,"Ġmazesne":5097,"Ġpasako":5098,"Ġverslui":5099,"Ġale":5100,"aupau":5101,"Ġmyli":5102,"iciu":5103,"inem":5104,"Ġlic":5105,"Ġuzaug":5106,"austas":5107,"vart":5108,"Ġpardavineti":5109,"Ġbendrijos":5110,"Ġprojekta":5111,"Ġnerealus":5112,"ĠZiurejau":5113,"Ġomeny":5114,"Ġkenkia":5115,"iegu":5116,"Ġmarket":5117,"Ġziem":5118,"Ġkuriais":5119,"ysite":5120,"andi":5121,"Ġnetycia":5122,"Ġpanele":5123,"ĠRas":5124,"irbti":5125,"Ġpadaro":5126,"Ġpagam":5127,"Ġmiesto":5128,"ĠTiesa":5129,"Ġakciju":5130,"Ġkavos":5131,"aziavo":5132,"Ġsijonu":5133,"Ġbendra":5134,"Uh":5135,"ziais":5136,"Ġkuna":5137,"imos":5138,"ork":5139,"ong":5140,"ĠSaul":5141,"ĠMe":5142,"Ġjautr":5143,"eistas":5144,"tuves":5145,"Ġzmonemis":5146,"Ġzinias":5147,"Ġnebep":5148,"Ġpavyd":5149,"uodu":5150,"Ġmerginu":5151,"Ġbendrauti":5152,"oze":5153,"Ġamziu":5154,"Ġapsireng":5155,"ian":5156,"inamas":5157,"Ġgink":5158,"ĠTie":5159,"Ġatskait":5160,"Ġparama":5161,"Ġakmen":5162,"Ġideg":5163,"Ġissik":5164,"Ġdidelio":5165,"Ġhe":5166,"Ġpaliko":5167,"Ġpanasiu":5168,"Ġminejo":5169,"Ġatitinka":5170,"Ġkeistai":5171,"Ġpraktik":5172,"Ġatskirai":5173,"Ġvandeni":5174,"Ġkt":5175,"Ġbaz":5176,"oko":5177,"ekti":5178,"Ġsusipaz":5179,"ovid":5180,"Ġpadovan":5181,"eidau":5182,"Ġlaisvai":5183,"Ġisigyti":5184,"Ġkvapas":5185,"Ġbang":5186,"usio":5187,"Ġprag":5188,"Ġistrauk":5189,"Ġgalvoti":5190,"Ġateis":5191,"Ġateiti":5192,"Ġkarsta":5193,"ulis":5194,"ivald":5195,"Ġnud":5196,"Ġanime":5197,"Ġneisivaizduoju":5198,"Ġvyriaus":5199,"Ġsveikata":5200,"Ġpraejo":5201,"ininke":5202,"ĠVilniuje":5203,"cijas":5204,"erius":5205,"Ġla":5206,"Ġnesak":5207,"Ġkokiam":5208,"ovas":5209,"eps":5210,"Ġpana":5211,"yrank":5212,"Ġpanasu":5213,"Ġtikslas":5214,"atura":5215,"Ġprograma":5216,"Ġtrumpai":5217,"pati":5218,"Ġlav":5219,"tumo":5220,"proc":5221,"Ġkokyb":5222,"Ġimti":5223,"Ġpavarde":5224,"ĠPasku":5225,"Ġnusiper":5226,"Ġgatv":5227,"Ġvairuot":5228,"land":5229,"inciau":5230,"encijos":5231,"ejot":5232,"Ġtiki":5233,"aist":5234,"ĠAb":5235,"intos":5236,"Ġprisijung":5237,"ĠVisada":5238,"Ġvakara":5239,"Ġpasiulyti":5240,"Ġskraid":5241,"oru":5242,"Ġnaudotis":5243,"Ġmiela":5244,"Ġsusije":5245,"Ġuzregistr":5246,"OD":5247,"auSe":5248,"Ġmit":5249,"Ġmum":5250,"ĠStr":5251,"ĠSako":5252,"Ġgriez":5253,"Ġpaved":5254,"Ġkalbet":5255,"Ġnebutinai":5256,"Ġforumo":5257,"Ġabejo":5258,"Ġport":5259,"Ġveida":5260,"Ġpamatyt":5261,"Ġregistra":5262,"Ġsusitar":5263,"ĠNemanau":5264,"Ġ>)":5265,"UhauSe":5266,"Jo":5267,"kal":5268,"Ġteigi":5269,"entais":5270,"Ġzodziai":5271,"ĠAnd":5272,"Ġtelefonu":5273,"vi":5274,"yras":5275,"Ġgaud":5276,"ĠTavo":5277,"antiems":5278,"Ġtiekeju":5279,"aulio":5280,"ĠTurbut":5281,"Ġmiesta":5282,"Kur":5283,"gum":5284,"Ġpasta":5285,"Ġnepag":5286,"Ġapsilank":5287,"Ġ80":5288,"Ġsutaup":5289,"Ġpavyko":5290,"[::":5291,"ld":5292,"Ġkaul":5293,"Ġfunk":5294,"ule":5295,"Ġsakoma":5296,"ica":5297,"Ġkomun":5298,"ibl":5299,"Ġskirti":5300,"Ġreikalav":5301,"Ġemo":5302,"Ġtamsiai":5303,"Ġauga":5304,"Ġparodyti":5305,"Ġslykstu":5306,"bent":5307,"ĠTh":5308,"pro":5309,"andar":5310,"Ġrasau":5311,"Ġalaus":5312,"Ġparduotuvese":5313,"Ġsutap":5314,"Ġgrozio":5315,"Ġnesveika":5316,"Ġnesugeb":5317,"auliu":5318,"Ġrec":5319,"ĠII":5320,"Ġrasiau":5321,"ĠLinks":5322,"acijoje":5323,"Ġpanasi":5324,"Ġtiesus":5325,"Ġ70":5326,"Ġtab":5327,"Ġpasakiau":5328,"Ġhip":5329,"Ġidomiai":5330,"Ġtevas":5331,"Ġdaiktas":5332,"Ġketur":5333,"Ġnuoroda":5334,"yf":5335,"Ġtor":5336,"ĠMaciau":5337,"izmo":5338,"uojamas":5339,"Ġpradedu":5340,"Ġsalyje":5341,"Ġpameg":5342,"Ġtarif":5343,"Ġatsakymo":5344,"manau":5345,"Ġkvepia":5346,"Ġfotograf":5347,"100":5348,"Id":5349,"ner":5350,"Ġejau":5351,"irst":5352,"Ġdz":5353,"okst":5354,"Ġrak":5355,"etik":5356,"Ġatrodytu":5357,"Ġsusitvark":5358,"ĠAngl":5359,"nam":5360,"raud":5361,"ss":5362,"Ġso":5363,"Ġmy":5364,"Ġbed":5365,"Ġisik":5366,"ive":5367,"Ġparduoda":5368,"Ġanti":5369,"Ġvaikinai":5370,"Ġtaisykles":5371,"Kodel":5372,"bas":5373,"fi":5374,"alaid":5375,"ĠNei":5376,"ĠNelabai":5377,"galaik":5378,"Ġklausimai":5379,"Ġmiego":5380,"Ġnagai":5381,"ml":5382,"Ġneveik":5383,"enks":5384,"ysis":5385,"Ġturint":5386,"slo":5387,"Ġidejos":5388,"Ġstalo":5389,"Ġskirta":5390,"Ġreikalo":5391,"apnavau":5392,"Ġlike":5393,"\"...":5394,"CI":5395,"ait":5396,"Ġpaypal":5397,"kop":5398,"Ġmetams":5399,"ijuok":5400,"elt":5401,"elig":5402,"Ġispl":5403,"ĠGab":5404,"auke":5405,"Ġpavoj":5406,"ĠGalv":5407,"Ġlietuvoje":5408,"Ġtiksliau":5409,"Ġnariai":5410,"Ġuzsienyje":5411,"Ġerd":5412,"Ġrugs":5413,"kg":5414,"iss":5415,"ĠPan":5416,"ysim":5417,"Ġnores":5418,"Ġnemoka":5419,"iske":5420,"Ġsitos":5421,"Ġpaprasciausiai":5422,"Ġnuomos":5423,"ancias":5424,"Ġpaskelb":5425,"ĠNiekas":5426,"Nep":5427,"Si":5428,"aur":5429,"Ġries":5430,"Ġlip":5431,"ĠPaziur":5432,"ĠKaune":5433,"kute":5434,"Ġpatr":5435,"umos":5436,"igub":5437,"ingus":5438,"Ġsusimas":5439,"Ġmetod":5440,"......":5441,"Ġpamate":5442,"Ġstab":5443,"***":5444,"Ġnepadar":5445,"ciams":5446,"par":5447,"sm":5448,"sio":5449,"Ġ%":5450,"Ġniu":5451,"Ġiranga":5452,"ojom":5453,"ĠTIK":5454,"ĠVel":5455,"Ġidarb":5456,"Ġkazkokius":5457,"Ġnezinai":5458,"Ġzodzio":5459,"ooo":5460,"Ġisigij":5461,"Ġpatogu":5462,"Ġatidaryti":5463,"inom":5464,"tuose":5465,"Ġdarosi":5466,"ĠPatiko":5467,"ĠKokie":5468,"ĠDarb":5469,"ack":5470,"ydami":5471,"Ġnaudinga":5472,"Ġbrolis":5473,"ĠPaskui":5474,"Ġziaurus":5475,"Ġsudom":5476,"Ġsilta":5477,"Ġpokalb":5478,"Ġsanaud":5479,"Ġdbr":5480,"iki":5481,"Ġzad":5482,"Ġnesik":5483,"Ġkitokia":5484,"dzi":5485,"Ġkazkokio":5486,"Ġsena":5487,"Ġpuslapi":5488,"Ġautomobili":5489,"Ġbiu":5490,"Ġjinai":5491,"eld":5492,"Ġisor":5493,"Ġideju":5494,"Ġprisig":5495,"inistr":5496,"Ġblondine":5497,"kada":5498,"uzes":5499,"ĠSte":5500,"Ġgamta":5501,"Ġsiela":5502,"Ġryto":5503,"IIII":5504,"Ġnugaros":5505,"Ġfantaz":5506,"Ġmiisu":5507,"Tada":5508,"Ġpyk":5509,"Ġdave":5510,"uola":5511,"Ġtiks":5512,"Ġapib":5513,"Ġatsiti":5514,"etikiu":5515,"ĠGyv":5516,"Ġplana":5517,"Ġlaikui":5518,"Ġreikalauja":5519,"Ġparase":5520,"Ġ150":5521,"atuir":5522,"Ġbaimes":5523,"Ġfirmos":5524,"Ġlankyt":5525,"Ġbirz":5526,"Ġaukstakuln":5527,":]":5528,"iuk":5529,"Ġmaud":5530,"Ġpasiu":5531,"ijomis":5532,"ĠTo":5533,"emijos":5534,"Ġrast":5535,"Ġveikl":5536,"ĠRes":5537,"Ġsuprast":5538,"Ġfaktas":5539,"Ġsvarst":5540,"Ġprodukta":5541,"onsult":5542,".?":5543,"70":5544,"lb":5545,"Ġkg":5546,"intuv":5547,"Ġbez":5548,"Ġlyd":5549,"eicia":5550,"ĠLyju":5551,"ulta":5552,"Ġnusteb":5553,"Ġsavivald":5554,"Ġpatarimu":5555,"!!!!!!!!":5556,"Ġgatves":5557,"hm":5558,"paz":5559,"zm":5560,"ogi":5561,"ĠVat":5562,"Ġzmonem":5563,"Ġnelaim":5564,"Ġmielas":5565,"Ġmilzin":5566,"Ġrytoj":5567,"Ġteikti":5568,"ĠKlaip":5569,"Ġmakia":5570,"ĠIndividual":5571,"ze":5572,"inejau":5573,"eria":5574,"Ġuzg":5575,"Ġgeresnis":5576,"Ġklub":5577,"Ġ2000":5578,"Ġnauda":5579,"uoliai":5580,"Ġpuikus":5581,"uck":5582,"Ġkoda":5583,"atorius":5584,"Ġatsidaryti":5585,"Ġliudijima":5586,"Ġprekiauti":5587,"45":5588,"vil":5589,"yciu":5590,"alk":5591,"Ġjoms":5592,"eiciau":5593,"ĠTuo":5594,"oga":5595,"ĠVykst":5596,"ente":5597,"Ġlaikai":5598,"Ġgaut":5599,"Ġnegerai":5600,"Ġautomatiskai":5601,"Ġlinksma":5602,"ĠEuropos":5603,"'t":5604,"Ġviln":5605,"tukas":5606,"Ġmanote":5607,"Ġatkreip":5608,"ysit":5609,"Ġturim":5610,"ĠEd":5611,"Ġissis":5612,"Ġaliej":5613,"Ġraudona":5614,"Ġdidziausia":5615,"cias":5616,"ple":5617,"veg":5618,"Ġmobil":5619,"Ġvisam":5620,"iolet":5621,"odamas":5622,"Ġnesuk":5623,"ystu":5624,"Ġkokybes":5625,"Ġverkiau":5626,"Ġneturetu":5627,"Ġvanduo":5628,"Ġdaikta":5629,"Ġsodrai":5630,"Ġnuostabus":5631,"Ġcukraus":5632,"90":5633,"nt":5634,"Ġda":5635,"Ġdang":5636,"erija":5637,"Ġgalesiu":5638,"Ġneband":5639,"Ġprekyb":5640,"Ġsali":5641,"ĠHm":5642,"ife":5643,"Ġsviesa":5644,"Ai":5645,"jai":5646,"ool":5647,"Ġmor":5648,"Ġrandu":5649,"Ġnesioti":5650,"Ġdare":5651,"ĠPad":5652,"ĠDie":5653,"Ġfu":5654,"tinti":5655,"egor":5656,"ĠIst":5657,"uke":5658,"Ġtiesiogiai":5659,"Ġstraipsni":5660,"Ġzveng":5661,"Ġstiprus":5662,"Ġomg":5663,"Ġateityje":5664,"ĠTarkim":5665,"pag":5666,"tem":5667,"Ġbegal":5668,"etinai":5669,"ĠPra":5670,"ĠDeja":5671,"Ġdaugiausiai":5672,"uostab":5673,"Ġpakr":5674,"ecia":5675,"ĠUZ":5676,"ĠFR":5677,"Ġabi":5678,"Ġnumat":5679,"Ġuzteks":5680,"Ġisrasyti":5681,"Ġmalonu":5682,"Ġkrutine":5683,"Ġsusikur":5684,"Ġpavyzdys":5685,"Ver":5686,"Ġvag":5687,"ijom":5688,"Ġmaniau":5689,"iamu":5690,"Ġnebet":5691,"Ġtiesos":5692,"Ġsapnas":5693,"Ġliks":5694,"Ġlaukti":5695,"Ġsruog":5696,"aziav":5697,"!-":5698,"Nem":5699,"tada":5700,"Ġsiau":5701,"Ġbeda":5702,"Ġleisti":5703,"azu":5704,"ejams":5705,"Ġpaci":5706,"Ġapyrank":5707,"Ġtokiam":5708,"andzio":5709,"Ġsakyciau":5710,"Ġpavirs":5711,"Ġjuokingas":5712,"ierius":5713,"Ġdaiktu":5714,"Ġpoliti":5715,"publ":5716,"Ġtelefono":5717,"Ġglob":5718,"Fil":5719,"zv":5720,"air":5721,"Ġpril":5722,"ojamas":5723,"Ġnuod":5724,"Ġsavarank":5725,"Ġalga":5726,"Ġatsakymas":5727,"Ġbandau":5728,"Ġstiliu":5729,"Ġveidas":5730,"Ġdovanu":5731,"Ġlovos":5732,"Ġminutes":5733,"Ġkompanija":5734,"jam":5735,"eikal":5736,"Ġargum":5737,"Ġpatink":5738,"Ġperki":5739,"Ġprasau":5740,"Ġparduotuviu":5741,"Ġapklaus":5742,"Ġrizik":5743,"Ġvaldzios":5744,"usti":5745,"Ġjoje":5746,"Ġpasitaiko":5747,"Ġatnes":5748,"Ġsusidom":5749,"Ġkeletas":5750,"Ġeurop":5751,"Ġvardo":5752,"Ġklaida":5753,"Ġpasiim":5754,"Ġnesul":5755,"ĠKaun":5756,"aukti":5757,"ezes":5758,"Ġ22":5759,"icija":5760,"Ġpasiekti":5761,"Ġviruso":5762,"Ġaktoriai":5763,"Ġprimena":5764,"Ġvalstybei":5765,"Of":5766,"ianti":5767,"ri":5768,"way":5769,"iuko":5770,"Ġgeg":5771,"Ġjeg":5772,"tuku":5773,"Ġiseit":5774,"Ġapibud":5775,"inties":5776,"Ġapsiver":5777,"Ġpaprasciau":5778,"Ġstiliaus":5779,"ofl":5780,"mmm":5781,"Ġkunas":5782,"Ġvandeniu":5783,"Ġunivers":5784,"Ġvelnio":5785,"Pav":5786,"Ġev":5787,"Ġdiskut":5788,"ames":5789,"Ġisip":5790,"emj":5791,"ĠIl":5792,"ukti":5793,"unka":5794,"Ġnaujos":5795,"Ġbrek":5796,"aaabai":5797,"Ġsex":5798,"AIP":5799,"Ġpavadinimo":5800,"Ġdainos":5801,"Ġissigand":5802,"ĠFilmas":5803,"Ġtulpa":5804,"Ġnusprendziau":5805,"sa":5806,"ses":5807,"tei":5808,"zios":5809,"Ġro":5810,"aband":5811,"ĠSU":5812,"egz":5813,"ĠMel":5814,"ĠMerg":5815,"ĠBijau":5816,"Ġveikt":5817,"Ġilgalaik":5818,"Ġsunkiau":5819,"Ġperson":5820,"timis":5821,"ĠDievas":5822,"Ġkonkreciai":5823,"Ġlaida":5824,"Ġetc":5825,"Ġispudi":5826,"nel":5827,"Ġpei":5828,"ish":5829,"Ġdingo":5830,"Ġlenk":5831,"Ġpranas":5832,"Ġatk":5833,"...-":5834,"Ġneprad":5835,"Ġkosmeti":5836,"Ġvyst":5837,"Ġdeb":5838,"Ġdiskus":5839,"Ġbjau":5840,"Ġnesakau":5841,"ĠAus":5842,"Ġturime":5843,"Ġgripo":5844,"Ġvienai":5845,"Ġnetoli":5846,"Ġnutik":5847,"Ġwhat":5848,"Ġsavaime":5849,"Ġstraipsnio":5850,"ĠJohn":5851,"Ġjauciuosi":5852,"Ġnusisnek":5853,"Pati":5854,"Sk":5855,"nauj":5856,"sit":5857,"Ġ&#":5858,"Ġtoj":5859,"ĠKom":5860,"ĠMama":5861,"Ġcitr":5862,"Ġnuejau":5863,"acijas":5864,"Ġeini":5865,"Ġpaskiep":5866,"stitu":5867,"ĠVilniaus":5868,"Ġnuvaziu":5869,"Ġskonio":5870,"iate":5871,"alius":5872,"Ġdata":5873,"Ġnoro":5874,"Ġturta":5875,"Ġspind":5876,"ech":5877,"Ġnegalejo":5878,"auksiu":5879,"Ġnepamirs":5880,"Ġbiudz":5881,"GB":5882,"bo":5883,"Ġkantr":5884,"Ġsai":5885,"Ġneaisk":5886,"enes":5887,"Ġnorite":5888,"Ġtaj":5889,"Ġkitokiu":5890,"Ġnusib":5891,"uodi":5892,"Ġbuvom":5893,"Ġnepras":5894,"Ġbaigesi":5895,"Ġtelefona":5896,"Ġruko":5897,"Tiesiog":5898,"Zin":5899,"tyti":5900,"Ġpom":5901,"Ġsiaur":5902,"inkai":5903,"ĠVyr":5904,"Ġkars":5905,"Ġpavarg":5906,"Ġmates":5907,"vaj":5908,"Ġgalvoj":5909,"Ġpaskutini":5910,"Ġmiegoti":5911,"Ġenerget":5912,"Ġkvaila":5913,"Ġdekui":5914,"Ġlesius":5915,"Ġskambu":5916,"Ġdesimt":5917,"?)":5918,"Esu":5919,"Pal":5920,"jis":5921,"tuo":5922,"Ġml":5923,"elek":5924,"onos":5925,"ĠPard":5926,"umus":5927,"Ġatsim":5928,"ĠGaila":5929,"Ġpadejo":5930,"Ġziuresiu":5931,"Ġvaidyba":5932,"Ġsvarbus":5933,"Ġlupu":5934,"Ġgatve":5935,"ONE":5936,"Nezinau":5937,"lug":5938,"alyv":5939,"imams":5940,"urg":5941,"Ġprancuz":5942,"Ġmanai":5943,"iesk":5944,"ĠSal":5945,"Ġvertas":5946,"Ġkamuoliu":5947,"Ġmiega":5948,"Ġtoler":5949,"kstau":5950,"Ġlietuviai":5951,"Ġkeistas":5952,"Ġaplank":5953,"Ġisgird":5954,"Ġvaiksci":5955,"encial":5956,"80":5957,"anus":5958,"Ġgasd":5959,"erti":5960,"Ġleis":5961,"Ġdarytis":5962,"Ġgerus":5963,"Ġissiv":5964,"ĠCar":5965,"Ġnegalv":5966,"Ġdalyko":5967,"Ġpaziuriu":5968,"Ġnesioja":5969,"Ġimoneje":5970,"Ġnusikirp":5971,"'.":5972,"Al":5973,"Br":5974,"Mes":5975,"Neb":5976,"Vien":5977,"Ġnekreip":5978,"Ġdep":5979,"Ġistik":5980,"ĠPukuse":5981,"Ġapval":5982,"Ġgerti":5983,"ĠIS":5984,"Ġtradic":5985,"ovie":5986,"Ġsavininkas":5987,"Ġmazu":5988,"Ġdidesnis":5989,"Ġporos":5990,"Ġsedziu":5991,"Ġeme":5992,"Ġzenklu":5993,"Ġduru":5994,"Ġkvail":5995,"Ġpatogiau":5996,"pav":5997,"vaks":5998,"Ġpuod":5999,"Ġsirg":6000,"Ġyour":6001,"ĠDan":6002,"Ġ--":6003,"ĠRe":6004,"Ġnenaud":6005,"irdejau":6006,"Ġparduotuveje":6007,"Ġjuodai":6008,"Ġsugeba":6009,"Ġprojekto":6010,"Ġpabandyt":6011,"Ġdziaugiuosi":6012,"Ġcentre":6013,"22":6014,"tomis":6015,"wil":6016,"Ġtim":6017,"Ġnk":6018,"iso":6019,"aniau":6020,"Ġvokie":6021,"ĠbA":6022,"Ġgraf":6023,"Ġpasi":6024,"ĠVasara":6025,"izuoti":6026,"Ġinstitu":6027,"Ġesat":6028,"Ġpaprastu":6029,"Ġismokti":6030,"Ġstudij":6031,"ĠPatinka":6032,"Ġpasidalinti":6033,"Ġbiz":6034,"ekes":6035,"bul":6036,"kurie":6037,"ĠaA":6038,"Ġkompo":6039,"Ġsuteikia":6040,"Ġtemper":6041,"Ġvakcinos":6042,"Ġjuros":6043,"Ġpasirasyti":6044,"Ġkarantino":6045,"Ġinvestuot":6046,"Ġsuknele":6047,"inimai":6048,"Ġvesti":6049,"eres":6050,"ĠJap":6051,"Ġskil":6052,"Ġsustab":6053,"Ġpriev":6054,"Ġkomand":6055,"Ġskirtingi":6056,"Ġgalvoje":6057,"Ġpardavimu":6058,"kaitant":6059,"Ġkonsulta":6060,"Ġpriezasciu":6061,"ailes":6062,"autu":6063,"Ġjiem":6064,"ĠSc":6065,"ĠSl":6066,"Ġaktorius":6067,"ĠFor":6068,"Ġnedirb":6069,"Ġjuodi":6070,"Ġrudi":6071,"Ġsudaro":6072,"Ġmuit":6073,"Ġakimis":6074,"ct":6075,"mais":6076,"inek":6077,"ĠKor":6078,"Ġdrus":6079,"Ġlaimes":6080,"Ġnebel":6081,"yga":6082,"Ġdraugus":6083,"Ġmasinos":6084,"Ġmedic":6085,"Ġregistruotis":6086,"____________":6087,"Ġklasej":6088,"Ġvaizdas":6089,"Ġstaig":6090,"Ġsventes":6091,"Ġdirektorius":6092,"AK":6093,"irti":6094,"Ġbuk":6095,"ekm":6096,"Ġuzl":6097,"ausiu":6098,"ĠMegstu":6099,"Ġsavik":6100,"udo":6101,"Ġnaudoja":6102,"Ġatsako":6103,"Ġsapnai":6104,"Ġklientui":6105,"Ġkraujas":6106,"Ġieskau":6107,"Ġlupos":6108,"Ġskonis":6109,"Ġsmegenu":6110,"Ġrestor":6111,"Visi":6112,"yj":6113,"Ġpriimti":6114,"Ġgeriu":6115,"ĠJu":6116,"trig":6117,"Ġniekuo":6118,"Ġissiimti":6119,"Ġebay":6120,"ĠVisu":6121,"ĠPasir":6122,"Ġpersp":6123,"Tikrai":6124,"Ġdainu":6125,"Ġnerealiai":6126,"Ġmaitin":6127,"Ġvaiksciot":6128,"dur":6129,"iba":6130,"Ġtat":6131,"ade":6132,"Ġlesu":6133,"Ġapat":6134,"ĠBais":6135,"Ġrasi":6136,"auda":6137,"Ġinsp":6138,"ecio":6139,"Ġsitaip":6140,"oteris":6141,"Ġsavaiciu":6142,"Ġnesupranta":6143,"Ġzenklo":6144,"Ġpapildomu":6145,"Ġgrozis":6146,"Ġsapna":6147,"Juk":6148,"Viskas":6149,"lia":6150,"nezinau":6151,"Ġbazn":6152,"ikoje":6153,"Ġsumas":6154,"ausas":6155,"ciui":6156,"ĠBel":6157,"Ġpraso":6158,"ĠUS":6159,"Ġher":6160,"Ġpirkejas":6161,"Ġblogas":6162,"Ġligos":6163,"uuuu":6164,"ininkus":6165,"ĠDaugiau":6166,"engiasi":6167,"ĠButent":6168,"viz":6169,"wo":6170,"Ġsas":6171,"Ġmod":6172,"Ġsukr":6173,"ejimus":6174,"ĠSE":6175,"iose":6176,"eveik":6177,"Ġpamok":6178,"ĠTikr":6179,"Ġwith":6180,"Ġklientai":6181,"Ġdarbuotojai":6182,"Ġprojektas":6183,"Ġgyvunu":6184,"Ġsarasa":6185,"Ġsniego":6186,"ise":6187,"itar":6188,"Ġskys":6189,"Ġnemieg":6190,"Ġversle":6191,"Ġverslu":6192,"ĠNesupr":6193,"Ġtinkl":6194,"Ġrezis":6195,"Ġthat":6196,"ship":6197,"www":6198,"agrind":6199,"andsberg":6200,"eet":6201,"tume":6202,"Ġgrand":6203,"Ġvaika":6204,"Ġnaudot":6205,"Ġbalti":6206,"ealiai":6207,"Ġparasyt":6208,"Ġbande":6209,"Ġnesamon":6210,"haha":6211,"Ġvyra":6212,"Ġlektuv":6213,"Ġdovana":6214,"SO":6215,"Ġsienos":6216,"inimui":6217,"ales":6218,"Ġdo":6219,"ĠPras":6220,"Ġpatyr":6221,"pren":6222,"ĠBus":6223,"Ġatsikr":6224,"ymais":6225,"Ġesame":6226,"Ġkomed":6227,"Ġnegalejau":6228,"ypac":6229,"Ġsudeg":6230,"Ġnegyv":6231,"Ġkalbant":6232,"Ġaplamai":6233,"Ġstudentas":6234,"Ġklaidu":6235,"Ġelgtis":6236,"17":6237,"metu":6238,"zes":6239,"Ġtatuir":6240,"Ġnr":6241,"Ġname":6242,"Ġlol":6243,"Ġprat":6244,"aiska":6245,"ĠTiek":6246,"iausius":6247,"ĠVai":6248,"Ġdirbt":6249,"Ġzodzius":6250,"Ġneatsimenu":6251,"Ġfainai":6252,"Ġgrupes":6253,"Ġgirdziu":6254,"Ġnuotrauku":6255,",-":6256,"ybu":6257,"Ġ{":6258,"irbu":6259,"Ġpatais":6260,"Ġparuos":6261,"Ġvaldo":6262,"Ġpradziai":6263,"Ġpasirinkimas":6264,"Ġteritor":6265,"Ġkultur":6266,"Ġadresa":6267,"Ġpavyzdi":6268,"Ġneidomu":6269,"ĠAtrodo":6270,"Jis":6271,"MA":6272,"Ġuos":6273,"Ġeid":6274,"Ġsyk":6275,"etusi":6276,"Ġryta":6277,"ejosi":6278,"Ġzan":6279,"ĠPu":6280,"pries":6281,"ĠVeliau":6282,"Ġpavyzdziu":6283,"Ġdidesni":6284,"Ġnebloga":6285,"atoriai":6286,"ĠDieve":6287,"Ġsvajone":6288,"Ġsteigti":6289,"Ġscen":6290,"%,":6291,"IAI":6292,"esta":6293,"imes":6294,"Ġuzim":6295,"Ġatsarg":6296,"Ġpavalg":6297,"ainos":6298,"Ġplanuoju":6299,"Ġbrangus":6300,"Ġsusidure":6301,"Ġsvorio":6302,"Ġrecep":6303,"OT":6304,"jog":6305,"liau":6306,"tuok":6307,"azas":6308,"Ġnesil":6309,"iesti":6310,"ĠAm":6311,"Ġuzsiima":6312,"Ġzmogumi":6313,"Ġvietas":6314,"Ġbruoz":6315,"Ġbalt":6316,"karciais":6317,"Ġlygio":6318,"oooo":6319,"Ġlaisve":6320,"Ġtemoje":6321,"Ġistatymo":6322,"Ġpatalp":6323,"Ġanksti":6324,"ear":6325,"yja":6326,"Ġpamas":6327,"Ġnetruk":6328,"Ġsupl":6329,"Ġzu":6330,"Ġnesud":6331,"Ġjauciasi":6332,"Ġmokamas":6333,"Ġkasos":6334,"ulio":6335,"ojui":6336,"Ġmaziausiai":6337,"ynus":6338,"Ġautorius":6339,"istiek":6340,"Ġpalaid":6341,"Ġnebutina":6342,"Ġdviem":6343,"ĠNiekada":6344,"Ġdvasia":6345,"Ġstengiuosi":6346,"RR":6347,"Tas":6348,"aA":6349,"joje":6350,"kodel":6351,"uta":6352,"iniame":6353,"adarb":6354,"ĠKn":6355,"ĠMon":6356,"yto":6357,"gali":6358,"Ġskat":6359,"tiska":6360,"Ġkieki":6361,"Ġminejau":6362,"Ġwh":6363,"Ġperskai":6364,"Ġnepatik":6365,"lik":6366,"Ġeis":6367,"Ġmada":6368,"ojimai":6369,"Ġskirtingu":6370,"turiu":6371,"Ġvyro":6372,"Ġpriver":6373,"Ġbuhalterija":6374,"Ġpriemoniu":6375,"Ġlova":6376,"Ġpolicija":6377,"Ġinspek":6378,"Pat":6379,"Todel":6380,"Ġirank":6381,"amenu":6382,"ejais":6383,"Ġgaliausiai":6384,"Ġuzkr":6385,"Ġtrum":6386,"Ġpadet":6387,"ĠNesu":6388,"Ġstrazd":6389,"Ġserver":6390,"Ġprivers":6391,"Ġdeklaracijos":6392,"Ġruda":6393,"Ġskirtingai":6394,"Ġoficialiai":6395,"Ġsvoris":6396,"Ġtek":6397,"Ġlit":6398,"Ġpriaug":6399,"ojes":6400,"Ġmanot":6401,"iliu":6402,"ĠKada":6403,"Ġpatiek":6404,"Ġjauna":6405,"Ġgrif":6406,"Ġnusim":6407,"Ġins":6408,"ydama":6409,"Ġnenesioju":6410,"Ġtarpu":6411,"Ġnakties":6412,"ciausia":6413,"Ġpatirtis":6414,"Ġieskot":6415,"Ġviduje":6416,"Ġsalygos":6417,"Ġlauka":6418,"viu":6419,"zu":6420,"auta":6421,"inemis":6422,"Ġneina":6423,"Ġdol":6424,"..?":6425,"Ġbuta":6426,"yktu":6427,"ĠGi":6428,"Ġsusip":6429,"Ġgyvybe":6430,"Ġvertes":6431,"asitik":6432,"ĠPrancuz":6433,"ĠPasak":6434,"Ġzodi":6435,"Ġsumoka":6436,"Ġmoteru":6437,"Ġvietose":6438,"Ġdieve":6439,"simoka":6440,"Ġekr":6441,"Ġperkant":6442,"Ġrubai":6443,"ĠDaznai":6444,"lam":6445,"ych":6446,"Ġfre":6447,"Ġsusiz":6448,"Ġnupl":6449,"Ġkelio":6450,"eksas":6451,"Ġankst":6452,"Ġatsakymu":6453,"Ġblogiau":6454,"Ġabor":6455,"Ġtokiom":6456,"Ġproced":6457,"Ġrinkos":6458,"Ġsviesiai":6459,"Ġdarbuotojas":6460,"Ġauksta":6461,"Ġavat":6462,"Ġapskaiciu":6463,"Ġdziaugs":6464,"Ġsausio":6465,"Ġserga":6466,".^":6467,"Qu":6468,"iA":6469,"tumas":6470,"Ġare":6471,"Ġart":6472,"ĠBan":6473,"ivid":6474,"Ġnegaleciau":6475,"ĠGaliu":6476,"Ġprisir":6477,"sipras":6478,"Ġneklaus":6479,"anciais":6480,"Ġskiepytis":6481,"Ġskausmo":6482,"Ta":6483,"Ten":6484,"Ġno":6485,"Ġnaik":6486,"ojais":6487,"Ġnesut":6488,"Ġgert":6489,"Ġskype":6490,"Ġplet":6491,"Ġnueit":6492,"Ġneitik":6493,"Ġgyveno":6494,"Ġstandar":6495,"Ġdvigub":6496,"Ġoras":6497,"Ġvaikams":6498,"Ġsmar":6499,"Ġmirtis":6500,"Ġpraejus":6501,"Ġnevirs":6502,"Ġsuprati":6503,"Ġautomobiliu":6504,"Ġrubus":6505,"Ġmirsta":6506,"wilight":6507,"son":6508,"Ġone":6509,"Ġnas":6510,"usas":6511,"imuose":6512,"ĠMag":6513,"Ġverti":6514,"Ġpanos":6515,"Ġissisk":6516,"Ġkuriuose":6517,"Ġgaminti":6518,"uokite":6519,"Ġpsd":6520,"Ġfizinis":6521,"iarank":6522,"Ġmergaites":6523,"Ġdzinsai":6524,"Ġpatalpu":6525,"Ġunik":6526,"Ġkaklo":6527,"Ġpasiskiep":6528,"Ġcigar":6529,"zvilg":6530,"Ġuniversit":6531,"laug":6532,"ovo":6533,"Ġeisiu":6534,"avi":6535,"ytus":6536,"Ġplov":6537,"ace":6538,"Ġkrauja":6539,"uodamas":6540,"Ġklausimais":6541,"Ġvaiko":6542,"kuri":6543,"ĠPritariu":6544,"Ġvaikino":6545,"Ġbuda":6546,"Ġlietuvos":6547,"Ġdemesys":6548,"Ġnereiketu":6549,"Ġzenkla":6550,"Ġskaniai":6551,"Ġpritrauk":6552,"Ġmedziagu":6553,"Ġsistemos":6554,"Ġnuotraukos":6555,"Ġsmulkmen":6556,"Ġkortele":6557,"kio":6558,"todel":6559,"ailiu":6560,"Ġmini":6561,"Ġdangu":6562,"elk":6563,"Ġriba":6564,"ejote":6565,"omet":6566,"Ġfraz":6567,"Ġparei":6568,"Ġtikros":6569,"Ġkitoks":6570,"Ġnebera":6571,"Ġakiniu":6572,"Ġuzsikr":6573,"Ġgautu":6574,"Ġskirtas":6575,"Ġirodyti":6576,"Ġkarantinas":6577,"Ġtest":6578,"alaik":6579,"Ġge":6580,"Ġmanim":6581,"ilk":6582,"ĠTam":6583,"ogo":6584,"ĠIki":6585,"Ġuzsiregistr":6586,"Ġtariant":6587,"Ġsukelia":6588,"Ġnuosav":6589,"Ġpasidaryti":6590,"Ġfilmukas":6591,"Ġnaturaliai":6592,"Ġgarso":6593,"ĠZmogus":6594,"Ġpripr":6595,"Ġvampyrai":6596,"33":6597,"OV":6598,"mg":6599,"ium":6600,"Ġnegi":6601,"onija":6602,"Ġnoretu":6603,"olas":6604,"Ġples":6605,"Ġplokst":6606,"uojate":6607,"ezis":6608,"isteng":6609,"ĠHo":6610,"Ġtamp":6611,"Ġpaskutiniu":6612,"Ġneiseina":6613,"Ġkuriose":6614,"Ġrinkoje":6615,"Ġmokslininkai":6616,"auni":6617,"uckas":6618,"Ġvaziuoti":6619,"Ġvirusas":6620,"ĠRespubl":6621,"Ġnama":6622,"Ġdeti":6623,"Ġiseiti":6624,"Ġzn":6625,"ĠTeis":6626,"ĠTev":6627,"Ġfantas":6628,"Ġnoretum":6629,"ego":6630,"ĠJuok":6631,"aikau":6632,"aukia":6633,"Ġdrop":6634,"Ġnelai":6635,"Ġprisis":6636,"Ġbalz":6637,"Ġsurasti":6638,"Ġnuostat":6639,"Ġpavadinimu":6640,"Ġprivaloma":6641,"Ġsudetinga":6642,"Noreciau":6643,"Ġaptarn":6644,".<":6645,"JA":6646,"Pvz":6647,"eini":6648,"iuks":6649,"Ġatzvilg":6650,"taciau":6651,"Ġnesitik":6652,"ĠNegal":6653,"...\"":6654,"ĠPay":6655,"ĠSum":6656,"Ġfyf":6657,"ytoja":6658,"iausio":6659,"Ġrasai":6660,"Ġskus":6661,"ĠRob":6662,"Ġtuom":6663,"Ġsenas":6664,"Ġpirmiausia":6665,"uoksn":6666,"Ġpatirti":6667,"Ġkategor":6668,"9999":6669,"viete":6670,"juokino":6671,"Ġefektyv":6672,"Ġvienodai":6673,"site":6674,"alaus":6675,"Ġviolet":6676,"Ġren":6677,"ĠKita":6678,"Ġnoru":6679,"Ġgeriausi":6680,"Ġtop":6681,"Ġkitoje":6682,"Ġnusk":6683,"Ġnust":6684,"yme":6685,"Ġkomerc":6686,"Ġpusbr":6687,"Ġdienai":6688,"Ġpardavejas":6689,"Ġbendrija":6690,"Ġmiest":6691,"Ġsamon":6692,"ĠZiauriai":6693,"Ġblizg":6694,"%.":6695,"Bal":6696,"ST":6697,"gai":6698,"inantis":6699,"anciai":6700,"eros":6701,"Ġlaaabai":6702,"ĠTokia":6703,"ĠItal":6704,"Ġparamos":6705,"ukau":6706,"Ġanaliz":6707,"Ġsvetaines":6708,"Ġpaslaptis":6709,"Ġkamuoli":6710,"Ġsiuzetas":6711,"Ġnepilnam":6712,"meti":6713,"Ġnamas":6714,"tipr":6715,"Ġgeb":6716,"Ġgeles":6717,"Ġrelig":6718,"Ġpasiem":6719,"Ġpacius":6720,"ĠSun":6721,"Ġfacebook":6722,"pris":6723,"Ġatskl":6724,"Ġnueiti":6725,"Ġgalioja":6726,"Ġbebutu":6727,"Ġpasakius":6728,"Ġjuoko":6729,"irksiu":6730,"Ġbankr":6731,"Ġsporto":6732,"Ġpatenkinta":6733,"Ġkairiarank":6734,"Noriu":6735,"Ġpieno":6736,"inku":6737,"ambu":6738,"Ġletai":6739,"itrauk":6740,"ĠTokie":6741,"ĠPM":6742,"ĠDom":6743,"Ġturgu":6744,"ĠMo":6745,"ingiau":6746,"uli":6747,"Ġgyvas":6748,"Ġpaneles":6749,"Ġkrov":6750,"Ġpusiau":6751,"tiesiog":6752,"Ġsluoksn":6753,"ance":6754,"ifik":6755,"Ġsituacijos":6756,"Ġpasikeite":6757,"Ġvisokias":6758,"Ġatvejis":6759,"Ġsugalvojo":6760,"Pagal":6761,"Ġsukuosena":6762,"Ġamzinai":6763,"varbiausia":6764,"IV":6765,"ioji":6766,"pal":6767,"Ġur":6768,"Ġ!!!":6769,"alais":6770,"ikus":6771,"Ġkaimo":6772,"Ġpaskaiciu":6773,"prantu":6774,"Ġparodo":6775,"Ġpapl":6776,"Ġkalend":6777,"Ġdrauga":6778,"Ġislaik":6779,"vald":6780,"Ġsusiras":6781,"Ġpatarti":6782,"Ġfirma":6783,"Ġvienintele":6784,"Ġsiurp":6785,"Ġteorija":6786,"vais":6787,"estu":6788,"Ġismes":6789,"akti":6790,"app":6791,"Ġtiketis":6792,"ĠPuik":6793,"iusiu":6794,"ĠMusu":6795,"Ġ:-":6796,"aciai":6797,"Ġkriz":6798,"Ġlaiska":6799,"Ġmylim":6800,"Ġkatal":6801,"Ġkaukes":6802,"Ġgimtadienis":6803,"Ġeksperim":6804,"Ġkeiciasi":6805,"!\"":6806,"'m":6807,"Nus":6808,"Ġbab":6809,"uso":6810,"Ġlove":6811,"ejaus":6812,"Ġatsidur":6813,"Ġelement":6814,"Ġkeist":6815,"aziuoja":6816,"Ġjuodos":6817,"Ġsusirink":6818,"Ġpuiku":6819,"Ġversija":6820,"ininkams":6821,"Ġprideti":6822,"Ġremon":6823,"Ġrupi":6824,"ĠMokes":6825,"Ġisimyl":6826,"AAAA":6827,"Ġissipild":6828,"Ġsekmingai":6829,"Ġgydytoja":6830,"baig":6831,"ioja":6832,"yci":6833,"Ġtot":6834,"titu":6835,"Ġrusiu":6836,"ila":6837,"Ġdariau":6838,"tinu":6839,"Ġgraud":6840,"ĠID":6841,"ingumo":6842,"ĠLyg":6843,"Ġkreps":6844,"Ġsalyse":6845,"ibir":6846,"Ġitar":6847,"Ġjuokas":6848,"Prad":6849,"Ġ2009":6850,"Ġryskiai":6851,"Ġpica":6852,"Ġdirektor":6853,"Ġhoros":6854,"Ġsusigrazinti":6855,"Ġatzvilgiu":6856,"Zodziu":6857,"vyr":6858,"Ġsono":6859,"imosi":6860,"encia":6861,"aisiais":6862,"ĠIsl":6863,"ĠLatv":6864,"Ġnutr":6865,"Ġpinigais":6866,"Ġligu":6867,"Ġpasidaz":6868,"Ġmaciusi":6869,"ĠSimon":6870,"Ġpabaigoje":6871,"28":6872,"kel":6873,"Ġsem":6874,"Ġdydis":6875,"imybe":6876,"Ġpasto":6877,"Ġgalime":6878,"odavau":6879,"ĠKon":6880,"ĠSitas":6881,"Ġkaro":6882,"Ġnepl":6883,"Ġtriju":6884,"ation":6885,"Ġvaidina":6886,"Ġpolit":6887,"Ġsuzinojau":6888,"Ġkvepalus":6889,"Ġiskilo":6890,"Ġpuslapyje":6891,"IEN":6892,"Ġpopieriaus":6893,"Ġpet":6894,"Ġsiam":6895,"Ġsiusti":6896,"inimus":6897,"usa":6898,"Ġjomis":6899,"ĠPirk":6900,"ĠPers":6901,"oliau":6902,"tein":6903,"Ġsakykim":6904,"Ġislaikyti":6905,"Ġsapnus":6906,"Ġpasidaryt":6907,"Ġnurodyta":6908,"Ġpradzioj":6909,"Ġprieki":6910,"Ġapyvarta":6911,"Ġlaabai":6912,"Ziur":6913,"ein":6914,"kime":6915,"Ġgum":6916,"Ġlaz":6917,"Ġprotas":6918,"Ġfiks":6919,"Ġuzsiem":6920,"Ġkraup":6921,"Ġpalikti":6922,"ock":6923,"Ġsveiki":6924,"esimt":6925,"Ġkauke":6926,"Ats":6927,"Ġpauks":6928,"Ġsid":6929,"iuz":6930,"Ġdanti":6931,"Ġpros":6932,"aka":6933,"ingumas":6934,"ĠGyven":6935,"uojami":6936,"varst":6937,"Ġdidesnes":6938,"ecius":6939,"Ġ3000":6940,"Ġkomis":6941,"Ġsiuks":6942,"Ġpadaryta":6943,"Ġdokumentai":6944,"ĠKazkas":6945,"Ġprodukto":6946,"eee":6947,"Ġnukreip":6948,"Ġoptim":6949,"05":6950,"64":6951,"mb":6952,"pe":6953,"vez":6954,"Ġ).":6955,"autas":6956,"Ġrenk":6957,"Ġgeresne":6958,"Ġtikri":6959,"Ġnuejo":6960,"Ġbuteliu":6961,"ĠTikiu":6962,"Ġmerga":6963,"Ġbandyti":6964,"Ġmedit":6965,"ĠYou":6966,"Ġliudna":6967,"Ġvaistu":6968,"OOOO":6969,"ykloj":6970,"Ġsukneles":6971,"Apie":6972,"Dekui":6973,"Ġliem":6974,"Ġisaisk":6975,"Ġzadu":6976,"oliai":6977,"prie":6978,"Ġpareig":6979,"uki":6980,"Ġnepers":6981,"Ġpobu":6982,"Ġesam":6983,"Ġmazi":6984,"Ġpadariau":6985,"kart":6986,"Ġbaisaus":6987,"Ġvadinama":6988,"Ġneapsimoka":6989,"Ġdegtine":6990,"aziavau":6991,"Ġsteigimo":6992,"Ġsalygas":6993,"ĠRusija":6994,"Ġatsibodo":6995,"Ġpavasari":6996,"Ġsypsena":6997,"Ġnesimato":6998,"Ġatsikrat":6999,".).":7000,"?;":7001,"Viena":7002,"dirb":7003,"kuo":7004,"Ġlast":7005,"onei":7006,"emiau":7007,"Ġgeresniu":7008,"ĠJai":7009,"uojam":7010,"epti":7011,"iskis":7012,"Ġdarbai":7013,"ininkui":7014,"Ġalgos":7015,"kaitau":7016,"Ġlaisv":7017,"Ġvirtu":7018,"Ġkvepalu":7019,"Ġvisokios":7020,"Ġspecialiai":7021,"Ġgavosi":7022,"Ġnuotraukas":7023,"Ġoperacija":7024,"Ġsuprantama":7025,"Ġgeguzes":7026,"',":7027,");":7028,"EE":7029,"Ner":7030,"ler":7031,"Ġpul":7032,"Ġsaip":7033,"Ġnetink":7034,"Ġbom":7035,"okle":7036,"eile":7037,"iese":7038,"igr":7039,"ykles":7040,"eziur":7041,"Ġspar":7042,"irsta":7043,"Ġkainuos":7044,"ciausias":7045,"Ġnustatyta":7046,"Ġtukstanciu":7047,"Ġpamacius":7048,"ĠPavyzdziui":7049,"Ġgrynai":7050,"Ġitraukti":7051,"Ġtrenir":7052,"Ġatsitiko":7053,"500":7054,"fak":7055,"Ġtil":7056,"irdziai":7057,"Ġprati":7058,"orc":7059,"Ġisaug":7060,"akas":7061,"onais":7062,"ilu":7063,"aisv":7064,"Ġturg":7065,"tiskas":7066,"Ġdarbe":7067,"Ġsunaik":7068,"Ġreikalu":7069,"Ġvaikina":7070,"Ġatim":7071,"Ġsmur":7072,"Ġvalgo":7073,"Ġpirmos":7074,"Ġmokslo":7075,"Ġsirdis":7076,"Ġkompiuterio":7077,"Ġvalandos":7078,"Ġaprib":7079,"Ġrizika":7080,"Ġkantrybes":7081,"Kr":7082,"MM":7083,"Tar":7084,"Ġburn":7085,"uogu":7086,"Ġisvard":7087,"iust":7088,"igo":7089,"yklos":7090,"Ġsveti":7091,"Ġpirstu":7092,"Ġlaime":7093,"Ġpazyst":7094,"iniuose":7095,"Ġneturejau":7096,"ĠViska":7097,"Ġreikalingi":7098,"ĠIss":7099,"ĠTuri":7100,"Ġbanka":7101,"Ġspren":7102,"Ġdievinu":7103,"Ġaktoriu":7104,"Ġlaikotarpi":7105,"Ġuzknisa":7106,"Ag":7107,"vyn":7108,"Ġsiena":7109,"Ġmp":7110,"Ġpraras":7111,"Ġip":7112,"Ġnesenai":7113,"ĠNev":7114,"ĠPaul":7115,"Ġcm":7116,"press":7117,"ĠLR":7118,"Ġkitose":7119,"Ġpavyks":7120,"Ġspeju":7121,"inukas":7122,"ect":7123,"enke":7124,"Ġsauks":7125,"Ġlaikras":7126,"????":7127,"Ġuzdr":7128,"Ġgirdeti":7129,"Ġproduktus":7130,"eiksm":7131,"Ġlinksm":7132,"Ġfirm":7133,"Ġnedaro":7134,"ĠNereikia":7135,"Ġypatingo":7136,"Ġomenyje":7137,"Ġvarianta":7138,"75":7139,"Reikia":7140,"gis":7141,"ix":7142,"sv":7143,"tle":7144,"Ġmaike":7145,"usk":7146,"iako":7147,"Ġliz":7148,"Ġlauz":7149,"Ġpriras":7150,"eike":7151,"Ġtiket":7152,"Ġturtas":7153,"Ġperpard":7154,"Ġatsiun":7155,"ĠOi":7156,"Ġsust":7157,"Ġkovo":7158,"Ġbuves":7159,"Ġ400":7160,"iklauso":7161,"Ġsukurta":7162,"Ġplaukams":7163,"Ġsielos":7164,"--------------------------------":7165,"iojo":7166,"areig":7167,"Ġvisiska":7168,"ijoms":7169,"Ġtikejausi":7170,"ĠKokios":7171,"ĠVil":7172,"Ġtual":7173,"Ġideti":7174,"iskr":7175,"Ġbrand":7176,"Ġneklys":7177,"Ġnamai":7178,"low":7179,"lute":7180,"Ġsurink":7181,"Ġkeliones":7182,"Ġrysk":7183,"Ġatsipalaid":7184,"Ġkebab":7185,"EK":7186,"Tad":7187,"fot":7188,"inat":7189,"alio":7190,"osta":7191,"Ġliecia":7192,"ĠNetikiu":7193,"Ġfl":7194,"Ġpert":7195,"ytojas":7196,"ĠVaik":7197,"uno":7198,"Ġinform":7199,"Ġimokos":7200,"Ġaks":7201,"Ġissiskir":7202,"Ġpazistu":7203,"Ġpapuos":7204,"Ġsenelis":7205,"Ġsupranti":7206,"Ġpanasios":7207,"Ġspalvo":7208,"Ġpatiktu":7209,"azniausiai":7210,"Ġsumais":7211,"Ġlogika":7212,"Ġrezultatas":7213,"Ġnevalgau":7214,"Ġmarskin":7215,"Ġabsoliu":7216,"Graz":7217,"Ġ&":7218,"Ġejo":7219,"anko":7220,"Ġdon":7221,"Ġbiolog":7222,"Ġliau":7223,"Ġprip":7224,"abl":7225,"Ġvisvien":7226,"ĠKel":7227,"olaik":7228,"Ġgerokai":7229,"Ġrasoma":7230,"mag":7231,"Ġpirst":7232,"ĠRam":7233,"Ġmazos":7234,"Ġpasakoja":7235,"Ġkomanda":7236,"Ġ2010":7237,"pasaulio":7238,"Ġjuokingai":7239,"ologija":7240,"Ġkabin":7241,"Ġduomenys":7242,"Ġarbatos":7243,"Ġparduodu":7244,"Ġnugara":7245,"Ġgener":7246,"Ġtingiu":7247,"Ġatsakomybe":7248,"siprasau":7249,"].":7250,"lyg":7251,"Ġoj":7252,"Ġmistika":7253,"Ġpasiskait":7254,"ilti":7255,"ĠParas":7256,"ĠAg":7257,"Ġvienoje":7258,"Ġgrazinti":7259,"Ġesant":7260,"Ġatrodyti":7261,"Ġmaterial":7262,"Ġkonv":7263,"Ġpadarysi":7264,"Ġteisiu":7265,"Ġkuom":7266,"Ġkalbi":7267,"Ġmelag":7268,"Ġgalimybiu":7269,"Ġbaigsis":7270,"Ġklasiokes":7271,"Ġautomobilio":7272,"Ġdrabuzius":7273,"Ġimonems":7274,"Ġreak":7275,"Ġagent":7276,"602":7277,"Ġsavikaina":7278,"Ġpy":7279,"Ġpasiv":7280,"Ġvisom":7281,"ĠTuomet":7282,"Ġuzmok":7283,"Ġmokejimo":7284,"Ġparem":7285,"Ġdelf":7286,"engv":7287,"Ġdraugei":7288,"Ġhig":7289,"ĠFl":7290,"Ġteisus":7291,"Ġbandyt":7292,"Ġsms":7293,"Ġbendradarb":7294,"Ġtevais":7295,"Ġnuostol":7296,"Ġpagrindinis":7297,"Ġangel":7298,"Ġgelez":7299,"Ġfakturos":7300,"Ġpazistamu":7301,"Ġkoncer":7302,"Ġmotyv":7303,"ĠSoOf":7304,"Ġdropship":7305,"iuv":7306,"Ġgud":7307,"Ġlim":7308,"Ġliez":7309,"onis":7310,"ĠSavo":7311,"ĠSiul":7312,"ege":7313,"ĠGoogle":7314,"Ġneties":7315,"Ġnueinu":7316,"Ġdraugo":7317,"Ġkonf":7318,"kuris":7319,"Ġnesuge":7320,"Ġasmeniui":7321,"Ġsriu":7322,"Ġmeluoja":7323,"Ġskaiciuoti":7324,"Ġgelton":7325,"Ġsezono":7326,"Ġguli":7327,"ipirkau":7328,"Ġtransporto":7329,"Ġigyvendinti":7330,"PH":7331,"vakar":7332,"aite":7333,"inems":7334,"Ġmm":7335,"Ġvys":7336,"amd":7337,"Ġlesiu":7338,"Ġisman":7339,"eil":7340,"Ġplon":7341,"tikrai":7342,"unu":7343,"Ġnusp":7344,"Ġpatiks":7345,"Ġkryp":7346,"Ġsunkus":7347,"Ġpilvo":7348,"Ġspalvu":7349,"Ġchem":7350,"Ġnesuprant":7351,"Ġgarsiai":7352,"Ġprogramuot":7353,"Ġypatingai":7354,"Ġprofesija":7355,"Ġisvaizdos":7356,"Ġblakstienos":7357,"Ġpoziuris":7358,"Ġfigura":7359,"07":7360,"Klaus":7361,"koks":7362,"Ġnejuok":7363,"iesiems":7364,"Ġdaugiausia":7365,"ybeje":7366,"lack":7367,"Ġnutar":7368,"Ġneben":7369,"ĠEm":7370,"Ġmazosios":7371,"stam":7372,"Ġatrodys":7373,"ydi":7374,"mokestin":7375,"Ġslams":7376,"Ġsapne":7377,"ĠWh":7378,"Ġpager":7379,"Ġpagrindine":7380,"Ġskiepu":7381,"IEK":7382,"Ġnegrazus":7383,"Ġirasyti":7384,"Ġpriezastis":7385,"Ġonline":7386,"Ġissiaiskinti":7387,"Ġkine":7388,"Ġsias":7389,"Ġsmal":7390,"ininka":7391,"Ġbild":7392,"Ġgeliu":7393,"ekas":7394,"ĠDu":7395,"Ġsavim":7396,"Ġklientams":7397,"ĠNeturiu":7398,"Ġjaunas":7399,"Ġvyko":7400,"Ġsprendimas":7401,"Ġoperacijos":7402,"ĠSimps":7403,"Ġangliskai":7404,"Ġveikloje":7405,"IL":7406,"Par":7407,"mui":7408,"irl":7409,"Ġby":7410,"esit":7411,"ateg":7412,"erijos":7413,"ojami":7414,"oll":7415,"oth":7416,"Ġkiekis":7417,"Ġpadirb":7418,"Ġdraugem":7419,"Ġpasakysiu":7420,"Ġnereiktu":7421,"Pries":7422,"''.":7423,"Ġprojektu":7424,"Ġsodra":7425,"Ġgausiu":7426,"Ġakimir":7427,"Ġrugsejo":7428,"Ġscenar":7429,"EIK":7430,"jie":7431,"Ġduos":7432,"Ġkaire":7433,"Ġuztat":7434,"Ġrastu":7435,"Ġparode":7436,"Ġzinok":7437,"ĠNorejau":7438,"Ġispu":7439,"Ġmelyn":7440,"Ġsiulyciau":7441,"Ġsezona":7442,"ĠLabiausiai":7443,"Ġkontroliu":7444,"Ġnemalonu":7445,"Ġsusisiek":7446,"ĠTikriausiai":7447,"MS":7448,"Sus":7449,"gyv":7450,"Ġmik":7451,"okr":7452,"tuos":7453,"Ġisiv":7454,"aisi":7455,"Ġapip":7456,"ĠSita":7457,"edus":7458,"Ġgres":7459,"Ġsusiv":7460,"Ġdraustas":7461,"Ġgrazia":7462,"Ġspausd":7463,"atika":7464,"Ġpamokas":7465,"Ġpriestar":7466,"Ġprasmes":7467,"Ġidomiau":7468,"Ġpaprasti":7469,"Ġatsirad":7470,"Ġdokumenta":7471,"Ġregistru":7472,"Ġuzdaryti":7473,"galvojau":7474,"Ġerz":7475,"Ġvariantu":7476,"Ġsutrik":7477,"go":7478,"Ġtip":7479,"Ġsazin":7480,"itinka":7481,"Ġpaspaud":7482,"ĠEU":7483,"Ġskaiciai":7484,"Ġanal":7485,"Ġdirbant":7486,"kartais":7487,"Ġseimin":7488,"Ġmedzio":7489,"Ġadvok":7490,"Ġdrabuziai":7491,"Ġkomentaru":7492,"Ġnusprende":7493,"Ġskudur":7494,"Ġgiliai":7495,"Ġdrasiai":7496,"Ġvizu":7497,"Ġdarbdavys":7498,"ĠNesuprantu":7499,"PHONE":7500,"Ak":7501,"Mat":7502,"ey":7503,"kokia":7504,"als":7505,"urd":7506,"iauti":7507,"Ġsukasi":7508,"Ġpasnek":7509,"ĠAu":7510,"ĠIT":7511,"ings":7512,"Ġskyl":7513,"Ġsavu":7514,"ĠEch":7515,"enge":7516,"Ġvartoj":7517,"utbol":7518,"amuju":7519,"Ġasmenims":7520,"anciam":7521,"Ġilgus":7522,"Ġgamtos":7523,"Ġkompens":7524,"Ġjuodu":7525,"Ġnumeri":7526,"Ġivyko":7527,"Ġistatymus":7528,"ineji":7529,"onstr":7530,"Ġlaiminga":7531,"Ġieskojau":7532,"ĠKaledu":7533,"parduotuv":7534,"Ġretkarciais":7535,"Ġmomentu":7536,"24":7537,"bai":7538,"niai":7539,"pti":7540,"Ġtfu":7541,"ieta":7542,"orpi":7543,"Ġsuvar":7544,"aza":7545,"akes":7546,"eic":7547,"Ġkainu":7548,"Ġvisuomet":7549,"iga":7550,"Ġmokesi":7551,"Ġissiim":7552,"Ġziurek":7553,"Ġapsig":7554,"Ġsuprat":7555,"Ġkoleg":7556,"ajung":7557,"Ġmielai":7558,"ifl":7559,"Ġtikslu":7560,"Ġtinkamai":7561,"Ġtelek":7562,"Ġbrangiau":7563,"Ġkilo":7564,"Ġyoutube":7565,"ĠKaledos":7566,"Ġlegaliai":7567,"Ġlicenz":7568,"ĠKauno":7569,"Gerai":7570,"vid":7571,"zai":7572,"iud":7573,"til":7574,"ella":7575,"ejome":7576,"apie":7577,"Ġpasiz":7578,"ektra":7579,"Ġmokami":7580,"ĠLai":7581,"entra":7582,"Ġimoku":7583,"Ġpanaik":7584,"Ġatrodau":7585,"Ġsalys":7586,"Ġpasakys":7587,"Ġprastai":7588,"ĠVisiskai":7589,"Ġorien":7590,"ĠNebu":7591,"Ġrodys":7592,"Ġpatirtimi":7593,"Ġsimbol":7594,"Ġzurnale":7595,"Ġtruko":7596,"Ġbaigiasi":7597,"Ġsudaryti":7598,"Ġezero":7599,"Ġpotencial":7600,"Ġneklystu":7601,"95":7602,"?:":7603,"ash":7604,"Ġtun":7605,"Ġkand":7606,"Ġsest":7607,"Ġmam":7608,"ils":7609,"ĠNegaliu":7610,"...)":7611,"tineje":7612,"Ġgeresni":7613,"top":7614,"aikos":7615,"uliai":7616,"Ġzinute":7617,"Ġkeliais":7618,"icio":7619,"Ġpamatau":7620,"Ġsitam":7621,"Ġstot":7622,"Ġpajud":7623,"Ġvaikystes":7624,"Ġilgas":7625,"Ġjuodas":7626,"Ġnarkoti":7627,"Ġdometis":7628,"Ġpasiulymu":7629,"Ġpasisak":7630,"iunciau":7631,"Ġmastau":7632,"Ġteigia":7633,"Ġnosies":7634,"Ġpradedant":7635,"((":7636,"Pl":7637,"oy":7638,"Ġbaj":7639,"ikes":7640,"Ġroz":7641,"Ġleks":7642,"orld":7643,"Ġpasiimti":7644,"ĠTe":7645,"Ġnesid":7646,"ĠNed":7647,"ĠSw":7648,"ĠSvarbu":7649,"Ġperl":7650,"kscio":7651,"inguma":7652,"uojat":7653,"iemet":7654,"ova":7655,"Ġnemate":7656,"Ġskaiciav":7657,"Ġvaikstau":7658,"ykstu":7659,"Ġpaziuresiu":7660,"less":7661,"Ġlietuviskai":7662,"Ġnormali":7663,"ĠBuna":7664,"Ġuzsieni":7665,"Ġkvailas":7666,"Ġnegraziai":7667,"Ġatskira":7668,"Ġcentro":7669,"Ġkompanijos":7670,"Ġateiviai":7671,"Ġpartija":7672,"ĠGabe":7673,"Ġisigijimo":7674,"IO":7675,"Vakar":7676,"bur":7677,"nio":7678,"vinas":7679,"Ġink":7680,"Ġpail":7681,"Ġnlb":7682,"Ġrado":7683,"azo":7684,"ĠNU":7685,"ida":7686,"Ġturtu":7687,"ĠMed":7688,"Ġpirs":7689,"Ġpadetu":7690,"Ġnerup":7691,"Ġpropag":7692,"Ġeinam":7693,"Ġdidzi":7694,"Ġorg":7695,"Ġgalvoji":7696,"Ġweb":7697,"adienis":7698,"Ġindividuali":7699,"Ġlaisves":7700,"Ġneuzs":7701,"Ġ2014":7702,"Ġpriemone":7703,"Ġpuslapio":7704,"Ġkambario":7705,"Ġuzsidirbti":7706,"Ġsusidurti":7707,"Ġstora":7708,"Ġisivaizduoju":7709,"Ġliepe":7710,"Ġciviliz":7711,"Zinoma":7712,"tad":7713,"ytuv":7714,"Ġireng":7715,"avosi":7716,"ĠSiaub":7717,"ĠMen":7718,"ĠBendr":7719,"audo":7720,"ukes":7721,"aukes":7722,"inkes":7723,"ĠEg":7724,"Ġprieziur":7725,"Ġprisik":7726,"ĠHa":7727,"Ġnaujus":7728,"Ġasmenine":7729,"ĠIspan":7730,"Ġzodziais":7731,"Ġspalv":7732,"Ġlaikyti":7733,"Ġaplinka":7734,"Ġrekviz":7735,"Ġpritaik":7736,"Ġnevyk":7737,"Ġnaudojamas":7738,"Ġneatrodo":7739,"Ġkomentarus":7740,"Ġdvasios":7741,"ĠVienint":7742,"Ġreag":7743,"Ġviesai":7744,"Ġdepres":7745,"Ġinvestuoti":7746,"Ġregistracijos":7747,"Ġapibrez":7748,"eu":7749,"Ġkeik":7750,"Ġsmu":7751,"Ġdziu":7752,"Ġbob":7753,"avimui":7754,"Ġuztikr":7755,"ĠSekmes":7756,"Ġcovid":7757,"edo":7758,"ando":7759,"Ġatsiz":7760,"ĠLandsberg":7761,"izud":7762,"Ġnusid":7763,"slas":7764,"Ġnebeg":7765,"stat":7766,"graz":7767,"Ġpasiruos":7768,"Ġnauji":7769,"Ġ:]]":7770,"ĠKiekviena":7771,"Ġgyventojai":7772,"Ġkelione":7773,"Ġskiepij":7774,".:]":7775,"Ġburna":7776,"unatik":7777,"Ġuab":7778,"Ġpaimti":7779,"Kitas":7780,"NT":7781,"noz":7782,"wai":7783,"Ġdail":7784,"Ġbiur":7785,"oss":7786,"Ġjung":7787,"elei":7788,"odavo":7789,"ilas":7790,"ĠNSO":7791,"ĠMeg":7792,"Ġviename":7793,"Ġkokiais":7794,"une":7795,"Ġdrama":7796,"Ġvaliu":7797,"auji":7798,"Ġapsipirk":7799,"Ġvaro":7800,"Ġaf":7801,"Ġtevams":7802,"Ġsiekia":7803,"Ġrealybe":7804,"Ġrimt":7805,"Ġvidaus":7806,"uuu":7807,"Ġrudeni":7808,"Ġtelefonas":7809,"Ġrutu":7810,"Ġburbu":7811,"Ġuzsakyma":7812,"Ġapsaugos":7813,"Ġvelnias":7814,"Ġneprisimenu":7815,"Ġbauda":7816,"Ġissilav":7817,"iflame":7818,"pad":7819,"Ġ),":7820,"Ġbibl":7821,"estas":7822,"tumet":7823,"ĠPol":7824,"ĠPag":7825,"ĠDep":7826,"Ġcon":7827,"ign":7828,"voice":7829,"Ġnebeb":7830,"Ġuzsip":7831,"Ġtauta":7832,"liuku":7833,"Ġprisiziur":7834,"Ġbaltas":7835,"Ġpraeina":7836,"Ġtvarkingai":7837,"ziov":7838,"ĠPirmas":7839,"Ġpabandyti":7840,"Ġsvajoniu":7841,"Ġsubsid":7842,"Ġrezultatu":7843,"Ġkruva":7844,"................":7845,"Ġminusas":7846,"ĠKlausimas":7847,"Ġvyriausybe":7848,"Ġsavarankiskai":7849,"Ġrenkasi":7850,"923":7851,"km":7852,"mail":7853,"veng":7854,"Ġneidom":7855,"Ġgit":7856,"okur":7857,"adino":7858,"ody":7859,"Ġpars":7860,"Ġdaugumai":7861,"Ġinv":7862,"Ġpradzios":7863,"Ġmatem":7864,"Pris":7865,"Ġskirtuma":7866,"Ġvakcinu":7867,"Ġdidziausias":7868,"ĠRusijos":7869,"Ġgimtadieni":7870,"ĠValst":7871,"Ġitakos":7872,"Ġvirtuve":7873,"Ġpirksiu":7874,"Ġieina":7875,"Ġmln":7876,"35":7877,"Kuri":7878,"TA":7879,"ef":7880,"Â®":7881,"Ġpj":7882,"Ġlemp":7883,"Ġkaima":7884,"Ġbun":7885,"ĠSis":7886,"Ġoi":7887,"Ġatseit":7888,"Ġtrius":7889,"lay":7890,"Ġnuvar":7891,"Ġspuog":7892,"Ġbutum":7893,"Ġgyvenimu":7894,"Ġvarz":7895,"Ġnezinojau":7896,"indavo":7897,"ĠTikiuosi":7898,"Ġbandysiu":7899,"Ġkainavo":7900,"paslaug":7901,"ĠGera":7902,"Ġmoters":7903,"Ġsukurtas":7904,"Ġoff":7905,"eeee":7906,"Ġpagrinde":7907,"Ġgelt":7908,"Ġskub":7909,"Ġgyvunai":7910,"ĠPetr":7911,"Ġprocesas":7912,"Ġtavim":7913,"Ġsaldainiu":7914,"><":7915,"beje":7916,"Ġsiai":7917,"Ġmenk":7918,"elus":7919,"Ġlitus":7920,"eji":7921,"eikes":7922,"Ġpasekmes":7923,"ĠSit":7924,"ĠSud":7925,"Ġgrie":7926,"Ġmokama":7927,"giant":7928,"Ġsusapn":7929,"Ġnepirk":7930,"Ġnusivyl":7931,"Ġzinojau":7932,"Ġpirkejui":7933,"Ġilgu":7934,"Ġnaujai":7935,"ĠVisos":7936,"Ġdirbantis":7937,"Ġgiminai":7938,"Ġnumeris":7939,"Ġnetiki":7940,"Ġadm":7941,"Ġmylia":7942,"klaid":7943,"Ġzurnalis":7944,"Ġsirdi":7945,"Ġdukra":7946,"Ġpastangu":7947,"Filmas":7948,"Ġrozin":7949,"vaksia":7950,"Ġnetrukdo":7951,"):":7952,"PS":7953,"TIN":7954,"ipr":7955,"Ġpoto":7956,"isiu":7957,"Ġred":7958,"odami":7959,"Ġapku":7960,"Ġsvaig":7961,"Ġpirmu":7962,"Ġnebegal":7963,"Ġnemato":7964,"Ġprastas":7965,"ĠNeseniai":7966,"ĠNorveg":7967,"Ġsaskaitoje":7968,"Ġstrateg":7969,"Ġsekund":7970,"Ġtikslo":7971,"Ġstraipsniu":7972,"Ġproblemas":7973,"ĠJust":7974,"Ġsprendima":7975,"viesti":7976,"Tiesa":7977,"nieko":7978,"Ġisipareig":7979,"db":7980,"nies":7981,"Ġaz":7982,"atves":7983,"ojima":7984,"Ġdaroma":7985,"ĠPaz":7986,"ĠSuper":7987,"Ġfail":7988,"ĠMax":7989,"Ġpara":7990,"ybei":7991,"ĠEx":7992,"Ġkazkokias":7993,"Ġane":7994,"Ġneturejo":7995,"Ġbuvus":7996,"Ġpaziurejus":7997,"Ġdarbuotojus":7998,"Ġpuiki":7999,"Ġorganizmas":8000,"ĠLabas":8001,"Ġmados":8002,"Ġpalyginus":8003,"Ġsmarkiai":8004,"bal":8005,"cijai":8006,"}}":8007,"Ġpeciu":8008,"anuoju":8009,"osof":8010,"okias":8011,"amais":8012,"aku":8013,"kaite":8014,"ides":8015,"emba":8016,"anto":8017,"ĠAfr":8018,"ĠDo":8019,"Ġcit":8020,"Ġtaipogi":8021,"galvo":8022,"Ġklystu":8023,"Ġkitiem":8024,"Ġakiniai":8025,"Ġkaltas":8026,"Ġprisipaz":8027,"Ġnenaudoju":8028,"Ġprasyma":8029,"Ġbendrai":8030,"ieriu":8031,"Ġmiestas":8032,"Ġplaneta":8033,"Ġvykdoma":8034,"Ġuztektu":8035,"Ġmeil":8036,"Ġavar":8037,"Ġnaturalus":8038,"Ġsezonas":8039,"Ġugis":8040,"Ġatspalv":8041,"Ġsocialinio":8042,"Ġdingsta":8043,"Ġgrifka":8044,":*":8045,"rio":8046,"Ġpietu":8047,"aule":8048,"Ġdauz":8049,"Ġlet":8050,"Ġzlug":8051,"odama":8052,"ĠTaupau":8053,"ember":8054,"Ġpaju":8055,"Ġgripas":8056,"Ġkitai":8057,"Ġnusit":8058,"Ġgraziausia":8059,"ĠRaud":8060,"Ġpradesiu":8061,"Ġmatos":8062,"Ġsunus":8063,"Ġbudama":8064,"Ġsuder":8065,"adienio":8066,"Ġrodyti":8067,"Ġsuzinot":8068,"draug":8069,"Ġegzam":8070,"Ġnustatyti":8071,"Ġpatalpas":8072,"Ġobuol":8073,"Ġpaskolos":8074,"Kadangi":8075,"itanika":8076,"Kartais":8077,"Ġpastaruoju":8078,"Ġlegend":8079,"Ġsyki":8080,"EM":8081,"Pats":8082,"Ġph":8083,"Ġsw":8084,"Ġsar":8085,"tiz":8086,"erl":8087,"Ġpret":8088,"Ġisver":8089,"ejoju":8090,"Ġvisiskas":8091,"Ġataug":8092,"Ġkurt":8093,"Ġfe":8094,"tiniais":8095,"ĠMc":8096,"Ġgeria":8097,"ĠBU":8098,"Ġparaiska":8099,"ĠOj":8100,"Ġpaveld":8101,"Ġkrenta":8102,"Ġsalygu":8103,"uodavau":8104,"tarus":8105,"eklam":8106,"Ġbaltu":8107,"Ġatlieka":8108,"Ġpaslaugomis":8109,"Ġsviesus":8110,"Ġspresti":8111,"Ġdaikto":8112,"Ġistatyma":8113,"Ġivairius":8114,"Ġmotina":8115,"Ġpazymejima":8116,"Ġromant":8117,"Ġalergiska":8118,"Ġgarantija":8119,"Siandien":8120,"onsultuoti":8121,"Ġaksesu":8122,"Ji":8123,"Vienas":8124,"ays":8125,"tyt":8126,"vus":8127,"esite":8128,"Ġsuform":8129,"avejo":8130,"aisant":8131,"Ġapim":8132,"ĠDO":8133,"magu":8134,"styti":8135,"tosiu":8136,"Ġdazyt":8137,"darb":8138,"ĠUzd":8139,"Ġhar":8140,"Ġmergos":8141,"Ġparaso":8142,"Ġparasysiu":8143,"Ġnepral":8144,"Ġneduoda":8145,"Ġpriklausomai":8146,"Ġgaunas":8147,"Ġistatymu":8148,"Ġstatyb":8149,"Ġpagalvoju":8150,"Ġdziaugtis":8151,"Ġpopieriu":8152,"Ġskola":8153,"Ġsuteikti":8154,"Ġkiauliu":8155,"Ġstebuk":8156,"Ġsudomino":8157,"26":8158,"ase":8159,"istus":8160,"ary":8161,"timas":8162,"Ġgime":8163,"ojimus":8164,"aise":8165,"ĠSapnavau":8166,"kuose":8167,"Ġtoo":8168,"uld":8169,"Ġpirsto":8170,"Ġpakanka":8171,"Ġdazu":8172,"Ġsteigi":8173,"Ġteisinga":8174,"Ġbudais":8175,"Ġatitik":8176,"Ġgamyba":8177,"Ġisgirsti":8178,"Ġganetinai":8179,"Ġkambary":8180,"ĠNemegstu":8181,"Ġveiksmo":8182,"Ġtaikomas":8183,"Ġpasiziureti":8184,"Ġligonine":8185,"Ġpriezasties":8186,"Ġdietos":8187,"Ġisnaud":8188,"Ġadresas":8189,"Ġatsisakyti":8190,"Ġatsiprasau":8191,"Ġpenktadieni":8192,"quote":8193,"Ġgais":8194,"orai":8195,"Ġisjung":8196,"omybe":8197,"Ġpasveik":8198,"Ġmanyciau":8199,"Ġatb":8200,"ĠPanas":8201,"Ġgerk":8202,"Ġ(\"":8203,"unai":8204,"Ġimun":8205,"Ġuzsidar":8206,"Ġgyveni":8207,"Ġdidmen":8208,"Ġmatytu":8209,"ĠHmm":8210,"ĠNesamone":8211,"Ġneisl":8212,"Ġkokioj":8213,"Ġnuost":8214,"Ġklientus":8215,"Ġcha":8216,"Ġsusirasti":8217,"Ġadr":8218,"Ġsodros":8219,"Ġnupies":8220,"Ġdievas":8221,"ĠNeblog":8222,"Ġveiksm":8223,"Ġkvapo":8224,"Ġmegstamiausias":8225,"Ġiregistruoti":8226,"Nieko":8227,"Ġziemos":8228,"Ġevoliu":8229,"ĠMagly":8230,"Ġpareigu":8231,"Ġpyrag":8232,"Kol":8233,"band":8234,"teks":8235,"van":8236,"anz":8237,"Ġistis":8238,"ape":8239,"apo":8240,"Ġuztr":8241,"Ġpatariu":8242,"Ġnorima":8243,"entuoti":8244,"Ġnetol":8245,"Ġplanas":8246,"Ġtikrov":8247,"Ġantro":8248,"Ġissimok":8249,"Ġkond":8250,"Ġpajam":8251,"Ġatsake":8252,"malus":8253,"Ġpirmus":8254,"Ġmoteri":8255,"Ġmyleti":8256,"Ġtrumpi":8257,"Ġnaturali":8258,"Ġelektros":8259,"Ġskelbimu":8260,"Ġalkoholio":8261,"Ġdviraciu":8262,"Ġfraze":8263,"PR":8264,"Zinau":8265,"rop":8266,"Ġpm":8267,"irt":8268,"Ġdivid":8269,"ikt":8270,"Ġivard":8271,"ĠTeko":8272,"Ġparag":8273,"Ġsusim":8274,"taigi":8275,"Ġakies":8276,"icius":8277,"Ġklausiu":8278,"Ġstengiasi":8279,"ĠHausas":8280,"Ġsunu":8281,"visi":8282,"Ġlaikosi":8283,"Ġzemiau":8284,"Ġnaktis":8285,"ologe":8286,"Ġtaps":8287,"Ġpatarimas":8288,"Ġberniukas":8289,"Ġkirpeja":8290,"Ġpazymos":8291,"Ġkapitalo":8292,"Ġpaieskos":8293,"Ġvegetar":8294,"ĠKinijos":8295,"ĠRespublikos":8296,"?[":8297,"ox":8298,"Ġuod":8299,"Ġkm":8300,"inams":8301,"Ġvas":8302,"usis":8303,"adr":8304,"avos":8305,"Ġcom":8306,"Ġtikrais":8307,"Ġnepar":8308,"Ġnuval":8309,"Ġmazesnis":8310,"uputi":8311,"Ġkriti":8312,"Ġkriter":8313,"udu":8314,"Ġikr":8315,"Ġdraugams":8316,"Ġkontein":8317,"Ġwe":8318,"Ġbudamas":8319,"Ġnekom":8320,"Ġelektra":8321,"Ġintelek":8322,"Ġuzdeg":8323,"Ġ72":8324,"iantys":8325,"Ġraudonai":8326,"Ġvaziuoja":8327,"ĠDauguma":8328,"Ġzaidimu":8329,"Ġmilijon":8330,"Ġsusikaup":8331,"shop":8332,"Ġpamirsau":8333,"Ġprotingas":8334,"Ġvaikscioti":8335,"Ġlygi":8336,"Ġnuotyk":8337,"EJ":8338,"Geras":8339,"PD":8340,"gyven":8341,"yziu":8342,"Ġbedos":8343,"Ġgo":8344,"Ġgadina":8345,"atis":8346,"apus":8347,"ekoju":8348,"ĠTer":8349,"augi":8350,"Ġkatik":8351,"Ġnutiko":8352,"iamus":8353,"Ġnusir":8354,"Ġzinios":8355,"Ġeinant":8356,"Ġmeta":8357,"Ġpazeid":8358,"Ġnelegal":8359,"Ġmokesciais":8360,"Ġveltui":8361,"ininkais":8362,"Ġbalk":8363,"elno":8364,"Ġgamina":8365,"Gali":8366,"Ġpaklaust":8367,"ĠJauciu":8368,"ĠKiekvienas":8369,"ĠUzs":8370,"Ġsiunciu":8371,"Ġklasiokai":8372,"Ġdurys":8373,"Ġskaudejo":8374,"Ġvaldymo":8375,"davom":8376,"oogl":8377,"Ġskoni":8378,"Ġatlyginimo":8379,"Ġmedziaga":8380,"Ġneziuriu":8381,"Ġnuobodus":8382,"Ġbalsas":8383,"Ġprigim":8384,"nebent":8385,"Ġreikalavimus":8386,"AZ":8387,"mecio":8388,"inusi":8389,"Ġmikr":8390,"Ġgail":8391,"..;":8392,"Ġrenku":8393,"Ġisvar":8394,"Ġisprot":8395,"ienes":8396,"Ġarch":8397,"Ġfoti":8398,"edai":8399,"ĠLe":8400,"Ġskyle":8401,"Ġimokas":8402,"ainiai":8403,"Ġskaitosi":8404,"ydau":8405,"Ġpadarys":8406,"Ġbroliu":8407,"Ġasmeni":8408,"akart":8409,"Ġsmird":8410,"Ġpirmoji":8411,"Ġamzius":8412,"Ġvaidmen":8413,"Ġsubjek":8414,"ĠXD":8415,"Ġkarantina":8416,"Ġnepavyko":8417,"Ġrekomenduoju":8418,"Ġinternetine":8419,"Ġauklet":8420,"Ġnekalbu":8421,"Ġnusiperku":8422,"egzist":8423,"Diev":8424,"Sh":8425,"pyr":8426,"aidziu":8427,"Ġnevar":8428,"Ġbad":8429,"avusi":8430,"Ġpasiklaus":8431,"ĠKitas":8432,"ĠMir":8433,"prad":8434,"tru":8435,"ukur":8436,"ĠRegistr":8437,"Ġkriks":8438,"liumb":8439,"Ġbrangu":8440,"Ġstruk":8441,"Ġtevus":8442,"reen":8443,"Pritariu":8444,"Ġplano":8445,"Ġsviesos":8446,"Ġtinkama":8447,"Ġkiekvienos":8448,"ysteje":8449,"Ġbuhaltere":8450,"Ġlogiskai":8451,"Ġnervu":8452,"Ġaktore":8453,"Ġblondines":8454,"Ġmarsk":8455,"Ġprisiminiau":8456,"Ġraides":8457,"Ġstaigiai":8458,"Ġnesugeba":8459,"Ġprieziuros":8460,"Bl":8461,"istikos":8462,"Ġneiv":8463,"Ġneesu":8464,"Ġnerodo":8465,"adinti":8466,"imtai":8467,"Ġlaipsn":8468,"eikti":8469,"ĠNT":8470,"ĠPinig":8471,"Ġapt":8472,"Ġnoretusi":8473,"Ġgrind":8474,"otus":8475,"ĠLaukiu":8476,"Ġtrau":8477,"Ġ29":8478,"Ġhm":8479,"Ġpalauk":8480,"Ġpaskutines":8481,"ardes":8482,"Ġsumoki":8483,"Ġisraso":8484,"Ġpapildoma":8485,"Ġkvepalai":8486,"Ġtechnika":8487,"Ġdurnas":8488,"Ġsneka":8489,"Ġribos":8490,"Ġnesveikai":8491,"Ġefektas":8492,"Ġpatikrinti":8493,"ĠMatyt":8494,"Ġstikl":8495,"Ġatsakomybes":8496,"Ġvitaminu":8497,"Ġstebukl":8498,"Ġtemperatura":8499,"pes":8500,"sen":8501,"aline":8502,"ikiu":8503,"Ġpremj":8504,"Ġisis":8505,"Ġzir":8506,"ĠTAI":8507,"Ġnesisku":8508,"ĠNeis":8509,"ĠSil":8510,"olo":8511,"iosios":8512,"Ġnieka":8513,"ulia":8514,"ovu":8515,"Ġiman":8516,"ĠRem":8517,"Ġspint":8518,"Ġvelgi":8519,"Ġgautas":8520,"Ġpaluk":8521,"iauriai":8522,"Ġlygus":8523,"tingai":8524,"Ġvadovo":8525,"Ġeile":8526,"Ġvirsaus":8527,"Ġbankas":8528,"Ġproduktai":8529,"Ġpasiulyma":8530,"Ġpriemimo":8531,"Ġpuslapis":8532,"ISK":8533,"Ġkompiuteriu":8534,"Ġzvaigzdes":8535,"Ġperspektyv":8536,"teliu":8537,"arna":8538,"omina":8539,"Ġvisaip":8540,"ĠKeista":8541,"kub":8542,"izma":8543,"tuviu":8544,"oviu":8545,"ĠReiks":8546,"Ġpavyz":8547,"Ġissiun":8548,"ley":8549,"tate":8550,"ydo":8551,"Ġsiuolaik":8552,"Ġsituo":8553,"zda":8554,"ibr":8555,"Ġidomiu":8556,"Ġsenu":8557,"ĠPrezid":8558,"Ġpaprast":8559,"Ġpersik":8560,"Ġpagelb":8561,"Ġisgyven":8562,"Ġiskarto":8563,"Ġuzkab":8564,"Ġuzsidedu":8565,"Ġatsirastu":8566,"Ġgarbanoti":8567,"Ġskyriu":8568,"Ġapyvartos":8569,"Ġepid":8570,"Ġnurasyti":8571,"Ġemociju":8572,"Ġdzem":8573,"Ġpobudzio":8574,"\")":8575,"Kal":8576,"Maz":8577,"Sm":8578,"kia":8579,"ari":8580,"Ġranda":8581,"uodzio":8582,"eivis":8583,"eive":8584,"Ġipr":8585,"Ġfutbol":8586,"pret":8587,"ĠIev":8588,"too":8589,"Ġ26":8590,"Ġikvep":8591,"enki":8592,"enkti":8593,"Ġvargu":8594,"ĠLietuvai":8595,"Ġbuvusi":8596,"aji":8597,"turg":8598,"ĠTurejau":8599,"pagal":8600,"Ġproduktas":8601,"Ġpaklause":8602,"Ġtamsos":8603,"Ġistatymas":8604,"Ġspecif":8605,"Ġpigiai":8606,"aznai":8607,"Ġkabes":8608,"Ġdegtines":8609,"Ġparduodi":8610,"Ġshop":8611,"Ġstengiuos":8612,"Ġautob":8613,"Ġinvesticiju":8614,"Ġauditor":8615,"rang":8616,"Ġetik":8617,"inamos":8618,"inkui":8619,"iukus":8620,"Ġmer":8621,"Ġben":8622,"Ġiseis":8623,"Ġisijung":8624,"Ġatnauj":8625,"ĠTipo":8626,"Ġarkl":8627,"idal":8628,"Ġapziur":8629,"ĠSvarbiausia":8630,"austa":8631,"ĠDaktar":8632,"Ġtokiems":8633,"Ġatsid":8634,"Ġkarj":8635,"Ġkaciu":8636,"Ġsvie":8637,"kuriu":8638,"ĠFacebook":8639,"ĠHer":8640,"Ġlaikytis":8641,"uolab":8642,"Ġkalbejo":8643,"Ġpirmi":8644,"Ġnepatogu":8645,"Ġrimta":8646,"Ġpateikta":8647,"Ġsituos":8648,"ziama":8649,"albant":8650,"ystej":8651,"Ġnevykd":8652,"Ġrusai":8653,"Ġ2013":8654,"Ġakcijas":8655,"Ġautomobilis":8656,"Ġkambaryje":8657,"Ġzaidimas":8658,"Ġseriala":8659,"Ġnepades":8660,"Ġsvetaineje":8661,"Ġlinija":8662,"Ġnedidele":8663,"Ġpraeita":8664,"Ġveidrodi":8665,"Ġmintimis":8666,"Ġnuotaikos":8667,"Ġnuolaida":8668,"ychka":8669,"Ġdav":8670,"osk":8671,"Ġgelb":8672,"Ġnesum":8673,"Ġdaryk":8674,"ĠPAS":8675,"Ġkuriai":8676,"ĠAiste":8677,"egi":8678,"ĠMil":8679,"ola":8680,"Ġatskai":8681,"Ġ27":8682,"Ġgyvybes":8683,"Ġvercia":8684,"uda":8685,"---":8686,"Ġpagalvoti":8687,"Ġverslininkas":8688,"Ġilgos":8689,"pasak":8690,"Ġnormaliu":8691,"Ġisger":8692,"Ġrinkti":8693,"Ġrodyt":8694,"Ġsprog":8695,"Ġbega":8696,"Ġvakcin":8697,"Ġtreci":8698,"Ġsaldum":8699,"Ġfakturas":8700,"algau":8701,"Ġmintyse":8702,"ogram":8703,"ternatyv":8704,"Ġpudra":8705,"CIU":8706,"IG":8707,"PSD":8708,"Toks":8709,"iform":8710,"zdziu":8711,"Ġput":8712,"anija":8713,"Ġvog":8714,"ikis":8715,"iklis":8716,"okrati":8717,"eku":8718,"ĠKvaksia":8719,"ĠAir":8720,"ĠBlog":8721,"ĠIt":8722,"Ġkliu":8723,"Ġzmogum":8724,"inuku":8725,"Ġapsid":8726,"Ġ36":8727,"Ġtautos":8728,"utn":8729,"Ġkvita":8730,"vest":8731,"Ġserijas":8732,"Ġmoketojo":8733,"Ġvirusu":8734,"Ġpatogus":8735,"ĠDievui":8736,"Ġatlyginima":8737,"Ġmagija":8738,"Ġartimu":8739,"Ġvisuomenes":8740,"Ġpandemija":8741,"nelyg":8742,"?..":8743,"Ġut":8744,"areg":8745,"Ġdziov":8746,"uru":8747,"elydis":8748,"oriaus":8749,"Ġbuto":8750,"Ġtikimybe":8751,"ykle":8752,"Ġnepard":8753,"uojamos":8754,"Ġnugal":8755,"unas":8756,"oviz":8757,"Ġpadaz":8758,"iteir":8759,"Ġsavybes":8760,"Ġdalyje":8761,"ici":8762,"ĠEsti":8763,"ebra":8764,"yli":8765,"Ġsapnu":8766,"Ġdeklaruojant":8767,"Ġgimines":8768,"Ġlaisva":8769,"Ġisgelb":8770,"Ġpatarciau":8771,"Ġsvarbi":8772,"Ġneatsis":8773,"Ġvampyru":8774,"Ġsantykiai":8775,"Ġvazel":8776,"quiem":8777,"Ġpaskaityti":8778,"Ġantakiai":8779,"Ġkuprine":8780,"Ġbezdzi":8781,"Ġvokieciu":8782,"ĠIDV":8783,"Cy":8784,"desimt":8785,"Ġiej":8786,"Ġtir":8787,"anku":8788,"Ġjegu":8789,"ados":8790,"Ġledu":8791,"orit":8792,"Ġisak":8793,"ysta":8794,"tinos":8795,"ules":8796,"ovai":8797,"Ġinas":8798,"Ġidio":8799,"Ġgyvenimui":8800,"Ġdazytis":8801,"Ġbalans":8802,"Ġpaslep":8803,"Ġkalbama":8804,"uokit":8805,"Ġnetiketai":8806,"alioji":8807,"Ġvadinas":8808,"Ġreiksmes":8809,"Ġsamdyti":8810,"Ġfizinio":8811,"trauka":8812,"ĠPatar":8813,"ĠZiuriu":8814,"Ġgavai":8815,"Ġateities":8816,"Ġmedziagos":8817,"Ġneziurejau":8818,"Ġbobu":8819,"Ġatostogos":8820,"Ġsokolado":8821,"Ġsugriz":8822,"Ġsoliariuma":8823,"Ġriebal":8824,"film":8825,"een":8826,"kon":8827,"Ġpost":8828,"Ġkir":8829,"Ġkina":8830,"Ġsabl":8831,"inor":8832,"inanti":8833,"Ġmeis":8834,"Ġbras":8835,"Ġgaiv":8836,"Ġjom":8837,"Ġlyt":8838,"Ġijung":8839,"Ġnesuz":8840,"emus":8841,"ĠKokiu":8842,"ogas":8843,"ĠMoter":8844,"Ġperoks":8845,"kot":8846,"ĠJam":8847,"ĠJez":8848,"Ġzinia":8849,"Ġakcija":8850,"Ġpamin":8851,"iber":8852,"Ġnezinia":8853,"Ġ5000":8854,"visos":8855,"Ġvadyb":8856,"ream":8857,"Ġfilmui":8858,"Ġrimciau":8859,"Ġnereiks":8860,"Ġvykdant":8861,"Ġdaiktai":8862,"'',":8863,"Ġmokytojas":8864,"Ġtuscia":8865,"Ġtrecias":8866,"Ġdekingas":8867,"Ġkrutines":8868,"Ġpriima":8869,"Ġuzdarbis":8870,"Ġperved":8871,"Ġpaaugl":8872,"Ġauskarus":8873,"Ġraide":8874,"ĠDievo":8875,"Ġliezuv":8876,"UK":8877,"pirk":8878,"zud":8879,"Ġtirp":8880,"Ġkieme":8881,"etr":8882,"tumete":8883,"Ġgalia":8884,"ĠPaj":8885,"antai":8886,"ĠDon":8887,"ĠMAN":8888,"Ġpernelyg":8889,"ĠVamp":8890,"Ġkaral":8891,"Ġklu":8892,"Ġklin":8893,"Ġakivaizd":8894,"Ġmazesni":8895,"Ġprasta":8896,"Ġsuprato":8897,"adinasi":8898,"Ġkolkas":8899,"Ġminist":8900,"metus":8901,"Ġnenorejau":8902,"Ġauksto":8903,"Ġzurnal":8904,"Ġsiaubas":8905,"Ġtelep":8906,"Ġkojom":8907,"Ġlaimingas":8908,"Ġakyse":8909,"Ġdesine":8910,"Ġmociutes":8911,"nyCy":8912,"Buvo":8913,"ĠGrazu":8914,"Ġuzrasu":8915,"Ġalkohol":8916,"Ġseptyn":8917,"ĠEsme":8918,"ciam":8919,"dus":8920,"Ġsch":8921,"inuosi":8922,"elemis":8923,"aktu":8924,"Ġpasauliu":8925,"Ġiform":8926,"Ġmanimi":8927,"ĠAS":8928,"Ġvienoj":8929,"Ġskand":8930,"ull":8931,"uojantis":8932,"eza":8933,"Ġfilosof":8934,"esniais":8935,"Ġpradedi":8936,"Ġisspr":8937,"ĠCl":8938,"ĠCo":8939,"Ġpasakyta":8940,"Ġpalieka":8941,"Ġalus":8942,"ĠNesvarbu":8943,"Ġpaziurek":8944,"Ġpardavimas":8945,"Ġuzdirba":8946,"Ġparduotuvej":8947,"ciant":8948,"Ġkalbejau":8949,"Ġnereikejo":8950,"Ġgirdejus":8951,"kites":8952,"aliukas":8953,"Ġuzklaus":8954,"Ġklasiokas":8955,"Ġdeka":8956,"Ġgrizau":8957,"Ġbernai":8958,"Ġsvajones":8959,"Ġviesbu":8960,"Ġpapasakoti":8961,"Ġsantykius":8962,"Ġlaikrodi":8963,"Ġsugalvo":8964,"Ġnesiseka":8965,"Ġprievole":8966,"ex":8967,"giu":8968,"vaik":8969,"Ġpon":8970,"Ġnekr":8971,"Ġbaug":8972,"usias":8973,"Ġruz":8974,"oros":8975,"Ġgalvot":8976,"ĠBat":8977,"ĠBlack":8978,"ĠJokiu":8979,"Ġatsto":8980,"Ġvienkar":8981,"ybai":8982,"ĠEik":8983,"Ġprisit":8984,"Ġnenum":8985,"Ġanima":8986,"Ġalternatyv":8987,"ardas":8988,"Ġserti":8989,"Ġvakaro":8990,"ĠGeriausia":8991,"Ġzemeje":8992,"ense":8993,"Ġprajuokino":8994,"Ġdokumentas":8995,"Ġnemoki":8996,"albeti":8997,"Ġtamsus":8998,"Ġvadovu":8999,"Ġnemaza":9000,"Ġvaisius":9001,"Ġdraudimas":9002,"Ġvaldyti":9003,"Ġtaupyt":9004,"Ġdarbui":9005,"Ġissipl":9006,"Ġatostogu":9007,";]":9008,"RAI":9009,"Ġkate":9010,"Ġdis":9011,"uotai":9012,"ityv":9013,"abu":9014,"Ġpasiteir":9015,"Ġnesio":9016,"Ġdaryciau":9017,"ĠPap":9018,"Ġkuro":9019,"Ġco":9020,"ĠLAB":9021,"ĠOf":9022,"Ġtikrus":9023,"Ġantros":9024,"Ġdre":9025,"Ġinvoice":9026,"Ġpador":9027,"Ġvalios":9028,"meniskai":9029,"Ġgyvenam":9030,"Ġ33":9031,"Ġpasakyk":9032,"Ġatvaziu":9033,"Ġnebuciau":9034,"Ġpraeiti":9035,"Ġrimtas":9036,"Ġkunig":9037,"Ġpuslapiu":9038,"Ġvaziuot":9039,"AUG":9040,"Ġdzins":9041,"Ġbanke":9042,"Ġpaskaityt":9043,"ĠHaris":9044,"Ġpasidometi":9045,"ĠSeniau":9046,"Ġkonsultante":9047,"Ġadministr":9048,"29":9049,"Kl":9050,"TV":9051,"[/":9052,"ociau":9053,"astr":9054,"okol":9055,"Ġrata":9056,"uoto":9057,"Ġsule":9058,"Ġnesa":9059,"Ġnesunku":9060,"Ġapart":9061,"ĠSOD":9062,"otai":9063,"ĠGAL":9064,"Ġnepasitik":9065,"uojame":9066,"Ġantkai":9067,"Ġveiklu":9068,"Ġuzsir":9069,"Ġpatiksl":9070,"Ġbeprot":9071,"Ġmatytas":9072,"ainu":9073,"Ġasmenybe":9074,"Ġora":9075,"Ġlietuva":9076,"Ġistoriju":9077,"iminiau":9078,"Ġmalonus":9079,"Ġbaigiau":9080,"Ġtraukti":9081,"ĠNepatinka":9082,"Ġdzinsus":9083,"Ġnepaaisk":9084,"Ġpasinaudoti":9085,"AgnyCy":9086,"Nesu":9087,"iimu":9088,"Ġkeks":9089,"Ġkemp":9090,"inate":9091,"inezes":9092,"Ġbit":9093,"eleje":9094,"Ġigu":9095,"Ġatsius":9096,"Ġpirkai":9097,"tisku":9098,"Ġzinom":9099,"Ġpavai":9100,"Ġklausimo":9101,"ĠZem":9102,"ciavau":9103,"Ġforuma":9104,"Ġdirbo":9105,"Ġwill":9106,"Ġnepasis":9107,"Ġnepasir":9108,"Ġjausma":9109,"Ġpaaiskint":9110,"ows":9111,"Ġpriemon":9112,"Ġuzsakymu":9113,"Ġtusa":9114,"Ġ199":9115,"Ġlupas":9116,"Ġnepadeda":9117,"Ġpazistama":9118,"Ġmaikute":9119,"ENT":9120,"ĠVokietija":9121,"Ġnemegsta":9122,"IIIIIIII":9123,"27":9124,"Aps":9125,"Gyven":9126,"XX":9127,"ds":9128,"hing":9129,"tf":9130,"ts":9131,"Ġsof":9132,"anaud":9133,"Ġneist":9134,"Ġneegzist":9135,"Ġdia":9136,"Ġgalejau":9137,"ĠPagrind":9138,"Ġfan":9139,"Ġgeriausios":9140,"ĠIz":9141,"ovos":9142,"Ġsakes":9143,"Ġsavanor":9144,"icijos":9145,"Ġkritik":9146,"Ġpusval":9147,"Ġsian":9148,"eiskit":9149,"Ġpiln":9150,"Ġlietuviskas":9151,"Ġseimo":9152,"Ġgamybos":9153,"Ġnepasiek":9154,"Ġsumoket":9155,"Ġbijojau":9156,"Ġsituacijoje":9157,"Ġvykdo":9158,"Ġvaisiu":9159,"Ġmuzik":9160,"Ġsusidures":9161,"Ġlovoj":9162,"Ġnejauku":9163,"TUV":9164,"Ġpavadinti":9165,"Ġaktualu":9166,"Ġdidzioji":9167,")...":9168,"Did":9169,"IJ":9170,"Kokia":9171,"Sak":9172,"UAB":9173,"dyt":9174,"ms":9175,"Ġnosi":9176,"Ġvab":9177,"Ġdeda":9178,"okes":9179,"adi":9180,"Ġpasijuok":9181,"Ġvisame":9182,"Ġbuwo":9183,"ĠSav":9184,"otes":9185,"Ġkartas":9186,"inkis":9187,"Ġapsik":9188,"uodavo":9189,"Ġpamoku":9190,"ĠPrek":9191,"Ġpadarytu":9192,"arban":9193,"Ġpanasia":9194,"Ġnormalios":9195,"Ġtarptau":9196,"Ġnuosird":9197,"Ġsveikatai":9198,"aturos":9199,"Ġnario":9200,"Ġdarbuotojo":9201,"Ġsimps":9202,"Ġrekia":9203,"Ġneapmokestin":9204,"Ġpagalvojus":9205,"ragon":9206,"spychka":9207,"Ġkultura":9208,"Ġlapkr":9209,"Ġnepavyks":9210,"Ġgrynais":9211,"Ġprincipu":9212,"Ġapkab":9213,"Ġdarzoves":9214,"ĠReikes":9215,"Ġsniegas":9216,"Ġnepasakyciau":9217,"Ġbelekaip":9218,"Draug":9219,"Merg":9220,"PVM":9221,"Ġkup":9222,"Ġsank":9223,"Ġvejas":9224,"tiksl":9225,"Ġdziau":9226,"Ġbanga":9227,"ater":9228,"amon":9229,"Ġlunatik":9230,"Ġprokur":9231,"Ġzol":9232,"ijaus":9233,"Ġbuvai":9234,"ante":9235,"ĠSK":9236,"Ġgro":9237,"ĠIesk":9238,"Ġatsibud":9239,"Ġnetek":9240,"ukt":9241,"Ġgyva":9242,"Ġeshop":9243,"Ġspuogu":9244,"menu":9245,"Ġsitoj":9246,"Ġidomaus":9247,"Ġmesti":9248,"Ġnepriim":9249,"Ġstil":9250,"Ġvakarais":9251,"timus":9252,"Ġgimimo":9253,"Ġtemp":9254,"Ġsedeti":9255,"Ġklaseje":9256,"Ġtvarkyti":9257,"Ġzalias":9258,"Ġlaku":9259,"Ġuzsimer":9260,"ykloje":9261,"Ġsansu":9262,"Kazkaip":9263,"Ġtyliai":9264,"Ġprisiminti":9265,"Ġnuzude":9266,"Ġsusidaro":9267,"Pirm":9268,"Ġwhatever":9269,"Ġkandid":9270,"Pard":9271,"dai":9272,"pju":9273,"Ġtank":9274,"Ġkent":9275,"Ġkieno":9276,"Ġsiemet":9277,"Ġvs":9278,"Ġgaves":9279,"elanc":9280,"Ġprov":9281,"Ġpasek":9282,"Ġmanip":9283,"Ġasaru":9284,"ytojai":9285,"ĠBen":9286,"ĠJur":9287,"Ġnuveik":9288,"Ġtase":9289,"Ġkruv":9290,"ainas":9291,"eliuose":9292,"Ġdienomis":9293,"Ġelgiasi":9294,"Ġpardavineja":9295,"Ġabieju":9296,"Ġmelas":9297,"Ġego":9298,"Ġrankose":9299,"Ġpraktika":9300,"Ġsusitaup":9301,"Ġpirmasis":9302,"Ġsugalvojau":9303,"Ġskausmas":9304,"Ġpozym":9305,"anormal":9306,"Ġnupirkti":9307,"ĠKitaip":9308,"Ġziniasklaid":9309,"Ġkosmetika":9310,"ĠPayPal":9311,"EG":9312,"Gyv":9313,"Or":9314,"oi":9315,"ptom":9316,"arag":9317,"Ġma":9318,"esa":9319,"usta":9320,"okis":9321,"okus":9322,"tuko":9323,"Ġisore":9324,"Ġpaste":9325,"Ġpasivai":9326,"Ġnesako":9327,"iest":9328,"ĠAR":9329,"Ġpatiems":9330,"Ġnora":9331,"ĠOmg":9332,"Ġnufot":9333,"Ġatrodyt":9334,"Ġ31":9335,"Ġkamera":9336,"ĠHot":9337,"ealus":9338,"Ġbendro":9339,"ĠAntra":9340,"Ġlietuviska":9341,"Ġsekme":9342,"Ġlaukt":9343,"Ġpirmyn":9344,"ree":9345,"inksm":9346,"Galbut":9347,"Ġnemokama":9348,"198":9349,"Ġgyventojas":9350,"Ġaplinkos":9351,"Ġpasiziuriu":9352,"Ġmenesiui":9353,"Ġpanaudoti":9354,"Ġvestuves":9355,"Ġkeliauti":9356,"Ġsiuntimo":9357,"EDIT":9358,"Ġsemin":9359,"Ġabsoliuciai":9360,"04":9361,"06":9362,"Jus":9363,"SS":9364,"jus":9365,"yway":9366,"Ġpuola":9367,"eter":9368,"avimai":9369,"emor":9370,"ĠAc":9371,"ĠSlaid":9372,"Ġnuotol":9373,"Ġpadal":9374,"Ġpavog":9375,"erga":9376,"iniui":9377,"liukas":9378,"Ġha":9379,"Ġsenov":9380,"Ġdienom":9381,"iskumo":9382,"pleks":9383,"Ġaha":9384,"Ġilgio":9385,"Ġneger":9386,"ciantis":9387,"Ġsurinkti":9388,"Ġsukurt":9389,"AIS":9390,"Ġdarbuotoja":9391,"Ġpagalvoji":9392,"ĠIdom":9393,"Ġtobula":9394,"ĠVerslo":9395,"Ġleido":9396,"Ġatspind":9397,"Ġtalp":9398,"Ġseksual":9399,"Ġkorteles":9400,"Ġsutapimas":9401,"Ġuzmokes":9402,"IAU":9403,"Lab":9404,"UU":9405,"kamb":9406,"ret":9407,"Ġund":9408,"Ġkodo":9409,"iuj":9410,"alinis":9411,"Ġpraz":9412,"tuma":9413,"ĠPA":9414,"ĠKoki":9415,"ĠMal":9416,"ĠBaig":9417,"anden":9418,"ĠLond":9419,"aikiau":9420,"Ġtrail":9421,"epel":9422,"Ġimporto":9423,"Ġnebij":9424,"Ġissim":9425,"Ġissiem":9426,"Ġprotinga":9427,"tato":9428,"Ġapsimok":9429,"Ġklausim":9430,"ainiu":9431,"vair":9432,"Ġteisma":9433,"Ġnuomoniu":9434,"metis":9435,"Ġlietuvisku":9436,"Ġvyrui":9437,"Ġnesupras":9438,"usiuju":9439,"Ġmokytojai":9440,"Ġmenesines":9441,"Visai":9442,"Ġfaini":9443,"ĠDievinu":9444,"Ġapgail":9445,"Ġapranga":9446,"Ġmaxim":9447,"Ġinterpret":9448,"ĠHeart":9449,"Ġtablet":9450,"ĠAustr":9451,"eop":9452,"gel":9453,"mel":9454,"Ġaj":9455,"Ġpiev":9456,"auto":9457,"Ġsov":9458,"Ġsou":9459,"Ġvan":9460,"Ġrit":9461,"Ġrev":9462,"Ġismet":9463,"ĠNo":9464,"ĠPs":9465,"Ġatsitinka":9466,"tep":9467,"Ġkitokie":9468,"Ġdreb":9469,"Ġissid":9470,"Ġdraugyste":9471,"viskas":9472,"Ġbalandzio":9473,"ĠTiksl":9474,"Ġmase":9475,"Ġvadinti":9476,"Ġnepatenk":9477,"Ġaplinkui":9478,"rey":9479,"traukia":9480,"Ġatsisp":9481,"Ġistatymai":9482,"Ġrankomis":9483,"Ġkvailai":9484,"Ġlogiska":9485,"Ġklaidas":9486,"Ġrysio":9487,"Ġkonkrec":9488,"Ġvirusa":9489,"Ġsampuna":9490,"Ġblakstienas":9491,"ĠSeimo":9492,"Ġnepazist":9493,"ĠLinksmas":9494,"Ġniuansu":9495,"Ġerzina":9496,"300":9497,"Nek":9498,"Stai":9499,"jas":9500,"pai":9501,"sun":9502,"Ġteta":9503,"Ġnaiv":9504,"Ġsaud":9505,"Ġbaus":9506,"Ġirangos":9507,"Ġramu":9508,"Ġratu":9509,"Ġlos":9510,"onui":9511,"iov":9512,"ĠKGB":9513,"ĠAj":9514,"Ġcr":9515,"eisciau":9516,"gip":9517,"Ġsusin":9518,"Ġpirsta":9519,"Ġgrazaus":9520,"Ġkram":9521,"kurios":9522,"Ġall":9523,"Ġmiel":9524,"ĠSveikas":9525,"Ġpasauly":9526,"timai":9527,"Ġduok":9528,"Ġpatiketi":9529,"jauciu":9530,"Ġneuztenka":9531,"Ġtaupyti":9532,"Ġgirl":9533,"Ġrupes":9534,"Ġminimum":9535,"Ġpliusas":9536,"Ġskirtingos":9537,"Ġsrities":9538,"Ġkietas":9539,"Ġnuobodu":9540,"plauke":9541,"Ġitaka":9542,"Ġtrukumas":9543,"Ġsavaitgali":9544,"Ġdvigubai":9545,"66":9546,"Ind":9547,"OG":9548,"_^":9549,"jame":9550,"kab":9551,"vern":9552,"Ġpie":9553,"Ġtvirtin":9554,"Ġmiska":9555,"Ġvsio":9556,"Ġged":9557,"ener":9558,"urdas":9559,"Ġpriz":9560,"Ġzomb":9561,"ray":9562,"ĠPil":9563,"edit":9564,"ĠBab":9565,"Ġpirko":9566,"acion":9567,"ijose":9568,"Ġprota":9569,"toriai":9570,"iskiep":9571,"Ġdazai":9572,"Ġalieju":9573,"Ġbendroves":9574,"Ġiteis":9575,"Ġlietuvoj":9576,"Ġlikti":9577,"Ġnepasik":9578,"ĠGreit":9579,"Ġvalstybiu":9580,"Ġtinkamas":9581,"Ġaukso":9582,"Ġismoka":9583,"Ġkosmos":9584,"eiksti":9585,"Ġrusies":9586,"own":9587,"ence":9588,"Ġveiksmas":9589,"Ġgausis":9590,"Ġnukrito":9591,"velgti":9592,"ĠKorne":9593,"Ġbibliot":9594,"Jie":9595,"Sveik":9596,"Siuo":9597,"lig":9598,"nen":9599,"tt":9600,"zodziu":9601,"eso":9602,"orry":9603,"itl":9604,"itek":9605,"kain":9606,"Ġkurimas":9607,"ĠAT":9608,"Ġjaucia":9609,"Ġmokejimai":9610,"ĠVar":9611,"ymams":9612,"Ġimport":9613,"Ġnebijau":9614,"Ġveiki":9615,"Ġpakom":9616,".......":9617,"ziura":9618,"Ġstere":9619,"Ġalu":9620,"Ġnedaz":9621,"Ġbaisiausias":9622,"Ġsutartyje":9623,"row":9624,"Ġdomiuosi":9625,"Ġisvada":9626,"Ġvaizda":9627,"Ġnatural":9628,"Ġuzsidirb":9629,"Ġgrizo":9630,"Ġliudijimas":9631,"Ġgaletumete":9632,"Ġlinzes":9633,"Ġryza":9634,"Ġsilpnybe":9635,"ĠNegi":9636,"Ġsmegenis":9637,"Ġsmegenys":9638,"Ġneveikia":9639,"ĠGalvojau":9640,"Ġreakcija":9641,"Ġimunit":9642,"Ġsertifik":9643,"\"\"":9644,"KA":9645,"eine":9646,"Ġkeiti":9647,"Ġneik":9648,"Ġminties":9649,"Ġdied":9650,"iauliu":9651,"Ġish":9652,"Ġmand":9653,"Ġgalas":9654,"Ġnesiek":9655,"ĠNel":9656,"ĠNuostab":9657,"ĠPac":9658,"ĠAB":9659,"ĠDi":9660,"ĠDav":9661,"Ġ(-":9662,"ĠBer":9663,"ingais":9664,"Ġpareisk":9665,"ĠOM":9666,"ĠOh":9667,"Ġdrug":9668,"ĠRud":9669,"Ġakiniais":9670,"ĠEV":9671,"Ġkrit":9672,"Ġtiekejo":9673,"Ġziuredavau":9674,"yniu":9675,"Ġsenokai":9676,"Ġpanasius":9677,"Ġkolek":9678,"ĠNew":9679,"Ġsutarciu":9680,"Ġsumokejau":9681,"Ġmelyna":9682,"Ġprodukcija":9683,"Ġneuzm":9684,"Visu":9685,"Ġgrizti":9686,"ĠKaledas":9687,"Ġpopierius":9688,"Ġthis":9689,"Ġsritis":9690,"Ġsarasas":9691,"Ġsandor":9692,"Ġturesite":9693,"Ġsikna":9694,"Ġzavi":9695,"ĠDeath":9696,"Ġcharakterio":9697,"ĠSodrai":9698,"Ġrajone":9699,"Ġisteigti":9700,"Ġkedes":9701,"Ġgatveje":9702,"Ġmityba":9703,"Ġfantazija":9704,"Ġplokstele":9705,"ĠSimonyte":9706,"Koks":9707,"Tie":9708,"gerai":9709,"kat":9710,"Ġteikia":9711,"Ġsta":9712,"Ġsol":9713,"ietes":9714,"alines":9715,"Ġbyl":9716,"img":9717,"Ġreciau":9718,"ije":9719,"Ġbutinas":9720,"galima":9721,"ĠGu":9722,"Ġplak":9723,"inkt":9724,"Ġkeltis":9725,"icion":9726,"Ġuzsik":9727,"Ġpirkimas":9728,"Ġforumas":9729,"ĠIsvis":9730,"Ġmasin":9731,"Ġtarpus":9732,"Ġdeklaracijoje":9733,"Ġzemyn":9734,"Ġpagristi":9735,"Prie":9736,"Ġjaustis":9737,"Ġ2008":9738,"IETUV":9739,"Ġsumus":9740,"Ġistver":9741,"Ġgrizta":9742,"skyrus":9743,"Ġvargo":9744,"Ġatmaina":9745,"Geriau":9746,"Ġperziurejau":9747,"ĠPirmiausia":9748,"Ġuzpildyti":9749,"Ġbaze":9750,"Ġpolitika":9751,"Sp":9752,"Saul":9753,"ael":9754,"gam":9755,"piuter":9756,"isas":9757,"isciau":9758,"Ġsaz":9759,"inkas":9760,"alija":9761,"Ġmont":9762,"tiv":9763,"timo":9764,"osius":9765,"Ġjoks":9766,"amirs":9767,"Ġlenda":9768,"Ġpasimok":9769,"Ġtiktai":9770,"ĠTos":9771,"ĠKons":9772,"Ġastuo":9773,"ksci":9774,"ĠVL":9775,"ĠLove":9776,"ykus":9777,"Ġtrik":9778,"Ġidejas":9779,"Ġkrema":9780,"Ġmetas":9781,"Ġpasaka":9782,"ciavo":9783,"Ġgautos":9784,"Ġsuni":9785,"Ġmerginas":9786,"Ġzodiako":9787,"Ġlygis":9788,"Ġ99":9789,"Ġlengwai":9790,"Ġpirmadieni":9791,"Ġjuodapl":9792,"Ġkliento":9793,"Ġvirsija":9794,"Ġpatarimus":9795,"Ġmelo":9796,"Ġpaklausiau":9797,"ĠIntern":9798,"Ġ2011":9799,"Ġvisokiais":9800,"ING":9801,"Ġpavydziu":9802,"Ġplatint":9803,"Ġsusijusi":9804,"Ġsprendimus":9805,"Ġvidutin":9806,"Ġfotk":9807,"Ġautoriaus":9808,"Ġkopija":9809,"Ġtrukdo":9810,"Ġhumoro":9811,"Ġluzau":9812,"Ġsutvarkyti":9813,"Ġbedarb":9814,"Ġpamast":9815,"Ġtrumpa":9816,"Ġnesiskun":9817,"Ko":9818,"Ġteke":9819,"Ġsask":9820,"Ġvej":9821,"atrodo":9822,"eru":9823,"eriais":9824,"Ġsutinka":9825,"avu":9826,"ojate":9827,"ious":9828,"ĠST":9829,"Ġfond":9830,"ĠMy":9831,"Ġcan":9832,"ĠJuod":9833,"Ġvienus":9834,"ĠGam":9835,"iper":9836,"Ġtras":9837,"Ġ250":9838,"ovus":9839,"Ġgrazius":9840,"Ġneretai":9841,"ĠEgip":9842,"Ġpakar":9843,"aini":9844,"eidimo":9845,"Ġreikalingos":9846,"Ġvaikinus":9847,"Ġpilnas":9848,"Ġnormalaus":9849,"ciama":9850,"Ġindividualiai":9851,"Ġnemoketi":9852,"Ġreguliar":9853,"Ġvaziuoju":9854,"Ġignor":9855,"Ġramybes":9856,"ĠIdomus":9857,"Ġrezultatai":9858,"Ġmilijard":9859,"Ġliudijimo":9860,"Ġeilinis":9861,"Ġpraver":9862,"Ġatostogas":9863,"Ġpartijos":9864,"********":9865,"Ġzvaigzde":9866,"Ġsampunu":9867,"Ġlankytoju":9868,"Ġpacioje":9869,"echan":9870,"ĠLABAI":9871,"Ġstereoti":9872,"09":9873,"31":9874,"YK":9875,"Ġpietus":9876,"Ġty":9877,"Ġneab":9878,"Ġment":9879,"tipo":9880,"Ġdipl":9881,"Ġbaik":9882,"esiai":9883,"okiais":9884,"eth":9885,"avausi":9886,"ĠNum":9887,"ĠNaudoju":9888,"Ġarciau":9889,"ĠPS":9890,"ĠMie":9891,"Ġpernai":9892,"Ġgeresnio":9893,"prend":9894,"Ġgryna":9895,"ĠBur":9896,"ĠBlo":9897,"Ġatsibu":9898,"ĠLais":9899,"ĠOo":9900,"ĠOho":9901,"Ġnusiv":9902,"Ġveiklas":9903,"Ġesm":9904,"Ġtiesintuv":9905,"Ġuzsiaug":9906,"meciu":9907,"Ġpirkejo":9908,"Ġverslininkai":9909,"maliai":9910,"Ġkvadr":9911,"Ġpardavejo":9912,"ĠNepr":9913,"ĠAntr":9914,"Ġbaisi":9915,"Ġseka":9916,"Ġ600":9917,"Ġ800":9918,"ologijos":9919,"esioti":9920,"Ġnarkom":9921,"Ġjausmus":9922,"Ġisvengti":9923,"Visa":9924,"Ġkirpciu":9925,"Ġdovanos":9926,"Ġmuito":9927,"Ġveiksmu":9928,"Ġlaikotarpiu":9929,"Ġsantykiu":9930,"Ġmodelis":9931,"Ġateiviu":9932,"Ġzingsnis":9933,"Ġpandemijos":9934,"Ġtattoo":9935,"Ġkulturos":9936,"Ġakimirka":9937,".),":9938,"98":9939,"Pad":9940,"Sekmes":9941,"cep":9942,"uj":9943,"auciau":9944,"Ġsona":9945,"Ġnerod":9946,"Ġmyg":9947,"ikoj":9948,"azai":9949,"Ġvisose":9950,"augoti":9951,"Ġnesiv":9952,"ĠSia":9953,"Ġot":9954,"Ġgrai":9955,"ĠVely":9956,"Ġkitokios":9957,"Ġsusib":9958,"Ġtrosk":9959,"Ġzinos":9960,"Ġdaliu":9961,"Ġneipras":9962,"inukai":9963,"Ġprast":9964,"Ġstal":9965,"ĠPriklauso":9966,"Ġlikau":9967,"Ġlikusi":9968,"Ġpirmam":9969,"Ġsveikas":9970,"Ġnetikr":9971,"Ġsedet":9972,"Ġstraipsnius":9973,"Ġzurnalo":9974,"Ġuzkliu":9975,"eiviu":9976,"Ġuzmirs":9977,"Ġskelbimus":9978,"ĠZmog":9979,"Ġrupintis":9980,"Ġgrozi":9981,"Ġskirtingas":9982,"Ġivykiu":9983,"Ġatlyginimas":9984,"Ġvertinu":9985,"Ġslykstus":9986,"Ġadreso":9987,"Ġvaiduokliu":9988,"Ġnejauciu":9989,"Ġciviline":9990,"Ġsavaitgaliais":9991,"Ġtarifas":9992,"ĠDarbo":9993,"Tarkim":9994,"Ġrenkuosi":9995,"Aha":9996,"Amer":9997,"dys":9998,"fiz":9999,"ful":10000,"fera":10001,"Ġtektu":10002,"Ġsign":10003,"iname":10004,"Ġnekaip":10005,"alap":10006,"Ġjokie":10007,"elf":10008,"eline":10009,"tukai":10010,"ieku":10011,"Ġnesvar":10012,"Ġuzeina":10013,"ĠKiti":10014,"ĠKAD":10015,"ĠAz":10016,"ĠSturg":10017,"ĠDirb":10018,"tint":10019,"Ġnorinciu":10020,"Ġturintis":10021,"ume":10022,"Ġpermok":10023,"ĠBar":10024,"Ġatsist":10025,"Ġparysk":10026,"Ġantsp":10027,"esniam":10028,"ĠED":10029,"Ġziurejo":10030,"Ġklausiau":10031,"Ġnaudoji":10032,"Ġpalank":10033,"ĠVisgi":10034,"Ġbrol":10035,"Ġformu":10036,"Ġdirbau":10037,"Ġpaskutinius":10038,"ĠPastar":10039,"iskumas":10040,"Ġnedr":10041,"Ġfaktu":10042,"Ġisgyv":10043,"tojai":10044,"Ġsedejo":10045,"Ġ:)))":10046,"Ġbegti":10047,"___________":10048,"Ġgreitu":10049,"Ġtevo":10050,"Ġbaiges":10051,"Ġkost":10052,"Ġfiziskai":10053,"Ġdievui":10054,"Ġkonkurentu":10055,"Ġcentras":10056,"Ġtaikoma":10057,"Ġscenos":10058,"Ġelektroniniu":10059,"Ġkeicia":10060,"Ġperskaityti":10061,"Ġstart":10062,"ĠKlaiped":10063,"ĠUSA":10064,"For":10065,"centr":10066,"ioms":10067,"klaus":10068,"Ġos":10069,"Ġever":10070,"Ġpup":10071,"Ġtiem":10072,"Ġbach":10073,"etais":10074,"uotus":10075,"tud":10076,"ojamos":10077,"odas":10078,"ĠNr":10079,"ĠPaband":10080,"Ġkuryb":10081,"ĠSn":10082,"Ġyr":10083,"ogiska":10084,"Ġtokiai":10085,"Ġcentra":10086,"Ġkitko":10087,"Ġdram":10088,"Ġissam":10089,"Ġ;//":10090,"ude":10091,"Ġmasto":10092,"Ġliktu":10093,"Ġnumir":10094,"Ġtemu":10095,"Ġsimpati":10096,"Ġvidinis":10097,"Ġpagrindu":10098,"Ġstatistika":10099,"auze":10100,"Ġsusijes":10101,"Ġpabandyk":10102,"Ġlapa":10103,"Ġaikst":10104,"Ġisivaizduoti":10105,"ĠAtsak":10106,"Ġikurti":10107,"Pirma":10108,"Ġkrasto":10109,"Ġnusikirpau":10110,"Ġdoleriu":10111,"Ġpails":10112,"Ġneidomus":10113,"Ed":10114,"Es":10115,"Im":10116,"Mm":10117,"joj":10118,"med":10119,"paras":10120,"rent":10121,"autis":10122,"Ġniam":10123,"inoms":10124,"iuke":10125,"Ġneva":10126,"Ġduot":10127,"Ġbedu":10128,"iktu":10129,"aze":10130,"Ġkaimas":10131,"Ġpasij":10132,"Ġvisalaik":10133,"Ġatmos":10134,"ĠPaskai":10135,"ĠApl":10136,"Ġreikm":10137,"ĠVyt":10138,"yke":10139,"Ġimtis":10140,"evez":10141,"Ġspir":10142,"Ġbusena":10143,"Ġprotu":10144,"eck":10145,"Ġpasakei":10146,"Ġprasm":10147,"Ġgauta":10148,"Ġhave":10149,"Ġpaprastos":10150,"Ġparasyk":10151,"Ġbandai":10152,"Ġbaisiau":10153,"Ġliku":10154,"Ġnusipl":10155,"Ġnusipirko":10156,"Ġkuomet":10157,"Ġjuoktis":10158,"ĠAtl":10159,"Ġnaudojama":10160,"Ġnaudojasi":10161,"ĠKarta":10162,"Ġrytais":10163,"Ġsprendimu":10164,"Ġagres":10165,"Ġatsikeliau":10166,"Ġelektronine":10167,"Ġpursk":10168,"Ġpasirodys":10169,"Ġpubl":10170,"Ġsiustis":10171,"Ġreikalavimai":10172,"Ġsusimastyti":10173,"Ġpasiule":10174,"Ġprekybai":10175,"Ġbjaur":10176,"03":10177,"But":10178,"Patiko":10179,"fo":10180,"pild":10181,"Ġpuos":10182,"anras":10183,"Ġnef":10184,"esas":10185,"Ġjokia":10186,"apar":10187,"Ġivar":10188,"Ġdaros":10189,"ĠKan":10190,"ĠKing":10191,"egau":10192,"ĠMas":10193,"ĠMmm":10194,"Ġpermat":10195,"ĠJa":10196,"Ġvienuol":10197,"gul":10198,"izza":10199,"ips":10200,"mast":10201,"Ġsviecia":10202,"Ġsakyk":10203,"Ġpadev":10204,"Ġnebed":10205,"Ġissin":10206,"Ġdidesniu":10207,"Ġdidelius":10208,"Ġsale":10209,"ĠZiema":10210,"Ġdazais":10211,"Ġdazyti":10212,"Ġpusmeti":10213,"ĠUn":10214,"Ġverslininku":10215,"Ġpadarai":10216,"indows":10217,"Ġparasei":10218,"Ġpersiv":10219,"Ġkompa":10220,"Ġfaktais":10221,"ĠKazkur":10222,"Ġadmin":10223,"Ġvaiden":10224,"Ġpamato":10225,"Ġisvaziu":10226,"Ġpraktikos":10227,"Ġdekoju":10228,"Ġgarsas":10229,"Ġsijonai":10230,"Ġnukirp":10231,"Ġboba":10232,"ĠEuropa":10233,"Ġtaisykle":10234,"Ġledo":10235,"ĠAmerikos":10236,"Ġpaieska":10237,"Ġnusibodo":10238,"Ġgrandin":10239,"ambulo":10240,"ibiru":10241,"Ġlyties":10242,"COM":10243,"Me":10244,"Papras":10245,"Vai":10246,"YS":10247,"Ypac":10248,"cal":10249,"Ġku":10250,"Ġdama":10251,"Ġlan":10252,"Ġvisoje":10253,"Ġiveik":10254,"Ġgalimas":10255,"Ġdarysiu":10256,"ĠAte":10257,"ĠSkaiciau":10258,"auskas":10259,"ĠMMA":10260,"igalv":10261,"ĠLIETUV":10262,"Ġtax":10263,"amaciau":10264,"Ġnepapras":10265,"tuve":10266,"ezin":10267,"Ġnebais":10268,"ĠRo":10269,"Ġnemir":10270,"Ġtiekejai":10271,"age":10272,"inui":10273,"Ġpaprastus":10274,"Ġparasu":10275,"Ġpilva":10276,"Ġlaikoma":10277,"ĠGeriausias":10278,"Ġ700":10279,"Ġsumoketa":10280,"Ġsutampa":10281,"Ġaukste":10282,"Ġpolitik":10283,"Ġlengvas":10284,"Ġkvapa":10285,"Ġdalyvauti":10286,"Ġmaksim":10287,"Zmones":10288,"Ġatrasti":10289,"Ġmakiazo":10290,"Ġzvengiau":10291,"ĠUZT":10292,"appy":10293,"Ġkrize":10294,"Ġhoroskop":10295,"39":10296,"Mar":10297,"Sv":10298,"tie":10299,"toks":10300,"ykai":10301,"ĠQ":10302,"Ġtose":10303,"Ġneit":10304,"alp":10305,"Ġrob":10306,"oriz":10307,"Ġisdr":10308,"Ġpasiskaiciu":10309,"ĠPuk":10310,"ĠSAV":10311,"Ġpatek":10312,"igu":10313,"Ġgripu":10314,"Ġmokejau":10315,"ĠBeveik":10316,"andis":10317,"ingiausia":10318,"Ġdaugelio":10319,"Ġplona":10320,"tike":10321,"Ġvertus":10322,"ygos":10323,"Ġsavaip":10324,"ĠRed":10325,"Ġsala":10326,"Ġikel":10327,"Ġ38":10328,"uodama":10329,"uodami":10330,"Ġklausti":10331,"Ġpuseje":10332,"obl":10333,"ĠLietuviu":10334,"Ġpasirup":10335,"Ġpirkeju":10336,"Ġbaltos":10337,"indo":10338,"Ġpaprase":10339,"Ġreikalus":10340,"VMI":10341,"Ġpardavimus":10342,"Ġseriju":10343,"Ġtrupu":10344,"Ġtarpinink":10345,"Ġemail":10346,"Ġsimtus":10347,"Ġregejimas":10348,"Ġpasiseke":10349,"ĠTrump":10350,"Ġkilogr":10351,"Ġkilomet":10352,"Ġuzsakymo":10353,"Ġjura":10354,"Ġplatfor":10355,"Ġdvasias":10356,"Ġparduodant":10357,"ĠAtsimenu":10358,"Ġugio":10359,"Ġpicos":10360,"Ġpapasakojo":10361,"Ġstebeti":10362,"Ġseksu":10363,"Ġvaiduoklis":10364,"Ġpavasaris":10365,"Ġtavimi":10366,"Ġapdovan":10367,"ĠHouse":10368,"Ġskustis":10369,".!":10370,"55":10371,"El":10372,"Sim":10373,"Sen":10374,"dazniausiai":10375,"liais":10376,"Ġtusu":10377,"Ġtuose":10378,"inosi":10379,"Ġnew":10380,"Ġvem":10381,"Ġdede":10382,"Ġdiskr":10383,"Ġbiski":10384,"amn":10385,"eliams":10386,"onald":10387,"eiline":10388,"apas":10389,"illy":10390,"ĠPlius":10391,"ĠAZ":10392,"ĠAle":10393,"umui":10394,"ĠLaur":10395,"inke":10396,"Ġdreg":10397,"Ġkiekiais":10398,"Ġnuskr":10399,"Ġsavininko":10400,"Ġpavyksta":10401,"iskaito":10402,"Ġparduot":10403,"Ġkaledu":10404,"ĠZeme":10405,"Ġvelai":10406,"Ġvaikui":10407,"Ġseni":10408,"Ġdvasi":10409,"oper":10410,"Ġbutybe":10411,"Ġjuose":10412,"Ġmerginai":10413,"Ġatsakingas":10414,"Ġmieli":10415,"Ġwas":10416,"Ġpardavinej":10417,"Ġlygtais":10418,"Ġbendraut":10419,"ugh":10420,"Ġservis":10421,"Ġsudas":10422,"Ġtarpe":10423,"Ġinterneta":10424,"Ġjausmu":10425,"Ġsimpat":10426,"Ġivairias":10427,"Ġmokslas":10428,"Ġtvarkytis":10429,"Ġdetektyv":10430,"Ġaiskina":10431,"Ġvidury":10432,"Ġkredito":10433,"Ġtragedija":10434,"Ġbilie":10435,"ĠPaprastai":10436,"Ġgincytis":10437,"Ġnepadarysi":10438,"Ġsanaudas":10439,"Ġissigandau":10440,"Ġkosmetikos":10441,"Ġisgirdau":10442,"Ġsusizav":10443,"Ġadresu":10444,"Ġtarpusav":10445,".___":10446,"Eur":10447,"NK":10448,"hip":10449,"inanciu":10450,"Ġvok":10451,"Ġdest":10452,"uoga":10453,"Ġispr":10454,"Ġzuik":10455,"Ġtiko":10456,"uzo":10457,"uzia":10458,"ĠTams":10459,"Ġnesidaz":10460,"Ġapels":10461,"tinej":10462,"Ġnoresi":10463,"ĠMet":10464,"ĠVos":10465,"ĠLen":10466,"ybemis":10467,"aikyt":10468,"Ġneparas":10469,"Ġnuper":10470,"Ġkazkieno":10471,"ĠRealiai":10472,"Ġpavar":10473,"iskais":10474,"Ġpakliu":10475,"toriaus":10476,"engiu":10477,"inesiu":10478,"Ġkaled":10479,"iskiai":10480,"ĠZemes":10481,"Ġauka":10482,"Ġpamineti":10483,"uteli":10484,"Ġnedirba":10485,"Ġserv":10486,"Ġsukele":10487,"Ġsudeti":10488,"atsimenu":10489,"Ġpabud":10490,"Ġkituose":10491,"Ġvalgiau":10492,"Ġsveikai":10493,"Ġsedejau":10494,"Ġdomeno":10495,"Ġdomejausi":10496,"Ġived":10497,"ziarag":10498,"ĠJaun":10499,"Ġaukstu":10500,"Ġmokytojos":10501,"Ġdurna":10502,"Ġbrangiai":10503,"Ġkates":10504,"Ġnerealu":10505,"Ġkonkurencija":10506,"Ġtobulas":10507,"Ġkaimyn":10508,"Ġrezultatus":10509,"Ġminute":10510,"Ġpamirsti":10511,"Ġdirektoriu":10512,"Ġkredit":10513,"Ġpasimat":10514,"Ġnemalon":10515,"Ġprezidentas":10516,"Ġorient":10517,"(:":10518,"73":10519,"Kom":10520,"LA":10521,"MB":10522,"bes":10523,"did":10524,"ebu":10525,"ment":10526,"noze":10527,"oh":10528,"Ġmmm":10529,"orija":10530,"akuoju":10531,"ojoje":10532,"omybes":10533,"Ġgalios":10534,"iop":10535,"iles":10536,"emi":10537,"emos":10538,"Ġpaeme":10539,"ĠSake":10540,"Ġpatenka":10541,"Ġturejai":10542,"Ġkariu":10543,"ybas":10544,"Ġmetalo":10545,"Ġprasyti":10546,"eide":10547,"sion":10548,"Ġislieka":10549,"ĠHol":10550,"Ġformas":10551,"iskuma":10552,"Ġnegird":10553,"Ġvalgai":10554,"Ġklienta":10555,"Ġrealu":10556,"Ġ10000":10557,"prasm":10558,"Ġrankom":10559,"Ġvadinamas":10560,"Ġnaudojant":10561,"Ġspecialistu":10562,"Ġdraudimu":10563,"Ġisrysk":10564,"ĠVilnius":10565,"Ġstori":10566,"pardavimo":10567,"Ġgimtadienio":10568,"Ġdieta":10569,"ĠLaba":10570,"Ġsistemoje":10571,"Ġminusa":10572,"Ġkapitalas":10573,"Ġraudoni":10574,"iavimo":10575,"Ġnepriklausomai":10576,"ĠKinija":10577,"Ġriesu":10578,"Ġaukstakulnius":10579,"Ġmaudytis":10580,"Ġsusikurti":10581,"Ġtatuiruotes":10582,"Ġpasiemiau":10583,"Ġliaud":10584,"rofl":10585,"ydziu":10586,"ðŁ":10587,"Ġnic":10588,"into":10589,"iranda":10590,"Ġministr":10591,"Ġvykti":10592,"Ġdetis":10593,"Ġribu":10594,"Ġleistu":10595,"Ġisimin":10596,"aver":10597,"Ġbute":10598,"ĠNaud":10599,"Ġdarant":10600,"ĠAA":10601,"ĠSF":10602,"Ġgruodzio":10603,"ĠIg":10604,"ĠVeik":10605,"Ġnetaip":10606,"uojanti":10607,"Ġgyvai":10608,"epu":10609,"Ġinai":10610,"Ġintrig":10611,"Ġimt":10612,"Ġpavardes":10613,"Ġpriez":10614,"ĠAsht":10615,"ĠAstra":10616,"ĠCSI":10617,"tory":10618,"atiks":10619,"Ġdraugiu":10620,"Ġtarkime":10621,"Ġprisikab":10622,"Ġkazkokiam":10623,"Ġteisybe":10624,"eiskite":10625,"ocij":10626,"Ġbevil":10627,"Ġtamsu":10628,"Ġreiksme":10629,"Ġketuri":10630,"Ġjauciuos":10631,"Ġlaimejo":10632,"Ġ198":10633,"Ġisrad":10634,"Ġsaldytuv":10635,"Ġmastyti":10636,"Ġstengtis":10637,"Ġstebi":10638,"ĠAngel":10639,"Ġblakstienu":10640,"Ġvegetare":10641,"Daugiau":10642,"Ġzvilgsnis":10643,"Ġpriskirti":10644,"Ġsuvokti":10645,"Ġmarketingo":10646,"Idomu":10647,"Ġseimininkes":10648,"Ġnerupi":10649,"PA":10650,"gl":10651,"sia":10652,"ygi":10653,"zdziai":10654,"auku":10655,"Ġsauk":10656,"Ġvyk":10657,"atais":10658,"urs":10659,"Ġraus":10660,"Ġiseitu":10661,"Ġvista":10662,"Ġbuciu":10663,"ĠNesioju":10664,"Ġdark":10665,"Ġkurj":10666,"ĠDia":10667,"ĠDog":10668,"tiniam":10669,"Ġturintys":10670,"Ġkaras":10671,"ĠOk":10672,"ĠOl":10673,"ĠOz":10674,"Ġkitoj":10675,"Ġnepab":10676,"Ġnunes":10677,"Ġsavoka":10678,"Ġidejo":10679,"Ġmazmen":10680,"Ġtiekejas":10681,"udas":10682,"tore":10683,"ecial":10684,"tarkim":10685,"Ġnelyg":10686,"Ġvaryt":10687,"Ġisleisti":10688,"amosios":10689,"Ġnegavau":10690,"ĠWe":10691,"Ġpagim":10692,"Ġfaktiskai":10693,"inksmas":10694,"Galima":10695,"Ġtemoj":10696,"Ġdokumentais":10697,"Ġsugadin":10698,"Ġmiegojau":10699,"Ġsuvaid":10700,"Ġgarsus":10701,"Ġsaldus":10702,"Ġgyvunus":10703,"Ġrizikos":10704,"Chuckas":10705,"Ġlemia":10706,"Ġsvelniai":10707,"Ġatvirai":10708,"Ġpasibaigus":10709,"ĠNekenciu":10710,"Ġniuans":10711,"Ġapyranke":10712,"Ġspinduliu":10713,"ĠVyriaus":10714,"ĠBaisu":10715,"Ġtinklalap":10716,"Ġperskaicius":10717,"ĠSiulau":10718,"Ġdividend":10719,".[":10720,"44":10721,":[":10722,";)":10723,"Darb":10724,"Nera":10725,"Pag":10726,"Tavo":10727,"VSD":10728,"merg":10729,"nev":10730,"reikia":10731,"Ġsoka":10732,"inesi":10733,"Ġnetiks":10734,"Ġmig":10735,"Ġvyks":10736,"Ġbest":10737,"ikietis":10738,"enec":10739,"Ġretas":10740,"omobil":10741,"ĠNot":10742,"ĠMich":10743,"Ġgeresnes":10744,"Ġkitame":10745,"ezti":10746,"Ġkiekio":10747,"Ġnebem":10748,"Ġkelniu":10749,"Ġdabartine":10750,"ange":10751,"Ġvaikais":10752,"ematikos":10753,"Ġdvyl":10754,"Ġasmenines":10755,"ĠNorint":10756,"vert":10757,"Ġneisv":10758,"siun":10759,"Ġbendravimas":10760,"lub":10761,"uolat":10762,"Ġpatikti":10763,"Ġdokumento":10764,"Ġpatarimai":10765,"Ġregistruotas":10766,"Ġneblogi":10767,"Ġreiksti":10768,"Ġvadovauj":10769,"tadienis":10770,"auksi":10771,"Ġvaistus":10772,"Ġtuso":10773,"Ġkodu":10774,"Ġteksta":10775,"Ġsijonas":10776,"Ġlaido":10777,"Ġfotos":10778,"Ġliudijimu":10779,"Ġopoz":10780,"Ġliepos":10781,"Ġteigti":10782,"ĠVilniuj":10783,"Ġjuridinis":10784,"Ġsusitikti":10785,"iatoriu":10786,"Ġvisuomene":10787,"Ġfiguros":10788,"ĠApskritai":10789,"ĠPamenu":10790,"Ġuzkniso":10791,"Ġpudros":10792,"Ġbankrut":10793,"++":10794,".:)":10795,"Nen":10796,"naud":10797,"rad":10798,"Ġpais":10799,"Ġpoju":10800,"Ġkers":10801,"Ġveda":10802,"Ġdul":10803,"usiais":10804,"ikiur":10805,"Ġlanks":10806,"Ġisit":10807,"ejimui":10808,"omg":10809,"Ġvisomis":10810,"Ġviskuo":10811,"Ġipro":10812,"ileris":10813,"ĠTwilight":10814,"ĠKokius":10815,"ĠSkir":10816,"ĠSaun":10817,"Ġskalb":10818,"aikes":10819,"ulys":10820,"Ġnepaj":10821,"Ġtrenk":10822,"Ġpapu":10823,"Ġkompas":10824,"Ġnegaletu":10825,"Ġvietomis":10826,"Ġhob":10827,"Ġplaunu":10828,"Ġpaprasto":10829,"antiska":10830,"Mane":10831,"Ġtokiomis":10832,"Ġeitu":10833,"Ġnuosirdziai":10834,"Ġnesupranti":10835,"Ġtemas":10836,"Ġfilmuose":10837,"Ġpateikimo":10838,"Ġsvaru":10839,"Ġsimb":10840,"Ġneatsak":10841,"Ġakcininkas":10842,"Ġstovejo":10843,"Ġveza":10844,"Ġpranesti":10845,"Ġstoros":10846,"Ġdvasiu":10847,"Ant":10848,"Ġreink":10849,"Ġnedarau":10850,"Ġkonkret":10851,"Ġgavus":10852,"Ġnuostabu":10853,"Ġjuda":10854,"Ġagur":10855,"Ġmilijonu":10856,"Ġligonines":10857,"Ġpaslapting":10858,"Ġkieta":10859,"Ġispudis":10860,"Ġsokolad":10861,"noreciau":10862,"Ġdezute":10863,"ĠPagaliau":10864,"Ġpunktas":10865,"Ġuzregistruoti":10866,"Ġdangaus":10867,"Ġbreketus":10868,"Ġdiskusija":10869,"Ġatsikratyti":10870,"Klausimas":10871,"Ġnebebus":10872,"Ġlempos":10873,"Ġpasiteirauti":10874,"GPM":10875,"fa":10876,"noriu":10877,"pinig":10878,"palv":10879,"work":10880,"âĻ":10881,"incio":10882,"iecius":10883,"Ġdaig":10884,"usiems":10885,"atoje":10886,"ades":10887,"Ġsuj":10888,"aval":10889,"Ġpasiti":10890,"ĠTave":10891,"ĠTokios":10892,"Ġdarysi":10893,"ĠKat":10894,"ĠSiek":10895,"kutes":10896,"Ġcepel":10897,"Ġjauti":10898,"Ġgras":10899,"Ġgrub":10900,"ĠBo":10901,"Ġtrunka":10902,"Ġtenk":10903,"Ġsavininkai":10904,"Ġ;)":10905,"ynuose":10906,"Ġpusry":10907,"Ġpamokos":10908,"liuz":10909,"liuka":10910,"ĠUkr":10911,"Ġatvejai":10912,"ĠArb":10913,"Ġpajeg":10914,"Ġnesuv":10915,"Ġkurioms":10916,"apnuoju":10917,"Ġnekalb":10918,"ardo":10919,"Ġlaikyt":10920,"Ġlaikomas":10921,"Ġsukaup":10922,"Ġmedaus":10923,"Ġeilute":10924,"Ġgreita":10925,"Ġgimiau":10926,"Ġivykd":10927,"Ġpritar":10928,"Ġbuhalterijos":10929,"Ġpasislep":10930,"Ġkilti":10931,"Ġnuostabi":10932,"Ġmisko":10933,"AND":10934,"Ġprogramavimo":10935,"Ġautobus":10936,"Ġnukent":10937,"Ġpranesima":10938,"Ġsekso":10939,"Ġpabaigoj":10940,"ĠPradejau":10941,"Ġstebet":10942,"Ġkontaktus":10943,"Ġpaskirti":10944,"ĠDrauge":10945,"Ġtakelis":10946,"Ġkisen":10947,"Ġjumis":10948,"iklin":10949,"Ġissitrauk":10950,"Ġreputa":10951,"Ġvonia":10952,"Ġsorry":10953,"Qua":10954,"Ġkalendor":10955,"Ġgudr":10956,"Ġnarkotiku":10957,"Ġtabletes":10958,"?...":10959,"Kita":10960,"Pras":10961,"Vaid":10962,"jaus":10963,"out":10964,"pil":10965,"Ġsild":10966,"Ġsoc":10967,"iega":10968,"iuju":10969,"Ġnekain":10970,"urod":10971,"uociu":10972,"Ġlob":10973,"Ġlazd":10974,"Ġister":10975,"eiktu":10976,"Ġviskam":10977,"uzd":10978,"uze":10979,"ĠTegul":10980,"ĠTAIP":10981,"augo":10982,"ĠPasi":10983,"ĠAbu":10984,"ĠMin":10985,"edes":10986,"Ġskard":10987,"ipus":10988,"Ġtriuks":10989,"Ġsvenciu":10990,"Ġzinomas":10991,"Ġprievar":10992,"Ġziuredama":10993,"varko":10994,"Ġmete":10995,"Ġpapr":10996,"Ġklause":10997,"Ġaut":10998,"Ġskaiciaus":10999,"Ġmeno":11000,"Ġkamp":11001,"kadangi":11002,"Ġsuns":11003,"ĠPro":11004,"ĠVisus":11005,"Ġbalsu":11006,"Ġvaikinams":11007,"vers":11008,"Ġilgam":11009,"Ġpersek":11010,"ĠWill":11011,"ĠTurk":11012,"Ġvasarai":11013,"Ġvasario":11014,"Ġbijoti":11015,"Ġ1500":11016,"Ġsnd":11017,"Ġispild":11018,"Ġsvarbiau":11019,"Ġbuhalteris":11020,"tadieni":11021,"Ġsiaubingai":11022,"Ġsoda":11023,"Ġbelieka":11024,"Ġzaidima":11025,"Ġsijona":11026,"Ġmuta":11027,"Ġdetaliu":11028,"Ġprekiauj":11029,"Ġnedideli":11030,"Ġkontrol":11031,"Ġuzdarbio":11032,"Ġlaikrodis":11033,"Butu":11034,"Ġisbandyti":11035,"Ġkova":11036,"ĠTarp":11037,"Ġnosis":11038,"Ġdovanas":11039,"ĠLenkijos":11040,"Ġpoveikis":11041,"aziavom":11042,"Ġpasiimt":11043,"Ġarteja":11044,"Ġpritraukti":11045,"ĠVienintelis":11046,"Ġsusinerv":11047,"Ġreguliariai":11048,"RU":11049,"fas":11050,"ham":11051,"ye":11052,"Ġkuk":11053,"Ġson":11054,"inukus":11055,"Ġmiske":11056,"Ġdug":11057,"ela":11058,"Ġlie":11059,"Ġlev":11060,"Ġtiketina":11061,"ĠTop":11062,"Ġnesidom":11063,"emas":11064,"Ġpatekti":11065,"ĠMor":11066,"ĠMars":11067,"ingesnis":11068,"Ġatsiv":11069,"ĠGirdejau":11070,"intus":11071,"acia":11072,"Ġzmonos":11073,"oviau":11074,"Ġzinutes":11075,"ican":11076,"Ġmazesnes":11077,"Ġmetru":11078,"tatyti":11079,"Ġsalt":11080,"Ġpasakytu":11081,"ejuok":11082,"Ġbrit":11083,"Ġaiski":11084,"Ġsaun":11085,"Ġnekon":11086,"Ġafr":11087,"Ġmasinu":11088,"ievuzia":11089,"Ġisgasd":11090,"Ġregistruota":11091,"Ġplanetos":11092,"Ġbegi":11093,"Ġsiunta":11094,"Ġneatsi":11095,"Ġtereikia":11096,"ĠChuckas":11097,"Ġpridet":11098,"Ġpabandysiu":11099,"Ġskun":11100,"Ġminimaliai":11101,"Ġposak":11102,"ografija":11103,"ĠEuropoje":11104,"Ġpasirodyti":11105,"Ġdaktaras":11106,"Ġtyli":11107,"Ġraudonos":11108,"Ġpripazinti":11109,"Ġkopij":11110,"ĠZiauru":11111,"Ġsulaukti":11112,"Ġverkia":11113,"Ġbirzelio":11114,"Ġsavivaldybes":11115,"Ġprancuzu":11116,"ĠPasirodo":11117,"RRRR":11118,"Ġkonvencija":11119,"Ġvizualiz":11120,"Ġvaidenasi":11121,"BA":11122,"BE":11123,"Mama":11124,"Toliau":11125,"],":11126,"ned":11127,"nera":11128,"pek":11129,"vat":11130,"asy":11131,"Ġkot":11132,"Ġkone":11133,"islaid":11134,"incius":11135,"Ġmur":11136,"Ġmol":11137,"Ġmechan":11138,"Ġvazin":11139,"osp":11140,"amiesi":11141,"iauk":11142,"Ġlaisk":11143,"Ġliter":11144,"Ġvist":11145,"odr":11146,"Ġasar":11147,"ĠVistiek":11148,"Ġdaugeliui":11149,"ipe":11150,"Ġnepaisant":11151,"Ġnutinka":11152,"Ġesanciu":11153,"Ġpakei":11154,"Ġpapai":11155,"iness":11156,"Ġkalor":11157,"Ġpasakau":11158,"Ġpusses":11159,"Ġnegales":11160,"Ġpaleisti":11161,"ope":11162,"indamas":11163,"valaik":11164,"turbut":11165,"Ġprocentai":11166,"Ġveidu":11167,"Ġbanku":11168,"Ġsiluma":11169,"ĠSupratau":11170,"Ġstraipsnyje":11171,"Ġpaklausa":11172,"Ġivaizd":11173,"Ġtamsoje":11174,"Ġismokt":11175,"Ġpagrindas":11176,"Ġ120":11177,"Ġfiziniu":11178,"Ġtelika":11179,"Ġkambariu":11180,"Ġvaizdo":11181,"Ġparodyt":11182,"Ġakcininku":11183,"Ġekstras":11184,"Ġlinke":11185,"Ġviduri":11186,"Ġatsikeliu":11187,"Ġateity":11188,"Ġzaizd":11189,"Ġapkal":11190,"Ġinvesticija":11191,"iavimas":11192,"Ġsugalvoti":11193,"Mokes":11194,"Ġjaponu":11195,"Ġnebandziau":11196,"lament":11197,"Ġnepilnametis":11198,"Ġdepresija":11199,"Ġgitara":11200,"ĠAshtray":11201,"08":11202,"Vat":11203,"lum":11204,"neg":11205,"papras":11206,"aiz":11207,"Ġteb":11208,"Ġneisk":11209,"Ġbangos":11210,"elg":11211,"ojusi":11212,"Ġzala":11213,"Ġpasp":11214,"raA":11215,"odis":11216,"Ġdarys":11217,"...?":11218,"ĠPAR":11219,"ĠAti":11220,"ĠDeiv":11221,"Ġgriau":11222,"Ġparekomend":11223,"ĠLink":11224,"yvus":11225,"ĠGyventi":11226,"aikys":11227,"ulti":11228,"Ġpaver":11229,"Ġpradek":11230,"Ġuzsiras":11231,"Ġtiekejus":11232,"Ġapsiv":11233,"Ġmenas":11234,"Ġpriesingai":11235,"Ġana":11236,"Ġalb":11237,"Ġsaukst":11238,"Ġaer":11239,"Ġpardavimai":11240,"anciuju":11241,"Ġpraeis":11242,"Ġpamatai":11243,"Ġdomintu":11244,"Ġpasikar":11245,"Ġskaiciuokle":11246,"Ġaukscio":11247,"Ġivairus":11248,"Ġsiuncia":11249,"Ġmokslu":11250,"Ġ2018":11251,"Ġpagalvok":11252,"Ġdraudima":11253,"ĠPatik":11254,"ĠPaypal":11255,"Ġlogoti":11256,"Ġlogikos":11257,"Ġmastymas":11258,"Ġsprendimo":11259,"Ġkompiuteri":11260,"Ġdetales":11261,"Ġetato":11262,"Ġkaukiu":11263,"Ġpravarde":11264,"Ġukio":11265,"Ġvaikinui":11266,"Ġpervez":11267,"geriau":11268,"itanikas":11269,"Ġgamintojo":11270,"Ġlango":11271,"Ġzaisti":11272,"Ġkeliauja":11273,"otoshop":11274,"ekomenduoju":11275,"Ġapacia":11276,"Ġterminas":11277,"Ġteatre":11278,"99999999":11279,"Ġnusidev":11280,"Ġneegzistuoja":11281,"ĠOMG":11282,"02":11283,"48":11284,"RE":11285,"Zanras":11286,"geras":11287,"ocia":11288,"ren":11289,"ron":11290,"sav":11291,"ycios":11292,"Ġpienu":11293,"Ġkeiks":11294,"Ġsag":11295,"inamai":11296,"alt":11297,"ikliu":11298,"Ġgu":11299,"Ġgejus":11300,"etau":11301,"enom":11302,"orator":11303,"Ġzole":11304,"ogai":11305,"Ġatstum":11306,"Ġkokiai":11307,"Ġklij":11308,"inkau":11309,"Ġims":11310,"Ġpaveiks":11311,"ĠEina":11312,"Ġpakeite":11313,"Ġapsil":11314,"Ġkaltin":11315,"ainius":11316,"Ġpusl":11317,"Ġteisingas":11318,"Ġasmenis":11319,"Ġdienoras":11320,"Ġwow":11321,"ĠPasaul":11322,"turos":11323,"Ġlietuvis":11324,"Ġnegaila":11325,"Ġpaskat":11326,"Ġnusipirksiu":11327,"Ġinternetas":11328,"Ġtinkam":11329,"Ġsimtu":11330,"Ġprogramos":11331,"Ġrusis":11332,"Ġramus":11333,"Ġprasides":11334,"Ġbernas":11335,"ĠZiurint":11336,"Ġgavos":11337,"Ġkaimynu":11338,"Ġmilijonus":11339,"Ġzudo":11340,"Ġapsauga":11341,"Ġlauko":11342,"Ġstikline":11343,"Ġekonomika":11344,"Ġnesiruosiu":11345,"Ġzvilgsnio":11346,"Zmogus":11347,"Ġfrom":11348,"Ġiprasta":11349,"Ġidarbinti":11350,"Ġiseitis":11351,"Ġdruska":11352,"Ġpasizym":11353,"Ġdzemper":11354,".''":11355,"47":11356,"St":11357,"fiks":11358,"nz":11359,"Ġeti":11360,"Ġejom":11361,"Ġti":11362,"Ġtera":11363,"Ġkinu":11364,"iny":11365,"ancija":11366,"Ġnevai":11367,"Ġrusi":11368,"Ġliet":11369,"Ġzada":11370,"Ġpasisteng":11371,"ĠNPD":11372,"idus":11373,"Ġuzkl":11374,"ĠPC":11375,"ĠSand":11376,"ĠDem":11377,"Ġft":11378,"Ġnorejai":11379,"Ġce":11380,"ĠJon":11381,"ĠVAT":11382,"ĠLiu":11383,"Ġkarst":11384,"Ġklied":11385,"Ġnusisku":11386,"Ġzinojo":11387,"Ġpadaug":11388,"Ġkelti":11389,"Ġzmogelis":11390,"mens":11391,"Ġnemel":11392,"Ġmetine":11393,"Ġmetines":11394,"otiz":11395,"irsiu":11396,"Ġprisiz":11397,"Ġidomios":11398,"ters":11399,"Ġnaujiena":11400,"Ġbudo":11401,"Ġinterv":11402,"asaris":11403,"Ġbandyk":11404,"Ġbendrauja":11405,"Ġprivalai":11406,"Ġkompet":11407,"Ġjuodus":11408,"Ġeuro":11409,"Ġtapat":11410,"ituacija":11411,"html":11412,"Ġnesiojau":11413,"ganiz":11414,"Ġgreiciu":11415,"Ġaukstas":11416,"Ġ.....":11417,"Ġkiekvienai":11418,"Ġ2015":11419,"Ġvaizduote":11420,"Ġlinksmai":11421,"Ġsesuo":11422,"Ġorganizmo":11423,"ĠChuc":11424,"Ġdrabuziais":11425,"atoriaus":11426,"arkime":11427,"Anksciau":11428,"Ġfirmu":11429,"Ġdziaugiuos":11430,"velgiant":11431,"Ġpraleisti":11432,"Ġpatalpos":11433,"Ġpripratau":11434,"Ġrubais":11435,"Ġokup":11436,"Ġmegstamiausiu":11437,"Ġkapitala":11438,"ather":11439,"Ġpartneriu":11440,"Ġvartotoju":11441,"iolikos":11442,"OJE":11443,"Ġduonos":11444,"Ġprisijungti":11445,"ĠGalvoju":11446,"Ġkomedijos":11447,"OVID":11448,"Ġbunant":11449,"Ġgerkle":11450,"pjucio":11451,"NR":11452,"aju":11453,"bank":11454,"ciniu":11455,"lij":11456,"mil":11457,"pm":11458,"vin":11459,"ven":11460,"zus":11461,"Ġpiz":11462,"Ġpsl":11463,"Ġkios":11464,"Ġnick":11465,"arant":11466,"alina":11467,"etinu":11468,"Ġloter":11469,"Ġatpaz":11470,"ĠTom":11471,"ĠTina":11472,"...>":11473,"ĠAug":11474,"ĠSup":11475,"ĠSunku":11476,"Ġpateikia":11477,"Ġpateko":11478,"Ġnoris":11479,"Ġperio":11480,"Ġjaud":11481,"uosite":11482,"Ġkartoj":11483,"aude":11484,"Ġsusk":11485,"Ġnueina":11486,"Ġnebek":11487,"Ġmazyte":11488,"ĠCr":11489,"ĠCon":11490,"Ġpakeist":11491,"Ġmatei":11492,"Ġneleis":11493,"Ġblyn":11494,"Ġpirkimu":11495,"ĠVisas":11496,"Ġreikala":11497,"Ġabiem":11498,"Ġsukel":11499,"adieniais":11500,"Ġnumeriu":11501,"ĠSuprantu":11502,"Ġdomin":11503,"Ġmokslus":11504,"Ġpaima":11505,"astys":11506,"Ġneapyk":11507,"Ġdainuoja":11508,"Ġbaigi":11509,"Ġtecio":11510,"Ġirodymu":11511,"ightless":11512,"Ġnusprend":11513,"Ġgulejau":11514,"Ġaprasyma":11515,"Ġuzsimaniau":11516,"IMAS":11517,"Ġisitikines":11518,"aaaaaaaa":11519,"Ġsuzavejo":11520,"________________________________":11521,"Ġtiksla":11522,"Ġapyrankes":11523,"ĠPrancuzija":11524,"Ġnesitikejau":11525,"Baltas":11526,"Ġelementar":11527,"Ġpareigas":11528,"paslaugu":11529,"43":11530,"Kit":11531,"sime":11532,"Ġsto":11533,"inejimas":11534,"ireng":11535,"arp":11536,"Ġdant":11537,"iktat":11538,"Ġgavimo":11539,"adint":11540,"tup":11541,"Ġnesun":11542,"Ġfun":11543,"ytoju":11544,"iausiais":11545,"ykes":11546,"uosti":11547,"ĠOn":11548,"ybine":11549,"iamo":11550,"ĠRyt":11551,"Ġjisai":11552,"iskaiciau":11553,"zinoma":11554,"Ġpakel":11555,"engva":11556,"echn":11557,"Ġaiskiau":11558,"idaro":11559,"Ġsmilk":11560,"Ġislaidoms":11561,"ĠWhat":11562,"Ġbijot":11563,"Ġreklamu":11564,"Ġvaidino":11565,"Ġpamatysi":11566,"Ġdomena":11567,"Ġpasikeis":11568,"Ġbegu":11569,"Ġsimta":11570,"__________":11571,"Ġpoliklin":11572,"Ġseses":11573,"Ġsesers":11574,"Ġnulis":11575,"Ġatskirti":11576,"Ġsijonus":11577,"Ġkosmarus":11578,"Ġpiesti":11579,"Ġkorid":11580,"Ġ;}}":11581,"Ġtukstancius":11582,"kaiciuoti":11583,"ANT":11584,"Ġpazymejimo":11585,"ĠKazkoks":11586,"Ġkineze":11587,"Ġpasitikr":11588,"Ġpasitiketi":11589,"Ġpapasakot":11590,"Ġpastate":11591,"Ġzaidzia":11592,"Ġkompleksu":11593,"ĠGrazus":11594,"Ġpikta":11595,"ĠDidz":11596,"Ġiskryp":11597,"Ġatstovas":11598,"ĠAvon":11599,"Ġnutraukti":11600,"Ġbaznycia":11601,"Ġcigaretes":11602,"Ġinkariu":11603,".____________":11604,"Il":11605,"RK":11606,"Str":11607,"Sun":11608,"fin":11609,"hu":11610,"mar":11611,"nk":11612,"toja":11613,"Ġpeti":11614,"ani":11615,"Ġneting":11616,"aliniu":11617,"Ġbiciu":11618,"erd":11619,"etvir":11620,"iakas":11621,"Ġprap":11622,"oreks":11623,"avimus":11624,"Ġpasib":11625,"Ġvisoms":11626,"Ġgala":11627,"ĠAuks":11628,"ĠAQua":11629,"ĠSer":11630,"iger":11631,"ĠGirl":11632,"ulg":11633,"Ġnufilm":11634,"unt":11635,"Ġdelfi":11636,"Ġakcijos":11637,"Ġspak":11638,"Ġspek":11639,"endo":11640,"Ġkreiv":11641,"Ġpriesais":11642,"omisi":11643,"Ġhmm":11644,"Ġpalengv":11645,"Ġnaujam":11646,"emaciau":11647,"Ġreikalai":11648,"yzuole":11649,"Ġkalbam":11650,"Ġnaktimis":11651,"Ġisgyventi":11652,"jaut":11653,"Ġmiestu":11654,"Ġbegant":11655,"Ġ2017":11656,"Ġkapines":11657,"eiviai":11658,"Ġkatinas":11659,"Ġlaimingi":11660,"merk":11661,"Ġsvetainiu":11662,"Ġdesr":11663,"Ġlovoje":11664,"Ġposta":11665,"Ġaukstyn":11666,"Ġragana":11667,"Ġvilk":11668,"Ġdevetu":11669,"Ġkompleksuoju":11670,"Ġtaisykliu":11671,"Ġjuridinio":11672,"Ġkremu":11673,"ĠBaltarus":11674,"Ġdedasi":11675,"Ġuzmigt":11676,"Ġtechnologijos":11677,"Ġataskaita":11678,"Ġneatitinka":11679,"Ġprilyg":11680,"Ġapklausa":11681,"Ġaplankyti":11682,"Ġpriverte":11683,"Ġtrumpas":11684,"kelnes":11685,"Ġatsiunte":11686,"Ġprigimties":11687,"Ġiforminti":11688,"Ġnesiskundziu":11689,")-":11690,"Band":11691,"Bec":11692,"Ras":11693,"Viln":11694,"cr":11695,"dos":11696,"nie":11697,"tele":11698,"aile":11699,"Ġkek":11700,"Ġsos":11701,"arl":11702,"Ġmisku":11703,"okti":11704,"amina":11705,"Ġlen":11706,"aktyv":11707,"ojat":11708,"Ġpasam":11709,"Ġvisuose":11710,"Ġgalimai":11711,"ĠToliau":11712,"Ġnesijau":11713,"ĠPh":11714,"ĠPAT":11715,"ĠKvai":11716,"ĠKAIP":11717,"ĠDAR":11718,"tinta":11719,"Ġcip":11720,"Ġgriu":11721,"Ġgrieb":11722,"ciuose":11723,"ĠBas":11724,"buna":11725,"Ġkitom":11726,"Ġkitokio":11727,"Ġnepatiks":11728,"dziais":11729,"dziasi":11730,"Ġdrak":11731,"Ġsakei":11732,"Ġnebev":11733,"evicius":11734,"Ġkalej":11735,"ĠZM":11736,"eidi":11737,"Ġbalu":11738,"Ġmerginoms":11739,"Ġreikalavimu":11740,"Ġatsakys":11741,"Ġminks":11742,"Ġilgesni":11743,"Ġtokioje":11744,"Ġlaikys":11745,"Ġsukelti":11746,"Ġkainuotu":11747,"Ġpabendr":11748,"entui":11749,"Ġsiap":11750,"199":11751,"Ġisklaus":11752,"Ġstatybos":11753,"Ġskiepo":11754,"Ġspecialistai":11755,"Ġkambarys":11756,"Ġkonkreciu":11757,")))":11758,"Ġnukryp":11759,"Ġsugebejo":11760,"Ġsalygomis":11761,"Ġleidimo":11762,"Ġprekiauja":11763,"Ġlaikotarpio":11764,"kazkaip":11765,"Ġisbandyt":11766,"Ġtranspor":11767,"Ġkaupimo":11768,"Ġpopuliarus":11769,"ĠNenoriu":11770,"Lietuvos":11771,"ĠEnerg":11772,"Ġamziuje":11773,"Ġsusitvarkyti":11774,"Ġaliejaus":11775,"Ġprocedura":11776,"Ġdropshipp":11777,"Ġtelekineze":11778,"ĠSturgelis":11779,"Ġreikmems":11780,"Ġpasitiksl":11781,";*":11782,"Dirb":11783,"Fr":11784,"GAL":11785,"Nauj":11786,"Vel":11787,"YV":11788,"lab":11789,"ruk":11790,"zz":11791,"~~":11792,"Ġ00":11793,"Ġpien":11794,"inamp":11795,"ieciams":11796,"Ġneinu":11797,"Ġbor":11798,"atch":11799,"Ġmanikiur":11800,"odziai":11801,"Ġnesimok":11802,"emu":11803,"ĠAV":11804,"ĠSiais":11805,"ĠSaskai":11806,"Ġout":11807,"ĠMyl":11808,"umoje":11809,"edau":11810,"Ġgerimu":11811,"ĠBud":11812,"ĠBET":11813,"ĠVaid":11814,"ĠGER":11815,"Ġklon":11816,"Ġnepanas":11817,"Ġvertina":11818,"Ġsavybiu":11819,"Ġkelnem":11820,"Ġpradejus":11821,"Ġuzsiimu":11822,"Ġpazas":11823,"Ġdideliais":11824,"Ġsalu":11825,"atija":11826,"Ġ39":11827,"Ġpasakai":11828,"ainai":11829,"Ġsitus":11830,"eidimas":11831,"ĠHitl":11832,"Ġlaborator":11833,"Ġplaut":11834,"inda":11835,"ajai":11836,"Ġminusu":11837,"malu":11838,"Ġparasa":11839,"Ġkvies":11840,"Ġnegyven":11841,"Ġtruputeli":11842,"Ġ75":11843,"Ġmaistu":11844,"ziurejau":11845,"ĠAtsiprasau":11846,"Ġsviesia":11847,"Ġgirdi":11848,"Ġbegyje":11849,"Ġistatyme":11850,"Ġpaiesk":11851,"Ġiskyla":11852,"Ġzurnalas":11853,"Ġaplinkiniu":11854,"Ġkodeks":11855,"Ġisdest":11856,"Ġkompiuteris":11857,"Ġsusimoket":11858,"Ġscena":11859,"Ġlinijos":11860,"kazkas":11861,"que":11862,"Ġauskarai":11863,"Ġsportba":11864,"Ġnepriklauso":11865,"Ġvertybes":11866,"Turbut":11867,"Ġidegio":11868,"Ġpadovanojo":11869,"Ġjegos":11870,"Nebent":11871,"ĠTeisingai":11872,"Ġnelaime":11873,"Ġnejuokinga":11874,"Ġsekundes":11875,"Ġadministra":11876,":}":11877,"OP":11878,"RM":11879,"Th":11880,"ble":11881,"gt":11882,"ior":11883,"kv":11884,"pats":11885,"aub":11886,"aukai":11887,"iro":11888,"aris":11889,"albet":11890,"Ġdomisi":11891,"Ġbon":11892,"esis":11893,"uoc":11894,"itis":11895,"oda":11896,"ilis":11897,"Ġuzima":11898,"ĠPab":11899,"ysera":11900,"Ġasocij":11901,"Ġcool":11902,"Ġmokosi":11903,"ĠJas":11904,"ĠVarg":11905,"ĠLa":11906,"ĠLauk":11907,"Ġploks":11908,"Ġkitomis":11909,"Ġtrol":11910,"tikau":11911,"tuva":11912,"slininkai":11913,"Ġinval":11914,"Ġsakys":11915,"Ġpaneig":11916,"Ġpavel":11917,"ankos":11918,"Ġpagalvot":11919,"Ġskaito":11920,"Ġgautusi":11921,"Ġbroli":11922,"indavau":11923,"Ġoru":11924,"Ġ2019":11925,"Ġsapno":11926,"ĠAndr":11927,"Ġjuokingu":11928,"ney":11929,"Ġfake":11930,"Ġnarius":11931,"Ġpagrindines":11932,"Ġruduo":11933,"Ġstatyti":11934,"Ġjaunimas":11935,"Ġavon":11936,"Ġskiepyti":11937,"Ġausu":11938,"Ġneatrod":11939,"Ġzaidimo":11940,"Ġzaidimai":11941,"Ġnereali":11942,"Ġvariantai":11943,"601":11944,"Ġligonineje":11945,"308":11946,"Ġpravers":11947,"Ġpasitikejimo":11948,"Ġkietai":11949,"Ġskausma":11950,"Ġliepia":11951,"Ġprincipa":11952,"Ġkiaules":11953,"Ġsokolada":11954,"Ġreiskias":11955,"Ġdaktare":11956,"Ġzaist":11957,"Ġteoriskai":11958,"Ġsmulkiu":11959,"iolika":11960,"Ġapacioj":11961,"ĠPaklaus":11962,"Ġpavojinga":11963,"!!!!!!!!!!!!!!!!":11964,"Ġatkreipti":11965,"Ġsasiuv":11966,"Ġfreelanc":11967,"Ġnevirsija":11968,"ajungos":11969,"ĠDepp":11970,"Ġmatematika":11971,"Ġartimuju":11972,"Ġdream":11973,"ĠDavid":11974,"Atr":11975,"BU":11976,"Ech":11977,"Kam":11978,"kokiu":11979,"pj":11980,"Ġpx":11981,"Ġsokiu":11982,"iuje":11983,"ansl":11984,"imt":11985,"Ġprib":11986,"oreg":11987,"ojanti":11988,"Ġzand":11989,"Ġzver":11990,"omes":11991,"Ġpasod":11992,"Ġpasiel":11993,"aisyti":11994,"ĠTi":11995,"ĠPoteris":11996,"Ġkurimo":11997,"ĠDes":11998,"Ġpatars":11999,"edziu":12000,"Ġpereiti":12001,"Ġjaunu":12002,"kov":12003,"igand":12004,"ĠVid":12005,"Ġ:<":12006,"ipti":12007,"iamai":12008,"ungi":12009,"ĠRom":12010,"Ġuzsit":12011,"Ġkruo":12012,"yrai":12013,"Ġdideja":12014,"Ġprisil":12015,"kurs":12016,"eidavo":12017,"ĠFiz":12018,"Ġteismo":12019,"Ġreikalui":12020,"Ġnekiln":12021,"Ġblogi":12022,"Ġ2020":12023,"Ġziauri":12024,"turi":12025,"Ġmires":12026,"Ġuzduoti":12027,"Ġmoketoja":12028,"virtina":12029,"Ġchak":12030,"Ġrimto":12031,"ĠSupr":12032,"daugiau":12033,"astika":12034,"Ġpasirinkau":12035,"Ġvaistai":12036,"Pasku":12037,"Ġkatastr":12038,"Ġtusas":12039,"Ġnupirko":12040,"Ġpsichiat":12041,"ĠPatys":12042,"irksi":12043,"Ġserialo":12044,"Ġserialu":12045,"ĠVieni":12046,"Ġnustato":12047,"Ġlaka":12048,"Ġperkel":12049,"Ġjudeti":12050,"Ġminimalios":12051,"Ġlesiai":12052,"Ġobuoliu":12053,"Ġprimine":12054,"Ġatiduoti":12055,"ĠStambulo":12056,"Ġmaloniai":12057,"Ġkontaktu":12058,"Ġriebalu":12059,"Ġpatenkintas":12060,"Ġinvesticijos":12061,"Ġgalesite":12062,"Ġneteisingai":12063,"phen":12064,"ĠLenkija":12065,"ĠBandziau":12066,"enksm":12067,"Ġsustabdyti":12068,"Ġnuplaun":12069,"Ġnelaimes":12070,"Ġsmals":12071,"Ġsuvarz":12072,"Ġaukletoja":12073,"Ġmeistr":12074,"Ġkatastrof":12075,"MO":12076,"Pra":12077,"cine":12078,"gim":12079,"paj":12080,"sil":12081,"str":12082,"Ġtycia":12083,"autai":12084,"inetu":12085,"intum":12086,"Ġmakar":12087,"Ġdistr":12088,"Ġbakter":12089,"osim":12090,"atl":12091,"entino":12092,"iavo":12093,"Ġlife":12094,"tukus":12095,"Ġsuman":12096,"avel":12097,"akiu":12098,"ojuosi":12099,"Ġzaliu":12100,"Ġzirg":12101,"Ġnesibaig":12102,"ĠSuk":12103,"Ġrasyk":12104,"ĠOt":12105,"izab":12106,"Ġtikrina":12107,"Ġtreciu":12108,"Ġnueik":12109,"tiski":12110,"Ġpadek":12111,"Ġpanor":12112,"Ġnebaig":12113,"Ġnebrang":12114,"ĠCOVID":12115,"Ġkalti":12116,"Ġkalta":12117,"eita":12118,"Ġhot":12119,"ĠFB":12120,"ĠFu":12121,"Ġbrangi":12122,"Ġore":12123,"Ġnepriv":12124,"Ġlygiu":12125,"Ġlaike":12126,"Ġatlaisv":12127,"tebejau":12128,"Ġvakaru":12129,"Ġklientais":12130,"Ġchir":12131,"Ġprogos":12132,"ologai":12133,"Ġlaisvas":12134,"Ġpacias":12135,"Ġsriti":12136,"Ġligoniu":12137,"traukos":12138,"ruko":12139,"Ġmiegas":12140,"ĠUztenka":12141,"Ġgyventojo":12142,"Ġdainas":12143,"Ġpasirinkimo":12144,"IES":12145,"Ġnaturalu":12146,"ĠNES":12147,"Ġkomplik":12148,"Ġnepavyksta":12149,"Ġtvarko":12150,"Ġneigiama":12151,"Ġlaikotarpis":12152,"Ġpristatymo":12153,"Ġdidziule":12154,"Ġledai":12155,"Ġpirksi":12156,"pakab":12157,"ĠImone":12158,"Ġpeiliu":12159,"Ġkomandos":12160,"Ġrezisierius":12161,"ĠRobert":12162,"ĠRaudonai":12163,"Ġarchitek":12164,"Ġpasivaikscio":12165,"tivity":12166,"Ġatsibund":12167,"Gaila":12168,"Tev":12169,"beg":12170,"pt":12171,"riu":12172,"teis":12173,"Ġpain":12174,"Ġsienas":12175,"inar":12176,"inais":12177,"anzin":12178,"alias":12179,"Ġdydi":12180,"Ġbic":12181,"enis":12182,"iaja":12183,"Ġismete":12184,"Ġsubr":12185,"Ġzliumb":12186,"Ġivesti":12187,"ilus":12188,"ĠTU":12189,"Ġneskir":12190,"Ġneskaiciau":12191,"ĠNatur":12192,"ĠNIEK":12193,"Ġarm":12194,"Ġdarytu":12195,"Ġuzv":12196,"Ġuzbaig":12197,"Ġapz":12198,"ĠKalb":12199,"ĠSam":12200,"ĠSiauliu":12201,"ĠJac":12202,"ĠIA":12203,"Ġparaisk":12204,"audu":12205,"Ġnetaik":12206,"Ġsustipr":12207,"Ġnepra":12208,"Ġsvori":12209,"Ġpakelia":12210,"inuka":12211,"Ġprekems":12212,"iskom":12213,"Ġklausau":12214,"Ġvelu":12215,"ĠGalu":12216,"Ġpinigine":12217,"Ġseneliu":12218,"Ġnesugalv":12219,"Ġparasykit":12220,"Ġpaskutinio":12221,"Ġelem":12222,"Ġneisivaizd":12223,"Ġblogu":12224,"Ġpardaveja":12225,"Ġlaikau":12226,"Ġpabrez":12227,"Ġmoketojai":12228,"Ġieskai":12229,"Ġnaktim":12230,"ĠBuhalter":12231,"ĠKiekvien":12232,"Ġaugti":12233,"Ġsokti":12234,"Ġmokslininku":12235,"Ġ2016":12236,"ĠDelf":12237,"Ġorganizmui":12238,"Antra":12239,"Ġfakturu":12240,"Ġrupinasi":12241,"Ġvampyrais":12242,"Ġmalonumas":12243,"Ġprincipas":12244,"Ġnerasi":12245,"Ġneskauda":12246,"Ġpristatyti":12247,"Ġsokoladas":12248,"Ġbaudos":12249,"Ġkiausiniu":12250,"Ġtragiskai":12251,"Ġisidarb":12252,"Ġvirtuves":12253,"Ġivertinti":12254,"ĠVokietijos":12255,"ĠSodros":12256,"ĠStaiga":12257,"olfing":12258,"Ġpoveikio":12259,"Ġpagaminti":12260,"Ġgrieztai":12261,"Ġfantazijos":12262,"Ġsaiku":12263,"Ġdruskos":12264,"Ġzuvo":12265,"Ġinspekcija":12266,"Ġpeties":12267,"eziuriu":12268,"Ġkonflik":12269,"Ġkondicion":12270,"Ġlapkricio":12271,"tiksliau":12272,"Ġissinuom":12273,"Ġinterviu":12274,"'re":12275,")(":12276,"Bent":12277,"Ist":12278,"aff":12279,"bei":12280,"gio":12281,"gina":12282,"pol":12283,"yc":12284,"Ġpuol":12285,"Ġkib":12286,"Ġnars":12287,"Ġseg":12288,"Ġsienu":12289,"alinio":12290,"Ġvo":12291,"Ġvoru":12292,"Ġdil":12293,"Ġdulk":12294,"urai":12295,"elej":12296,"Ġritu":12297,"Ġiskir":12298,"Ġzoles":12299,"Ġpasist":12300,"Ġvisuo":12301,"Ġnesiskir":12302,"Ġkura":12303,"ĠSut":12304,"ogos":12305,"ĠDev":12306,"Ġfb":12307,"Ġnorus":12308,"ĠMis":12309,"igh":12310,"ĠLaik":12311,"ykliu":12312,"ĠOne":12313,"Ġtrakt":12314,"ymosi":12315,"Ġgraziausias":12316,"Ġidesiu":12317,"Ġpradetu":12318,"Ġuzsil":12319,"Ġmazo":12320,"Ġkrap":12321,"Ġblius":12322,"!!!!!":12323,"Ġisleis":12324,"Ġbuteli":12325,"Ġord":12326,"Ġgalvas":12327,"perim":12328,"Ġpardave":12329,"Ġpardaveju":12330,"Ġpardavinet":12331,"Ġnegatyv":12332,"Ġmedzi":12333,"Ġpirmaja":12334,"Ġvakaras":12335,"Ġsiekiant":12336,"aipsnis":12337,"Ġnumire":12338,"Ġmiestel":12339,"Ġgirdejes":12340,"Ġgirdejusi":12341,"ĠInter":12342,"Ġskaiciuoja":12343,"Ġpuslapius":12344,"Ġmenesiai":12345,"Ġkilmes":12346,"Ġdraudz":12347,"Ġgrizt":12348,"Ġlapo":12349,"Ġnusisyps":12350,"ĠKaled":12351,"ĠSpe":12352,"Ġvertinti":12353,"Ġleidimu":12354,"ĠSteng":12355,"Ġelgesi":12356,"Ġpatvirtinti":12357,"Ġaukl":12358,"Buvau":12359,"Ġreiskinys":12360,"ĠDraugai":12361,"Niekada":12362,"Ġvaldzioje":12363,"Ġtvirtai":12364,"Ġissities":12365,"Ġamerikietis":12366,"Ġerdves":12367,"Ġzuvis":12368,"Ġturguje":12369,"Ġkriterijus":12370,"Ġkrikscion":12371,"ĠDaktaras":12372,"Ġkostiu":12373,"Butent":12374,"Ġkeiksmaz":12375,"Au":12376,"Hm":12377,"IZ":12378,"Lyg":12379,"Pap":12380,"Sita":12381,"love":12382,"miu":12383,"xpress":12384,"Ġpau":12385,"Ġtime":12386,"ikol":12387,"okiam":12388,"amba":12389,"enele":12390,"Ġrami":12391,"uon":12392,"Ġle":12393,"Ġlop":12394,"Ġisejau":12395,"eiles":12396,"eiciausiai":12397,"aisti":12398,"Ġnesur":12399,"Ġnesup":12400,"ĠNaus":12401,"ĠNever":12402,"ĠSakau":12403,"Ġpatyre":12404,"Ġpervesti":12405,"prog":12406,"ĠJol":12407,"Ġrasiu":12408,"buvau":12409,"Ġparal":12410,"Ġskur":12411,"ĠGabr":12412,"imasi":12413,"izmu":12414,"Ġkitoms":12415,"tikus":12416,"Ġsvog":12417,"tisko":12418,"Ġsavininku":12419,"Ġesanti":12420,"Ġ;'":12421,"Ġsaltiniu":12422,"Ġmatote":12423,"Ġpasakot":12424,"Ġauku":12425,"Ġjose":12426,"ibodo":12427,"Ġsenos":12428,"ameL":12429,"Ġpirkejai":12430,"Ġbrolio":12431,"nesu":12432,"adinimas":12433,"Ġkolega":12434,"Ġmieliau":12435,"tiesi":12436,"Ġsaunu":12437,"Ġtolim":12438,"Ġpardavejai":12439,"Ġpersirg":12440,"tingo":12441,"Ġprocenta":12442,"Ġjuokingi":12443,"AIL":12444,"Ġpaciame":12445,"Ġrinkimus":12446,"Ġbankai":12447,"Ġrimtu":12448,"Ġplanuoji":12449,"Ġbegiot":12450,"Ġsimptom":12451,"Ġzvakes":12452,"Ġmylima":12453,"Ġ:}}":12454,"Ġtikiuos":12455,"Ġkojines":12456,"Ġistirp":12457,"ĠDievu":12458,"Ġnepadejo":12459,"Ġprivalumas":12460,"Ġseimoje":12461,"Ġgirtas":12462,"Ġisimciu":12463,"Ġpriorit":12464,"Ġskolu":12465,"Ġpasigam":12466,"ĠNusipirkau":12467,"Ġmegstamiausia":12468,"Ġgarbanos":12469,"Ġmodeliu":12470,"ĠVokietijoje":12471,"ĠNenor":12472,"ĠSodra":12473,"Ġsiuntimas":12474,"Ġduona":12475,"Ġlaiptais":12476,"Ġmumis":12477,"Ġketuris":12478,"Ġpriversti":12479,"Ġfyfa":12480,"Ġperpardav":12481,"ĠFlightless":12482,"ĠLandsbergis":12483,"Ġatbaid":12484,"arnacija":12485,"âĻ¥":12486,"\"..":12487,"1000":12488,"Ab":12489,"IUS":12490,"Skam":12491,"jaust":12492,"ste":12493,"vor":12494,"zem":12495,"Ġievuzia":12496,"Ġseip":12497,"anes":12498,"Ġvokieti":12499,"Ġdiktat":12500,"Ġgand":12501,"Ġje":12502,"Ġrinkai":12503,"onijos":12504,"apr":12505,"Ġatp":12506,"Ġatejus":12507,"Ġatein":12508,"ĠPus":12509,"ĠKos":12510,"ĠAP":12511,"ĠDekoju":12512,"Ġpateis":12513,"Ġnorime":12514,"ĠVadinasi":12515,"Ġrasite":12516,"Ġparke":12517,"ĠLit":12518,"iurb":12519,"Ġklysti":12520,"acio":12521,"Ġintu":12522,"Ġsavyje":12523,"Ġakrop":12524,"Ġpavare":12525,"Ġprotingu":12526,"Ġech":12527,"Ġkalejimo":12528,"Ġdraugui":12529,"angas":12530,"Ġklausi":12531,"Ġvartoti":12532,"Ġpamel":12533,"Ġho":12534,"Ġsenam":12535,"Ġverslus":12536,"ĠVisur":12537,"Ġkuriant":12538,"Ġskirst":12539,"Ġasmeninis":12540,"Ġasmenybes":12541,"Ġoriflame":12542,"Ġneiseis":12543,"Ġneisejo":12544,"Ġnedraud":12545,"Ġpilnam":12546,"Ġbendrauj":12547,"Ġitampa":12548,"Ġsekti":12549,"Ġmedziu":12550,"Ġkeistis":12551,"Ġnepasit":12552,"Ġnepastov":12553,"Ġnakv":12554,"Ġrealus":12555,"Ġtaptu":12556,"Ġsiltas":12557,"Ġpatarimo":12558,"Ġvykdau":12559,"ĠNiekad":12560,"Ġisvez":12561,"Ġpagrindiniai":12562,"Ġpigu":12563,"ĠNetgi":12564,"Ġzalios":12565,"Ġveziu":12566,"Ġlapu":12567,"Ġnuvykti":12568,"Ġkaimyne":12569,"Ġdydziu":12570,"Ġtyrimu":12571,"telejo":12572,"Ġpolicijos":12573,"Ġvienodi":12574,"Ġnuotraukoje":12575,"tynes":12576,"Ġsvelnus":12577,"Ġistaig":12578,"Ġvairuotojas":12579,"ĠGyvenu":12580,"ĠPutinas":12581,"Ġhorosko":12582,"Ġburnos":12583,"Ġorgin":12584,"Ġlaipsniu":12585,"34":12586,":(":12587,"Tokiu":12588,"dem":12589,"fl":12590,"ges":12591,"gird":12592,"teles":12593,"ward":12594,"yku":12595,"inuos":12596,"inejimo":12597,"Ġnekas":12598,"alini":12599,"Ġdatos":12600,"Ġduodu":12601,"Ġlies":12602,"aktik":12603,"ejaugi":12604,"Ġkaires":12605,"Ġiliuz":12606,"Ġatauga":12607,"ĠTE":12608,"Ġneskai":12609,"Ġkuriem":12610,"ĠSur":12611,"ysime":12612,"ĠMus":12613,"ĠJim":12614,"ĠJiems":12615,"ĠVir":12616,"Ġdaugumos":12617,"ĠRug":12618,"Ġvalia":12619,"Ġuzsinor":12620,"Ġissak":12621,"Ġpakonsultuoti":12622,"eksu":12623,"Ġkame":12624,"Ġdvej":12625,"Ġdvyn":12626,"Ġpaskutiniai":12627,"Ġpaziurekit":12628,"elnas":12629,"Ġspalvas":12630,"Ġsergu":12631,"Ġnegeriu":12632,"ĠWr":12633,"off":12634,"Ġrealybes":12635,"Ġadata":12636,"ĠAtsis":12637,"Ġsimtai":12638,":))":12639,"Ġpagrindiniu":12640,"Ġtrumpareg":12641,"Ġkomentarai":12642,"Ġpasitrauk":12643,"Ġdesini":12644,"Ġnustate":12645,"Ġminimalus":12646,"Ġtechnikos":12647,"Ġmilijona":12648,"Ġtaikyti":12649,"Ġpliusu":12650,"Ġmaloniau":12651,"Ġskambina":12652,"Ġnesiginc":12653,"Ġissireisk":12654,"Ġryzi":12655,"Ġperveda":12656,"Ġnuotraukoj":12657,"ĠAmerika":12658,"Ġuzrak":12659,"Ġinteres":12660,"Ġaparato":12661,"####":12662,"Ġstumia":12663,"Ġistaigos":12664,"Ġteigiama":12665,"ĠPanevez":12666,"Ġpatrio":12667,"ĠGyvent":12668,"ĠIndividualia":12669,"Ġpaskiepyti":12670,"Ġpomid":12671,"ĠSEB":12672,"Ġpusbrolis":12673,"Ġismesti":12674,"ĠPuikus":12675,"eople":12676,"BecK":12677,"600":12678,"KU":12679,"Pak":12680,"bais":12681,"cel":12682,"daz":12683,"keln":12684,"pam":12685,"pon":12686,"âĸ":12687,"Ġpiku":12688,"isto":12689,"alinti":12690,"Ġvap":12691,"Ġboks":12692,"Ġgyn":12693,"erem":12694,"Ġlia":12695,"Ġlako":12696,"Ġsutiko":12697,"Ġzib":12698,"Ġatmes":12699,"uzika":12700,"Ġnesazin":12701,"Ġuzgr":12702,"Ġoz":12703,"egti":12704,"Ġcand":12705,"Ġjaut":12706,"prek":12707,"ciuke":12708,"Ġmokejo":12709,"Ġmokausi":12710,"ĠJU":12711,"galiu":12712,"Ġkasmet":12713,"Ġdaugeli":12714,"ĠGe":12715,"tasi":12716,"izik":12717,"Ġplay":12718,"eziu":12719,"ĠManes":12720,"Ġinici":12721,"evi":12722,"Ġpradejom":12723,"Ġtask":12724,"Ġpakele":12725,"Ġziureciau":12726,"liuko":12727,"Ġhos":12728,"Ġislenda":12729,"ĠHum":12730,"Ġsunki":12731,"Ġbutybes":12732,"Ġway":12733,"Ġmasinas":12734,"Ġbendrove":12735,"Ġsapnuoji":12736,"Ġlikvid":12737,"Ġnormalia":12738,"Ġkeisto":12739,"Ġdeklaracijas":12740,"Ġpriklausomybe":12741,"Ġlaisvalaik":12742,"omasis":12743,"Ġplanu":12744,"Ġplanet":12745,"Ġ:))":12746,"Ġverstis":12747,"Ġismokau":12748,"Ġvadinam":12749,"Ġtrumpam":12750,"Ġregis":12751,"Ġneatl":12752,"Ġnepamat":12753,"Ġplatforma":12754,"Ġvezti":12755,"Ġatskiras":12756,"Ġpasieke":12757,"Ġdzinsu":12758,"Ġmistikos":12759,"Ġmilijono":12760,"Ġpazistamas":12761,"Ġkiaul":12762,"Ġpraeitais":12763,"Ġveidrodzio":12764,"Ġkudik":12765,"Ġdizainas":12766,"Ġcharakteris":12767,"aaaabai":12768,"Ġnetrukus":12769,"Ġpasibaige":12770,"ĠPaskutinis":12771,"ĠAnglijoje":12772,"ĠKlaipedos":12773,"Ġbegale":12774,"ĠMergina":12775,"ĠSEO":12776,"Ġbruozai":12777,"Ġdziaugsmo":12778,"Ġdanguje":12779,"ĠPaulius":12780,"Ġsriuba":12781,"Ġevoliucijos":12782,"ĠRegistru":12783,"Ġatsibudau":12784,"pleksuoju":12785,"Ġpaveiksla":12786,"âĸª":12787,"32":12788,"65":12789,"77":12790,">>":12791,"DO":12792,"Kokie":12793,"LE":12794,"Tuo":12795,"cinis":12796,"che":12797,"kn":12798,"len":12799,"pop":12800,"savo":12801,"ws":12802,"ĠðŁ":12803,"Ġkencia":12804,"Ġdeze":12805,"Ġbisk":12806,"ikli":12807,"atr":12808,"Ġistar":12809,"Ġzyg":12810,"Ġpaskaiciau":12811,"Ġvisata":12812,"Ġbutin":12813,"Ġbutas":12814,"Ġmanija":12815,"iltu":12816,"ĠTuoj":12817,"Ġnesit":12818,"ĠStar":12819,"iusios":12820,"auskaite":12821,"ĠJoo":12822,"ĠVie":12823,"ĠVAL":12824,"Ġvienaip":12825,"tofobija":12826,"Ġkitoki":12827,"ulius":12828,"Ġnugr":12829,"dziant":12830,"aidas":12831,"Ġakivai":12832,"Ġprietais":12833,"Ġpropor":12834,"Ġkrimin":12835,"Ġ34":12836,"iskiu":12837,"Ġvars":12838,"Ġtaut":12839,"Ġkampo":12840,"Ġnezinom":12841,"Ġanoreks":12842,"Ġsenus":12843,"Ġpirkciau":12844,"ness":12845,"ĠNori":12846,"Ġkvie":12847,"Ġaff":12848,"Ġpaziuri":12849,"Ġpardaviau":12850,"ĠNeeiline":12851,"Ġkainomis":12852,"Ġseimai":12853,"Ġdemonstr":12854,"Ġdemokrati":12855,"Ġatsirasti":12856,"Ġplanus":12857,"Ġnusipirkus":12858,"Ġzvej":12859,"Ġzvyr":12860,"Ġauginti":12861,"Ġrezerv":12862,"Ġrudos":12863,"Tikiuosi":12864,"Ġbuhalterine":12865,"razu":12866,"Paskui":12867,"Ġkvaili":12868,"2012":12869,"Ġpastebejimas":12870,"Ġorganizacija":12871,"Ġgriztu":12872,"Ġveiksmus":12873,"Ġaprasymas":12874,"Ġribose":12875,"Ġgaletume":12876,"Ġgaletumet":12877,"ĠStal":12878,"Ġpranesimu":12879,"Ġekspertai":12880,"Ġissirinkti":12881,"Ġekonomine":12882,"Ġhorm":12883,"Ġverkt":12884,"Ġtelevizoriu":12885,"ĠErvinas":12886,"Ġatsargiai":12887,"Ġoptimiz":12888,"Ġnetiesa":12889,"Ġgeltona":12890,"Ġsteigiant":12891,"Ġnetoler":12892,".***":12893,"IP":12894,"Kuo":12895,"Moter":12896,"Sitas":12897,"aaip":12898,"di":12899,"koki":12900,"ng":12901,"naz":12902,"utin":12903,"utr":12904,"Ġkauliu":12905,"Ġsekl":12906,"Ġsovie":12907,"arch":12908,"Ġmut":12909,"Ġmug":12910,"Ġvam":12911,"Ġvnt":12912,"Ġbep":12913,"adus":12914,"etini":12915,"Ġraidziu":12916,"Ġlele":12917,"Ġzema":12918,"aisa":12919,"Ġuzfiks":12920,"ĠAkr":12921,"Ġfabr":12922,"Ġturinciu":12923,"edant":12924,"Ġperras":12925,"Ġgryz":12926,"ĠGavau":12927,"Ġpiram":12928,"Ġgyvi":12929,"Ġlaivas":12930,"Ġveiksn":12931,"Ġkryz":12932,"inute":12933,"Ġapskr":12934,"Ġjoo":12935,"Ġsiule":12936,"Ġvaiva":12937,"irsi":12938,"irstu":12939,"uotojas":12940,"Ġkovoti":12941,"Ġgauciau":12942,"eidus":12943,"Ġ55":12944,"Ġanek":12945,"ĠVisiems":12946,"Ġplauti":12947,"viska":12948,"Ġkuriomis":12949,"Ġaiskus":12950,"Ġatsakyt":12951,"Ġatsakymai":12952,"valdyti":12953,"Ġvyrus":12954,"Ġkokioje":12955,"Ġpirmoje":12956,"ansberg":12957,"Ġfaktai":12958,"Ġpatikek":12959,"Ġrealiz":12960,"Ġjausti":12961,"Ġtaisykl":12962,"Ġ[/":12963,"Ġpigus":12964,"Ġpapildomas":12965,"aliuku":12966,"Ġavans":12967,"Ġbuhalteri":12968,"Ġraudonas":12969,"2010":12970,"Ġdraudziama":12971,"Ġsusijusiu":12972,"Ġkonkurentai":12973,"ĠVienu":12974,"Ġparduodamas":12975,"Ġskund":12976,"Ġdyka":12977,"Ġsneket":12978,"ĠKazkokia":12979,"Ġaiskinti":12980,"Ġivykius":12981,"Ġateitis":12982,"Ġprincipo":12983,"Ġapmokestinamas":12984,"Ġpsichologija":12985,"Ġjuridiniu":12986,"elydzio":12987,"ĠBlond":12988,"Ġvertetu":12989,"Ġperskaityt":12990,"Ġlyja":12991,"Ġnevisada":12992,"Ġuzsisakyti":12993,"Ġnepastebejau":12994,"Ġraumenys":12995,"Ġsmagiau":12996,"ĠPanele":12997,"Ġaukstakulniai":12998,"Ġcitrinos":12999,"ĠCarrey":13000,"Ġwhen":13001,"Ġissiskyr":13002,"Ġcigarete":13003,"Ġscenarijus":13004,"Ġinvent":13005,"Ġpajamoms":13006,"Ġnesumok":13007,"Ġatmosfera":13008,"49":13009,"Mess":13010,"Nelabai":13011,"Teis":13012,"dom":13013,"Ġ}":13014,"Ġkinas":13015,"Ġniur":13016,"incia":13017,"arst":13018,"Ġneiz":13019,"Ġdedu":13020,"Ġduotu":13021,"Ġbene":13022,"ertas":13023,"imdb":13024,"..)":13025,"Ġlangu":13026,"Ġliber":13027,"Ġisgr":13028,"itau":13029,"ektorius":13030,"odi":13031,"ĠNOR":13032,"Ġapykai":13033,"ĠSie":13034,"ĠSkai":13035,"oge":13036,"ĠMyliu":13037,"Ġcj":13038,"Ġcov":13039,"Ġperz":13040,"ĠIN":13041,"ĠVies":13042,"Ġkarma":13043,"Ġnetvark":13044,"Ġsusp":13045,"Ġmazeja":13046,"yru":13047,"Ġpakl":13048,"Ġprekemis":13049,"ĠIrgi":13050,"Ġklausytis":13051,"Ġblemba":13052,"liui":13053,"ebo":13054,"Ġnaudingas":13055,"Ġsenoves":13056,"Ġpasireiskia":13057,"Ġpirkima":13058,"Ġsunys":13059,"Ġkval":13060,"Ġnekenkia":13061,"ejusiu":13062,"ersti":13063,"Ġseimas":13064,"Ġuzdav":13065,"Ġpirmiau":13066,"ĠYRA":13067,"Ġgimsta":13068,"Ġbanalus":13069,"Ġpatart":13070,"Ġemiau":13071,"Ġivairios":13072,"Ġruden":13073,"Ġkarts":13074,"Ġvadova":13075,"Ġneapsis":13076,"Ġklasioku":13077,"Ġpastebeti":13078,"Ġnuolatos":13079,"Ġtuscias":13080,"Ġistek":13081,"Ġnulio":13082,"Ġpranese":13083,"Ġpasiteis":13084,"ĠXDD":13085,"Ġgausite":13086,"Ġkepimo":13087,"Ġskolos":13088,"Ġskirtingus":13089,"Ġleidima":13090,"Ġpasiziuret":13091,"ĠLabiau":13092,"Ġautoriui":13093,"Ġnezmon":13094,"Ġpikt":13095,"Ġatgaiv":13096,"Ġupes":13097,"Ġsportuot":13098,"Ġprezidento":13099,"Ġbelekiek":13100,"Ġzieda":13101,"Ġprireiks":13102,"Ġlegalu":13103,"Ġporeikius":13104,"Ġraumenu":13105,"Ġnusiperki":13106,"Ġnesamonem":13107,"Ġinstruk":13108,"Ġapskaiciuoti":13109,"Ġbalzama":13110,"ĠItalija":13111,"Ġanalize":13112,"Ġdirektoriaus":13113,"ĠSimpsonai":13114,"eicar":13115,"Ġkolegos":13116,"ĠIspanija":13117,"ĠIdomiai":13118,"ĠEVRK":13119,"De":13120,"Kiti":13121,"Tau":13122,"Vaik":13123,"her":13124,"mp":13125,"nuose":13126,"notiz":13127,"tavo":13128,"uksta":13129,"Ġ$":13130,"Ġed":13131,"Ġtyci":13132,"Ġkiema":13133,"Ġneval":13134,"Ġjin":13135,"uoles":13136,"Ġlatv":13137,"akr":13138,"aktiskai":13139,"itos":13140,"Ġatvaizd":13141,"aisto":13142,"ĠPla":13143,"ĠPenk":13144,"Ġapdr":13145,"ĠSavai":13146,"ause":13147,"Ġpatyl":13148,"ĠMhm":13149,"Ġgeris":13150,"andz":13151,"butis":13152,"Ġviens":13153,"Ġdaugmaz":13154,"ĠGod":13155,"ĠGum":13156,"inacija":13157,"Ġplev":13158,"Ġplaciai":13159,"uojanciu":13160,"Ġtryl":13161,"Ġantst":13162,"Ġnebendr":13163,"Ġpavid":13164,"Ġnerim":13165,"Ġnerib":13166,"ĠEbay":13167,"Ġdazus":13168,"liukai":13169,"liukus":13170,"ĠUp":13171,"Ġpalaiko":13172,"Ġpasiryz":13173,"Ġasmeniniu":13174,"Ġgalvojo":13175,"Ġreikalais":13176,"Ġ???":13177,"Ġpilnu":13178,"Ġbendruomen":13179,"Ġnegausi":13180,"Ġmedi":13181,"Ġfakta":13182,"estival":13183,"Ġnemokamas":13184,"Ġads":13185,"aliuka":13186,"Ġjaunimo":13187,"Ġbuhalterines":13188,"Ġpastebejo":13189,"Ġautomobilius":13190,"Ġgydymo":13191,"Ġuzdirbi":13192,"ĠSkvern":13193,"Ġvezys":13194,"Ġsusijusios":13195,"Ġlakas":13196,"Ġkosmaras":13197,"Ġpripras":13198,"Ġapgaud":13199,"Ġivykio":13200,"Ġnesveikas":13201,"Ġeiline":13202,"Ġsutikimo":13203,"aziurejau":13204,"Norejau":13205,"Ġdaktarai":13206,"Ġpatenkinti":13207,"Ġsugalvos":13208,"Ġzvilgsni":13209,"Ġliekna":13210,"Ġketvirta":13211,"Ġatsiliepimu":13212,"ĠSaules":13213,"Ġjautri":13214,"Ġpaskelbe":13215,"ĠIndividualios":13216,"Ġbruozu":13217,"Ġaborta":13218,"Ġplestis":13219,"Ġsidabr":13220,"Ġprarasti":13221,"Ġmikro":13222,"Ġskyles":13223,"Ġbobute":13224,"ĠSlaidas":13225,"ception":13226,"Ġkvalifik":13227,"EI":13228,"VZ":13229,"Vasara":13230,"cl":13231,"dau":13232,"des":13233,"iok":13234,"knis":13235,"meg":13236,"neis":13237,"real":13238,"vimo":13239,"ways":13240,"Ġtyla":13241,"isskyrus":13242,"Ġsans":13243,"Ġsaw":13244,"Ġdus":13245,"Ġgod":13246,"erry":13247,"enus":13248,"elems":13249,"Ġrun":13250,"Ġisil":13251,"Ġpased":13252,"Ġigal":13253,"Ġmandar":13254,"Ġtikisi":13255,"ĠTim":13256,"ĠTokio":13257,"ĠTOK":13258,"augos":13259,"Ġnest":13260,"Ġnesip":13261,"Ġkursus":13262,"Ġapima":13263,"Ġapple":13264,"ĠKA":13265,"ĠKie":13266,"ĠKeli":13267,"ĠDeklar":13268,"Ġturinys":13269,"Ġasaros":13270,"Ġpark":13271,"ĠLife":13272,"Ġkoktei":13273,"ykis":13274,"tasis":13275,"aukit":13276,"inkus":13277,"Ġsvaist":13278,"Ġverkiu":13279,"Ġnusizud":13280,"Ġspinta":13281,"Ġpakeiti":13282,"Ġ32":13283,"Ġ37":13284,"Ġmatet":13285,"Ġklausyt":13286,"Ġaura":13287,"Ġpusant":13288,"ciusi":13289,"Ġhol":13290,"Ġpalaukti":13291,"ĠFin":13292,"Ġneturite":13293,"Ġnesuvok":13294,"adinau":13295,"Ġoranzin":13296,"Ġdirbantys":13297,"Ġneismok":13298,"Ġneduos":13299,"Ġsukl":13300,"Ġsuktis":13301,"Ġuzduotis":13302,"Ġpabu":13303,"ĠKaina":13304,"Ġnenorejo":13305,"Ġsukuria":13306,"Ġnuosava":13307,"Ġvirsk":13308,"Ġlaisku":13309,"Ġeurus":13310,"ieriaus":13311,"rue":13312,"Ġsvarbiausias":13313,"Ġisrasa":13314,"Ġneuzdirb":13315,"Ġpritaikyti":13316,"Ġmokytoju":13317,"Ġpasiulymus":13318,"Ġraudonu":13319,"Ġuzsakymus":13320,"ĠApple":13321,"Visada":13322,"Ġpabandziau":13323,"ĠNematau":13324,"Ġirodymas":13325,"Ġnusistat":13326,"Ġpraleidau":13327,"Ġatsidare":13328,"Ġprogramine":13329,"Ġaiskino":13330,"viecia":13331,"Ġypatingas":13332,"Ġpazistami":13333,"Ġneprisir":13334,"Ġvalstybeje":13335,"Ġnedideles":13336,"Ġneskaud":13337,"Ġnotara":13338,"Ġskyriaus":13339,"Ġsumazinti":13340,"Ġtrukumu":13341,"Ġnebereikia":13342,"Ġpraranda":13343,"Zmog":13344,"Ġuzmigti":13345,"Ġsmulkus":13346,"Ġaukstakulniu":13347,"ĠSmy":13348,"ĠImones":13349,"Ġgatvej":13350,"Ġpavedimu":13351,"Ġsanaudos":13352,"Ġatsitiks":13353,"Ġaukstakulniais":13354,"Ġmilziniska":13355,"Ġklubas":13356,"Ġatnesa":13357,"emjera":13358,"Ġgraudu":13359,"ĠHaBecK":13360,"Ġsmirda":13361,"Ġisspresti":13362,"Ġdzinsais":13363,"Gyvenimas":13364,"ĠPsich":13365,"Ġbibliotek":13366,"Ġprievarta":13367,"51":13368,"68":13369,"Deja":13370,"Musu":13371,"Pers":13372,"SR":13373,"cines":13374,"cijomis":13375,"ea":13376,"ianciu":13377,"lietuv":13378,"och":13379,"Ġtd":13380,"Ġtoms":13381,"Ġkiet":13382,"inyje":13383,"Ġmiskas":13384,"esme":13385,"Ġgig":13386,"atui":13387,"eriui":13388,"Ġreit":13389,"Ġried":13390,"Ġlauksiu":13391,"Ġsujung":13392,"akai":13393,"ojaus":13394,"ĠPur":13395,"Ġapv":13396,"ĠSios":13397,"ĠSkr":13398,"Ġnorai":13399,"ĠMind":13400,"Ġperm":13401,"ĠIM":13402,"ingesne":13403,"ĠVik":13404,"Ġpareikal":13405,"ykt":13406,"Ġpoil":13407,"Ġverciasi":13408,"Ġimk":13409,"Ġgraziausi":13410,"Ġnebijo":13411,"ĠReiskia":13412,"ĠRyte":13413,"Ġpradesi":13414,"Ġuzstat":13415,"menybe":13416,"ĠAsmeniskai":13417,"ĠCol":13418,"Ġatrodai":13419,"Ġdidzia":13420,"Ġkaledas":13421,"Ġpasakyciau":13422,"Ġmenulio":13423,"Ġatvejus":13424,"ĠHel":13425,"Ġbrend":13426,"Ġskirtos":13427,"Ġteismas":13428,"ildo":13429,"Ġkolon":13430,"Ġminer":13431,"ytumet":13432,"Ġkviet":13433,"ĠPasiziur":13434,"Ġpilieciu":13435,"Ġpilvas":13436,"ypat":13437,"Ġsutartys":13438,"tumem":13439,"Ġtikslus":13440,"Ġchemija":13441,"Ġprognoz":13442,"insite":13443,"Ġsituac":13444,"Ġjausmai":13445,"Ġatsisako":13446,"Ġpaklausiu":13447,"Ġtamsa":13448,"Ġskaiciuot":13449,"Ġaugint":13450,"Ġneblogu":13451,"Ġzenklai":13452,"ĠxD":13453,"aunasi":13454,"Ġnevien":13455,"Ġrusas":13456,"ilgai":13457,"Ġekstr":13458,"Ġbelenk":13459,"Ġnulak":13460,"Ġkirpykla":13461,"Ġsubti":13462,"Ġvampyrus":13463,"Ġaprasyta":13464,"ĠVersl":13465,"Ġdeim":13466,"Ġprikol":13467,"Ġfinansiniu":13468,"Ġpatvirtino":13469,"Ġprofesijos":13470,"Ġkiaule":13471,"Ġvaiduokliai":13472,"Ġvirsuje":13473,"Ġlangus":13474,"Ġnemalonus":13475,"Ġuzmigau":13476,"Ġatsiskaityti":13477,"Ġliekn":13478,"Ġkonservatoriu":13479,"Ġtelevizija":13480,"Ġlipd":13481,"Ġsexy":13482,"Ġgasdina":13483,"Ġistikro":13484,"Ġmedicinos":13485,"Ġteritorijoje":13486,"ĠSummer":13487,"Ġsprendzia":13488,"Ġsupratot":13489,"Ġvaliuta":13490,"vengiau":13491,"Ġaptemp":13492,"Ġauditorija":13493,"Ġsaldumynu":13494,"Ġpriemonemis":13495,"Ġkariuom":13496,"izabeth":13497,"Mir":13498,"NE":13499,"To":13500,"ped":13501,"teko":13502,"ailu":13503,"Ġtw":13504,"Ġtomis":13505,"inori":13506,"ira":13507,"irado":13508,"Ġnee":13509,"Ġveis":13510,"Ġvyn":13511,"tima":13512,"Ġdaba":13513,"Ġgiv":13514,"Ġgele":13515,"Ġgood":13516,"ergi":13517,"imena":13518,"Ġlietu":13519,"Ġisanks":13520,"itacija":13521,"ojantis":13522,"omino":13523,"eikejo":13524,"Ġatom":13525,"ilai":13526,"Ġnescia":13527,"Ġnesidar":13528,"Ġneskaitant":13529,"antus":13530,"ĠSiu":13531,"ĠStat":13532,"Ġnorim":13533,"ĠMieg":13534,"edijos":13535,"ksi":13536,"ĠBraz":13537,"andos":13538,"ingr":13539,"Ġdaugia":13540,"entams":13541,"ĠGan":13542,"Ġklim":13543,"uojantys":13544,"Ġnukop":13545,"undziu":13546,"Ġnusivil":13547,"Ġziniomis":13548,"Ġveikejai":13549,"Ġsavi":13550,"ĠEil":13551,"Ġissib":13552,"Ġpriejo":13553,"Ġkrei":13554,"esiojau":13555,"ĠCovid":13556,"ynos":13557,"istes":13558,"uotojai":13559,"Ġstad":13560,"Ġneturint":13561,"Ġpadaras":13562,"ajam":13563,"Ġnuomai":13564,"Ġ4000":13565,"Ġbudai":13566,"Ġbendram":13567,"Ġatleisti":13568,"pasku":13569,"Ġsurezis":13570,"Ġmoterims":13571,"Ġgreito":13572,"reak":13573,"Ġchemijos":13574,"Ġsiekti":13575,"Ġpacien":13576,"Ġisgeriu":13577,"Ġsraig":13578,"esiot":13579,"jauta":13580,"Ġmelynas":13581,"Ġsulej":13582,"Ġteciu":13583,"Ġbaigia":13584,"Ġprojektus":13585,"Ġodai":13586,"Ġpaaiskejo":13587,"Ġjaunos":13588,"INK":13589,"Ġnagais":13590,"Ġplatina":13591,"Ġlakst":13592,"Ġkosmara":13593,"Ġperkelti":13594,"Ġsilpna":13595,"Ġaiskintis":13596,"Ġivykis":13597,"Ġeilini":13598,"Ġzudikas":13599,"Ġinternetiniu":13600,"Ġnesigailiu":13601,"Ġbalsa":13602,"Ġsklyp":13603,"Ġdezutes":13604,"Ġkisenes":13605,"Ġnereikalingas":13606,"Ġtarnyba":13607,"Ġmotoc":13608,"Ġeikit":13609,"Ġpriziuret":13610,"Ġapsilankyti":13611,"Ġerdv":13612,"Ġeuropos":13613,"Ġkamuoliuka":13614,"ĠRequiem":13615,"Ġpasiilg":13616,"Ġmuitines":13617,"iuzetas":13618,"Ġlasteles":13619,"ĠPetriukas":13620,"ĠAVON":13621,"38":13622,"67":13623,"Dz":13624,"vnt":13625,"wu":13626,"Ġank":13627,"Ġpyra":13628,"Ġnom":13629,"Ġnetraukia":13630,"alumas":13631,"Ġvejo":13632,"Ġdoze":13633,"atom":13634,"atve":13635,"ady":13636,"iauja":13637,"Ġric":13638,"iava":13639,"Ġpridur":13640,"onav":13641,"Ġzid":13642,"Ġpasekm":13643,"iji":13644,"odes":13645,"uzs":13646,"ĠNam":13647,"Ġapm":13648,"ĠSaule":13649,"Ġoho":13650,"Ġfui":13651,"Ġturinio":13652,"Ġciul":13653,"Ġgryb":13654,"Ġmokintis":13655,"ĠBE":13656,"inge":13657,"Ġatsitr":13658,"ĠLog":13659,"Ġskorpi":13660,"ĠGl":13661,"ĠOb":13662,"intai":13663,"raso":13664,"unga":13665,"Ġpadetis":13666,"ĠRad":13667,"ĠRuta":13668,"zinau":13669,"Ġtasku":13670,"Ġeu":13671,"ĠCitr":13672,"Ġziurekit":13673,"iskam":13674,"Ġmatematikos":13675,"Ġatvaziavo":13676,"Ġpaliek":13677,"ĠFe":13678,"ĠHip":13679,"Ġnetures":13680,"Ġnaujaus":13681,"Ġpadarau":13682,"nesa":13683,"adinciau":13684,"akartoj":13685,"Ġvaikystej":13686,"Ġwalk":13687,"Ġknow":13688,"Ġjust":13689,"iklausomai":13690,"Ġspalio":13691,"Ġnegirdejau":13692,"Ġsekesi":13693,"ozis":13694,"Ġistorijoje":13695,"Ġgimd":13696,"Ġpagrob":13697,"Ġeuroviz":13698,"Ġnariams":13699,"Ġatsisake":13700,"incios":13701,"Ġbegt":13702,"artam":13703,"Ġaukstos":13704,"Ġnurodytas":13705,"Ġsamone":13706,"Ġnaudojami":13707,"Ġegzorc":13708,"Ġpastebi":13709,"Ġvakcinas":13710,"Ġpatogiai":13711,"ĠDaugelis":13712,"Ġpenkis":13713,"Ġsaugo":13714,"Ġkomentar":13715,"Ġfinansu":13716,"Ġair":13717,"ieza":13718,"Ġsezon":13719,"Ġkaimynai":13720,"Ġrezultata":13721,"Ġrezultato":13722,"Ġviduryje":13723,"Ġivykiai":13724,"ĠRusijoje":13725,"Ġuzsispyr":13726,"Ġsaraso":13727,"Ġaprangos":13728,"Ġinternetini":13729,"ĠReiktu":13730,"bolo":13731,"Ġgydytojas":13732,"Ġnezadu":13733,"2009":13734,"Ġdrasos":13735,"ĠAmerikoje":13736,"Ġpasilik":13737,"Ġlegaliz":13738,"Ġnepazistu":13739,"Ġbirza":13740,"Ġpoziuri":13741,"Ġistrigo":13742,"Ġbulviu":13743,"Ġtvirtina":13744,"Ġtinklapi":13745,"Ġtechnologiju":13746,"Ġpabego":13747,"Ġistaiga":13748,"Ġaktyviai":13749,"Ġsmagiai":13750,"Ġregistracija":13751,"Ġnuvaziuoti":13752,"Ġbiudzeto":13753,"Ġprievoles":13754,"Ġskatina":13755,"Ġatimti":13756,"ĠSiaubas":13757,"Ġmetafor":13758,"Ġkluba":13759,"Ġnufotk":13760,"iujor":13761,"Ġmandag":13762,"Ġnekainuoja":13763,"Ġiniciatyv":13764,",.":13765,";-":13766,"Er":13767,"Re":13768,"Tokia":13769,"Val":13770,"gus":13771,"hi":13772,"kilo":13773,"the":13774,"Ġkub":13775,"Ġkaun":13776,"Ġkede":13777,"istis":13778,"Ġsir":13779,"inot":13780,"Ġvaziavo":13781,"Ġdailes":13782,"Ġbau":13783,"Ġgaid":13784,"Ġjuolab":13785,"okinezes":13786,"imanoma":13787,"iaut":13788,"Ġry":13789,"Ġrytas":13790,"Ġlot":13791,"Ġismano":13792,"Ġpasieme":13793,"ilia":13794,"ĠTel":13795,"Ġuzuom":13796,"Ġpayp":13797,"ĠSeniai":13798,"ĠSocial":13799,"ĠDream":13800,"olia":13801,"Ġcir":13802,"Ġ((:":13803,"ĠBite":13804,"ĠJum":13805,"ĠJung":13806,"iosiu":13807,"ĠVold":13808,"ĠLed":13809,"Ġskra":13810,"iurp":13811,"ĠGo":13812,"imasis":13813,"ybines":13814,"ivar":13815,"Ġnusl":13816,"Ġnuslep":13817,"Ġsakinys":13818,"Ġimu":13819,"Ġpaneliu":13820,"even":13821,"Ġidejau":13822,"Ġtiesinu":13823,"ĠEv":13824,"Ġzmogzud":13825,"Ġgyvens":13826,"Ġsales":13827,"Ġsaltinis":13828,"Ġneleido":13829,"Ġsiuksl":13830,"Ġkontor":13831,"uotoju":13832,"beta":13833,"eidomu":13834,"Ġpadarytas":13835,"Ġbaltus":13836,"irkti":13837,"Ġreikalauj":13838,"Ġ42":13839,"Ġ47":13840,"ĠNorris":13841,"ĠIsivaizd":13842,"Ġwho":13843,"Ġblogis":13844,"Ġblogos":13845,"Ġbendravimo":13846,"Ġbendrauju":13847,"Ġsavaim":13848,"ejusios":13849,"Ġnegaus":13850,"ciate":13851,"Ġkokiom":13852,"kaityti":13853,"Galv":13854,"Ġpatikt":13855,"Ġpatikim":13856,"ĠSutinku":13857,"Ġprodukcijos":13858,"Ġdarbuotojams":13859,"Ġsiuntos":13860,"Ġdainavo":13861,"Ġausis":13862,"Ġuzpil":13863,"Ġkils":13864,"Visiskai":13865,"Ġvezi":13866,"Ġinfek":13867,"Ġklaidos":13868,"Ġbernu":13869,"Ġpasiekia":13870,"areciu":13871,"Ġpiestuku":13872,"Ġsilpni":13873,"Ġatsilenk":13874,"Ġatveji":13875,"Ġantram":13876,"Ġpamirstu":13877,"Ġ^_^":13878,"Ġmegstamiausi":13879,"ĠMarija":13880,"Ġkompleksas":13881,"Ġgydytojai":13882,"Ġkovos":13883,"Ġatsibosta":13884,"Ġgamintoju":13885,"ADA":13886,"Ġbendras":13887,"Ġtarnybos":13888,"Ġzuvies":13889,"Ġlegenda":13890,"Ġuzpakali":13891,"ĠOriflame":13892,"Ġparsisiusti":13893,"Ġjapon":13894,"Ġerdve":13895,"Ġprisigalv":13896,"ĠIstat":13897,"Ġnumatyta":13898,"Ġbiznis":13899,"Ġlektuvas":13900,"ĠBaniuka":13901,"Ġnasta":13902,"Ġsiuksliu":13903,"Ġistisai":13904,"Ġgrindu":13905,"Ġpusvalandi":13906,",...":13907,"bt":13908,"sveik":13909,"taz":13910,"Ġton":13911,"isus":13912,"Ġsode":13913,"inantys":13914,"anna":13915,"Ġvu":13916,"Ġdegal":13917,"Ġbek":13918,"Ġgeju":13919,"okyb":13920,"elimin":13921,"uogos":13922,"Ġlif":13923,"ĠTes":13924,"ĠTitanika":13925,"Ġnesiskiep":13926,"iestar":13927,"ĠKe":13928,"ĠAN":13929,"Ġfestival":13930,"Ġturedamas":13931,"ĠMi":13932,"ĠMm":13933,"Ġgrud":13934,"Ġmokejimas":13935,"Ġrastas":13936,"butinai":13937,"Ġkarstu":13938,"audyti":13939,"ukis":13940,"uls":13941,"unsk":13942,"ĠRadau":13943,"Ġaktus":13944,"Ġpavaro":13945,"Ġpakest":13946,"Ġgyvename":13947,"Ġbeb":13948,"Ġprisip":13949,"ibrez":13950,"Ġkampu":13951,"ĠUk":13952,"Ġnaudojau":13953,"Ġidomiausia":13954,"ĠPrekes":13955,"Ġpadarei":13956,"Ġpadarysiu":13957,"Ġreikalauti":13958,"tiesa":13959,"Ġwa":13960,"Ġwtf":13961,"Ġsloga":13962,"Ġaw":13963,"Ġindv":13964,"Ġsudo":13965,"cioja":13966,"Ġnepatar":13967,"ĠWalk":13968,"Ġgreitas":13969,"Ġchilly":13970,"Ġbijai":13971,"Prek":13972,"Ġispaz":13973,"Ġpasidariau":13974,"Ġplanetu":13975,"Ġatsisveik":13976,"Ġvykdai":13977,"Ġskaiciuojasi":13978,"Ġaukstai":13979,"Ġmiltu":13980,"Ġsokir":13981,"Ġiskep":13982,"Ġkosmet":13983,"Ġstatusa":13984,"Ġtelpa":13985,"Ġsodyba":13986,"ĠChr":13987,"davosi":13988,"Ġzalos":13989,"Ġramybe":13990,"Ġbelen":13991,"skis":13992,"Ġstoras":13993,"eliauja":13994,"Ġkonkurentus":13995,"eliavo":13996,"Ġkaimynas":13997,"Ġlesas":13998,"Ġlesiais":13999,"Ġvidutinio":14000,"Ġnedidelis":14001,"Ġbalso":14002,"Ġmodelio":14003,"ĠPlanuoju":14004,"Ġpedkelnes":14005,"Ġlekst":14006,"Ġprisideda":14007,"Ġkaupti":14008,"Ġsugalvot":14009,"Ġleidziama":14010,"Ġatitinkama":14011,"Karta":14012,"Ġantakiu":14013,"Ġapsispr":14014,"Ġhuman":14015,"Ġpalyginti":14016,"Ġparsisiust":14017,"Ġataskaitas":14018,"Ġnudaz":14019,"Ġvyriausybes":14020,"auriai":14021,"zmones":14022,"Ġapsiverkiau":14023,"Ġcitrina":14024,"Ġbiudzeta":14025,"prendziau":14026,"Ġstrazdanu":14027,"Ġprostitu":14028,"Ġpirstus":14029,"Ġslamstas":14030,"Ġsubsidija":14031,"Ġvaidmeni":14032,"ĠMoterys":14033,"Ġakivaizdu":14034,"ĠKlaipedoje":14035,"37":14036,"92":14037,"Ad":14038,"Lai":14039,"Nei":14040,"Negaliu":14041,"Patinka":14042,"beveik":14043,"jektu":14044,"Ġkzn":14045,"Ġsarg":14046,"Ġveter":14047,"title":14048,"enn":14049,"entin":14050,"ory":14051,"oris":14052,"Ġisval":14053,"Ġisiver":14054,"Ġiskaitant":14055,"Ġisgalvo":14056,"ojame":14057,"Ġpasines":14058,"Ġpasiima":14059,"Ġpasamone":14060,"ĠiP":14061,"ijaud":14062,"Ġgalai":14063,"Ġgalejai":14064,"ĠTap":14065,"ĠNemaciau":14066,"...___":14067,"ĠPL":14068,"ĠDEL":14069,"Ġfar":14070,"tinese":14071,"Ġturting":14072,"Ġcol":14073,"Ġmoko":14074,"Ġmokate":14075,"Ġatsiver":14076,"buti":14077,"ykos":14078,"Ġskers":14079,"ĠGim":14080,"ipt":14081,"Ġnubl":14082,"Ġnueini":14083,"aidos":14084,"Ġspaus":14085,"ĠEks":14086,"Ġprieina":14087,"oney":14088,"udis":14089,"Ġpakilo":14090,"Ġpasakojimas":14091,"Ġvarau":14092,"Ġskaitai":14093,"Ġnenatur":14094,"Ġhomos":14095,"Ġpalap":14096,"Ġpalyd":14097,"Ġsupratai":14098,"indami":14099,"Ġdirbs":14100,"Ġpilvu":14101,"Ġbaisios":14102,"Ġvyrukas":14103,"Ġlaukiau":14104,"Ġpabuti":14105,"Ġkeistu":14106,"Ġeiciau":14107,"ĠDark":14108,"Ġpriklausys":14109,"Ġlaisvo":14110,"Ġlaisvos":14111,"Ġnumesti":14112,"Ġpatarima":14113,"Ġnarko":14114,"Ġzvake":14115,"Ġteciui":14116,"Ġrusiskai":14117,"Ġskiepai":14118,"Ġvisokiom":14119,"Ġfiziniams":14120,"Pasir":14121,"Ġsesei":14122,"Ġorganizma":14123,"Ġlaimingai":14124,"Ġnaturalios":14125,"Ġzaidimus":14126,"Ġpasitaik":14127,"Ġfotoapar":14128,"Ġmastymo":14129,"Ġlaidos":14130,"Ġdetal":14131,"Ġtaikomi":14132,"Ġpaskolu":14133,"Ġfinansines":14134,"Ġradija":14135,"Ġrekomenduoti":14136,"Ġsutikti":14137,"Ġelektronines":14138,"Ġdidziulis":14139,"Ġpalikt":14140,"Ġsamdomas":14141,"IAUS":14142,"Ġkuda":14143,"Ġsportuoti":14144,"Ġnusidaziau":14145,"Ġprocesa":14146,"Ġcigareciu":14147,"Ġuzpakaliukas":14148,"Ġpaskambino":14149,"Ġkaulai":14150,"ijuokiau":14151,"Ġzadi":14152,"Ġmakiazas":14153,"Ġsruogelem":14154,"Ġpacioj":14155,"Ġnesulaukiu":14156,"ĠJaponija":14157,"Ġmedicina":14158,"ĠNegalima":14159,"ĠIsland":14160,"Ġapkun":14161,"Ġautobusu":14162,"Ġsugalvota":14163,"ĠHotMess":14164,"Ġatspindi":14165,"ĠTiksliau":14166,"ĠMichael":14167,"Ġkonkretaus":14168,"400":14169,"=\"":14170,"Dazniausiai":14171,"Iesk":14172,"Jai":14173,"PU":14174,"cijoje":14175,"df":14176,"minga":14177,"niau":14178,"teli":14179,"vimas":14180,"Ġuog":14181,"Ġkiem":14182,"Ġkenksm":14183,"Ġmaf":14184,"tic":14185,"Ġbem":14186,"Ġgpm":14187,"Ġrengiasi":14188,"Ġprez":14189,"Ġpriskaiciu":14190,"tukst":14191,"orus":14192,"Ġiseinu":14193,"Ġpastos":14194,"uzau":14195,"ĠToki":14196,"Ġnesv":14197,"idomu":14198,"emo":14199,"ĠPit":14200,"ĠPuse":14201,"ĠSiun":14202,"ĠDBet":14203,"Ġfer":14204,"egs":14205,"Ġturinti":14206,"ols":14207,"vociau":14208,"Ġreikiama":14209,"Ġatsisk":14210,"ĠLiud":14211,"audino":14212,"ukams":14213,"ybej":14214,"Ġzinome":14215,"Ġimi":14216,"ĠReg":14217,"ĠAstr":14218,"Ġparduotu":14219,"ĠCek":14220,"Ġpakalb":14221,"Ġkalno":14222,"Ġdarbov":14223,"Ġnegalesi":14224,"kuriuos":14225,"eides":14226,"Ġseno":14227,"Ġsenelio":14228,"utomobil":14229,"Ġskirtinga":14230,"iauru":14231,"Ġkvitus":14232,"Ġpardavima":14233,"siuo":14234,"Ġbaisiausia":14235,"Ġnegauna":14236,"Ġlikus":14237,"Ġnepatog":14238,"elioti":14239,"Ġkartui":14240,"Ġpagarba":14241,"ĠKazka":14242,"ĠGriz":14243,"DDDD":14244,"Ġsugebu":14245,"Ġpamates":14246,"Ġsituaciju":14247,"Ġstraipsniai":14248,"Ġskaiciuok":14249,"Ġskaiciuojamas":14250,"Ġsokius":14251,"Ġsuzino":14252,"Ġtvarkoj":14253,"Ġtvarkyt":14254,"Ġjauni":14255,"Ġbuhalterio":14256,"Ġpasiseks":14257,"Ġisigyj":14258,"Ġkapiniu":14259,"Ġausines":14260,"Visos":14261,"Ġgarsai":14262,"Ġkomentara":14263,"Ġisduoda":14264,"Ġsneku":14265,"Ġdidziausiu":14266,"Ġdefek":14267,"Ġvidurio":14268,"Ġbespalv":14269,"Ġapsaugoti":14270,"Ġpapasakosiu":14271,"Ġelgesys":14272,"Ġdevyn":14273,"Ġsandeliu":14274,"Ġdarzoviu":14275,"Kazkada":14276,"Ġsiksn":14277,"Ġperduoti":14278,"rrr":14279,"Ġpavadino":14280,"Ġekonomines":14281,"ĠPetras":14282,"iliate":14283,"Ġamerikieciu":14284,"Ġlaiptu":14285,
[...]
