#version: 0.2 - Trained by `huggingface/tokenizers`
a i
Ġ p
a s
Ġ t
Ġ k
a u
Ġ n
Ġ <
O S
i s
Ġ s
i n
i e
i r
a r
i u
a n
Ġn e
a l
Ġ m
Ġ v
t i
Ġ d
Ġ b
B OS
E OS
e s
o s
u s
i k
Ġ ir
Ġ g
a t
Ġ j
e r
o k
a d
e t
a m
i m
e n
u r
. .
i au
e l
Ġ r
u o
i a
Ġ l
Ġt ai
Ġp r
t u
o r
Ġ is
Ġs u
a v
a z
i ai
a k
i t
o j
e j
o n
e i
Ġ z
a b
a p
o m
Ġk ad
e ik
Ġk ai
Ġp as
Ġv is
Ġ i
i j
Ġb u
ie k
Ġm an
Ġg al
r a
ie n
e k
i o
Ġt ik
Ġ at
o d
i l
k ai
u z
t a
ai s
Ġ T
au g
Ġne s
Ġ N
Ġ ar
k a
ie s
Ġd ar
i d
e m
Ġ uz
.. .
Ġ P
Ġk ur
Ġp a
an t
Ġb et
Ġ ap
c iau
Ġ K
Ġ A
Ġ S
Ġ y
iu s
au s
Ġ o
o g
Ġ D
k u
Ġ f
Ġ -
Ġp at
Ġkai p
y s
t in
Ġt ok
ab ai
Ġy ra
Ġn or
e g
Ġt ur
Ġ as
Ġ M
o l
Ġ c
u m
e d
k as
av o
Ġp er
Ġj au
y t
k o
Ġg er
p r
Ġ (
k s
i g
v o
Ġn uo
Ġg r
c iu
y ti
Ġm ok
Ġ B
iau s
Ġ J
an d
Ġ I
Ġr eik
in g
i os
Ġ V
o t
Ġk az
im a
Ġr as
ij a
Ġtai p
Ġz m
Ġat s
b u
t r
Ġj ei
Ġ 1
Ġp ar
m a
Ġ L
e is
g al
Ġv ien
Ġ "
Ġl abai
Ġk as
Ġd aug
Ġk ok
y v
en t
et u
b a
e ti
y k
g i
Ġs k
iu r
Ġ G
Ġ :
u os
ad a
Ġk ar
n a
t as
au d
t o
in a
t e
ai p
oj e
Ġc ia
g u
Ġne t
Ġ O
Ġn iek
u k
in t
Ġk l
im as
Ġt o
i z
i p
Ġbu vo
Ġt a
Ġp l
Ġtik r
Ġk it
y b
im o
ej o
am a
Ġs us
ai k
au k
u l
Ġne p
uo j
Ġap ie
m as
Ġp o
in k
Ġt r
ti k
Ġras e
i v
r as
Ġs avo
l a
Ġk a
tu v
0 0
ej au
Ġs v
t ai
Ġn u
Ġp ir
ie m
Ġt en
i as
t is
i am
ab ar
u n
e z
Ġ ant
Ġ ,
Ġ 2
a c
d z
Ġd r
iai p
Ġg yv
Ġv er
ij os
Ġzm on
o v
Ġk iek
Ġn us
Ġt u
Ġf il
Ġgal i
Ġd el
es n
e p
ai d
y m
Ġman o
s l
Ġj u
ĠM an
Ġ in
Ġs ak
Ġz in
Ġp ad
Ġkaz k
it e
r od
Ġ im
Ġp an
Ġgr az
_ _
Ġl ai
Ġne b
Ġv eik
Ġreik ia
e v
iai s
Ġtikr ai
y g
Ġs av
Ġd al
Ġ R
in ti
Ġ ak
Ġi d
Ġp av
Ġk el
Ġ es
Ġnor s
Ġv al
in ka
Ġne r
Ġj is
Ġj i
in e
au j
Ġs p
i c
Ġb us
is kai
Ġpr ad
en d
z in
od el
Ġt ies
Ġd abar
Ġbu tu
Ġt as
Ġ E
oj u
Ġuz s
Ġm az
im u
Ġm etu
Ġzm og
Ġis s
m en
Ġpr ie
Ġpa ti
ĠT ai
Ġ ;
u p
Ġne m
Ġtur i
ĠA s
ie tuv
Ġs iaip
Ġpr o
Ġk r
s t
Ġj ie
on e
y r
Ġpar d
Ġ e
Ġniek o
Ġne i
er g
am as
ien a
Ġne ra
es i
Ġ C
Ġt iek
u d
Ġp ak
Ġgyv en
Ġz iur
v ar
uo ti
l e
Ġm et
am s
t or
Ġar ba
Ġp az
en g
iem s
Ġat rod
ĠB et
e ciau
Ġp ap
- -
an k
a g
in u
in es
Ġb e
t at
Ġap s
Ġgal ima
j e
Ġpr ek
Ġd id
as i
Ġs al
e c
om a
Ġt ada
t os
Ġ ik
el e
Ġj o
a ti
Ġk al
y n
Ġpa gal
Ġ 3
ĠI r
is k
uo d
us u
Ġdr aug
u i
t ar
Ġm at
Ġdar b
Ġpas ak
en k
Ġbu ti
iaus iai
os i
oj a
ir b
an g
t us
io g
Ġkl aus
Ġne l
Ġv ar
l aus
Ġvien a
Ġ Z
Ġir gi
ai n
Ġd az
ĠJ ei
Ġmok es
c ia
in iu
.. ..
Ġ au
v ai
Ġk om
Ġb l
Ġs kai
Ġv el
Ġp us
Ġs i
is t
in ig
Ġp am
Ġt au
y d
o ti
Ġs iu
Ġm en
Ġne gal
ĠG al
ej e
t ais
m ok
Ġv ai
ej a
Ġt ar
ir s
z iu
Ġk on
y je
Ġs it
z d
Ġman e
Ġj os
m e
Ġdaug iau
v a
Ġp inig
Ġatrod o
j u
Ġvis kas
l iu
uo t
b et
Ġpr is
ek s
Ġvis i
Ġk o
v eik
d ar
in o
Ġpr ies
k ur
Ġne n
Ġpr as
i b
Ġk am
Ġ U
Ġpat s
m o
Ġg au
ei d
kai p
Ġjei gu
av au
Ġkazk ok
Ġv ie
Ġzmon es
Ġik i
e b
o b
ĠL ietuv
Ġat v
k r
Ġn aud
ĠA r
Ġne zin
on es
g r
Ġtok s
c ius
e it
os e
au l
ej u
Ġ 5
! !
Ġpat inka
Ġ an
Ġtok ia
om is
ek l
Ġkur ie
Ġt uo
Ġ .
s i
Ġ h
Ġid om
Ġs en
am e
Ġger ai
Ġis l
Ġp al
Ġs t
Ġties iog
) .
Ġne bu
u t
Ġ F
Ġ H
am u
el is
Ġsu pr
Ġbu na
ĠN a
yb e
Ġtok iu
in i
in is
k ad
Ġm es
eik ia
Ġpas ir
oj o
Ġpir k
Ġi l
Ġl ab
Ġver sl
Ġsu n
Ġvis a
Ġman au
uoj a
t er
ĠP r
iaus ia
el iu
Ġpa j
Ġnet ur
c iai
Ġnes u
Ġdaz n
Ġn auj
us i
U R
ok iu
Ġpad ar
y l
ĠV is
ed a
Ġpl au
v is
Ġb r
1 0
Ġk i
Ġd iena
at e
em a
Ġkur i
Ġsk ir
im e
Ġbu v
in in
i al
h e
Ġ ais
Ġb al
n es
Ġes u
Ġdal y
Ġd v
Ġf or
ar b
g a
m u
Ġt eis
am os
o p
Ġvis ai
Ġpan as
Ġtur iu
ir d
bu t
__ __
ing a
Ġbu t
ad in
Ġas men
l t
er n
e al
iau r
ir k
as kai
ĠD D
in d
Ġ al
il d
ĠT ik
oj au
Ġfil mas
Ġpap ras
f or
Ġ or
Ġt am
Ġkok ia
y ks
Ġj uos
Ġgal v
ĠN u
Ġm eg
c ija
Ġvis ka
ak ar
) ,
Ġ1 0
Ġm erg
Ġk ol
am i
Ġkar ta
Ġzmon iu
a j
Ġger iau
Ġreik al
Ġats ak
uoj u
y ta
V M
ĠN es
Ġm in
Ġpati ko
a ciau
id u
el i
v z
m al
Ġzmog us
yb es
Ġj og
Ġkiek v
es iu
c io
Ġd irb
Ġj a
Ġveik la
Ġlai ko
Ġt ie
en u
ij u
Ġnuo m
Ġpar as
l os
s n
p er
Ġvien as
id ar
Ġt avo
Ġ ?
y tu
is tr
ap n
end r
t es
Ġnor i
Ġ 4
b l
ant is
ĠP VM
Ġd ien
Ġm ie
" .
an tu
im ai
Ġpas ku
eis k
in au
Ġv aik
im us
ĠN or
m et
Ġnel abai
s tu
el es
ĠI s
Ġk v
t ies
Ġ w
v es
Ġbu d
ĠP as
Ġz od
v er
n u
ĠK aip
Ġk n
eg istr
Ġs au
Ġne k
Ġnezin au
Ġs l
Ġpas l
is ku
Ġ el
ar d
Ġ )
Ġ int
Ġkit a
Ġs askai
Ġj us
Ġn am
Ġb ent
-- --
Ġne pr
as ar
p l
et a
Ġt ol
Ġne is
M an
ie p
Ġb and
v al
Ġne d
m es
Ġkur is
Ġ ati
Ġ a
ok s
Ġpaz iur
Ġv a
um s
Ġbl og
uos e
el n
dz iu
ik a
Ġn a
oj i
Ġs m
ĠS veik
Ġpard av
k ar
Ġp il
Ġmet us
Ġkar tais
m an
Ġkaz kas
Ġt os
Ġl yg
Ġm as
an c
Ġta ciau
ot er
s u
s iu
Ġ2 0
in iai
ik laus
l es
Ġkaz ka
ing ai
Ġin d
Ġil g
an ti
a a
um a
Ġvis ada
Ġsak o
Ġs tr
u ti
Ġb endr
Ġkok s
c h
00 0
Ġkur iu
ĠN e
c ijos
i im
Ġtok ie
y ma
Ġz iaur
av e
Ġ ab
Ġkaz kaip
u g
od o
Ġger as
Ġnor iu
ĠSveik i
Ġp or
Ġlab iau
Ġsav ai
in io
Ġsp al
om s
y p
Ġs apn
ĠT aip
y mas
ej us
Ġper s
uo tuv
t iek
Ġ it
T ai
ing as
ym o
Ġbuv au
Ġs er
ai g
UR L
y z
ks t
t ur
j a
tin g
in as
Ġ ...
Ġtok i
Ġt odel
Ġ '
Ġk odel
Ġl aik
B et
ys iu
Ġat l
Ġmok yk
Ġsu k
I r
ĠA n
Ġl ietuv
Ġsu d
Ġb ais
Ġne g
idu al
at au
Ġkai n
Ġdarb o
Ġsu tar
am p
is ka
te b
Ġkad a
ei g
Ġs ek
Ġnor eciau
Ġtr up
er s
am ai
Ġvis tiek
Ġs ti
Ġpas k
Ġ: ]
Ġais ku
? ?
Ġm ir
ur n
Ġpas aul
Ġs e
Ġl ik
Ġkn yg
z iau
Ġv yr
Ġatv eju
A s
Ġnus ip
Ġuz d
ar s
p as
at s
ar iu
iv idual
Ġk uo
Ġpro c
Ġv ad
Ġju ok
Ġisl aid
et e
Ġnor mal
to v
l o
i tik
Ġl auk
Ġg am
Ġpard uotuv
Ġprek es
Ġp ab
Ġp vz
c i
Ġtar p
ĠK ai
ie v
Ġnen or
l u
Ġt ev
Ġpinig u
on u
Ġm ed
iaus ias
Ġpir ma
Ġki tu
in ai
l as
Ġgal iu
on a
Ġ 9
Ġpasl aug
Ġkok i
" ,
y ciau
Ġner eikia
Ġv akar
ais k
Ġpr iv
Ġval g
ok ie
S D
ok a
Ġmok eti
oj as
n e
yt is
Ġint ern
Ġk eis
Ġmok et
ekl ar
Ġkur ios
ac ija
ĠG er
Ġd em
Ġj am
Ġl eng
Ġ ei
o z
o c
Ġ 6
dz ia
tu m
uo l
Ġvis us
var k
ti m
in ius
Ġzin au
az iu
Ġtrup uti
Ġkal b
v ir
Ġpir m
ot e
ĠC ia
Ġkom p
Ġ 8
ĠI V
Ġm usu
Ġ 7
um o
Ġd u
and ien
int is
an a
Ġnep as
Ġpro bl
ĠMan o
Ġgraz u
Ġversl o
l og
ks ciau
Ġnep at
t om
tin e
Ġ W
Ġ am
at a
Ġs ur
ad ien
Ġap l
an s
for ma
ip o
Ġb ev
Ġsu mok
Ġm oter
Ġsu t
Ġkok iu
J ei
Ġniek as
iam s
o f
em s
r ai
Ġveik los
el io
Ġats ir
Ġj uod
en tu
Ġm us
ej ai
ĠD ar
Ġind ividual
Ġgr eit
e ina
Ġb ei
i f
id ur
tin a
Ġis tor
kai s
ĠT ur
Ġtik sl
Ġ Y
Ġdazn ai
Ġt ema
o o
Ġd eklar
Ġv asar
al u
ij oje
Ġt uos
Ġz em
Ġm ais
Ġvis iskai
Ġsit a
Ġtok io
Ġim ones
esn e
ar as
Ġsu kur
u b
ym u
A I
ie j
en s
Ġidom u
Ġj uk
Ġp eln
Ġkar tu
i ant
ok ia
z iur
p a
yk d
Ġ ies
on as
Ġn uos
Ġkl ien
ei p
Ġv irs
Ġger a
r e
Ġpa g
Ġc h
Ġsv eik
au p
on iu
Ġm ama
Ġtok ios
Ġim one
Ġskai t
ien as
k ir
u ok
Ġd ir
Ġtur etu
M I
um as
Ġg im
Ġn ak
au ti
Ġf ak
Ġmen esi
Ġs iek
in ks
Ġnes am
Ġnuom one
an gi
iam e
an ciu
kai t
esn i
and a
et as
Ġj ai
Ġj usu
s ta
u ik
ĠJei gu
Ġpr iklaus
Ġg i
is kas
Ġb ij
Ġpr og
Ġis vis
Ġbev eik
am b
em is
eisk ia
Ġnesu pr
esn is
Ġ1 5
ol og
aip sn
ok um
aus i
Ġv eid
ĠL abai
Ġn ur
ek o
: -
Ġpr a
Ġin forma
el b
m os
Ġl ais
k us
Ġpa gr
il n
es ti
en a
Ġe ur
Ġpa c
Ġkai na
ot o
es t
Ġpl auk
ai l
G al
er a
eg al
o u
k im
Ġpa tik
Ġzmog aus
Ġn um
an as
Ġs n
Ġt em
Ġis g
iv ai
yt e
Ġr ink
Ġo f
om as
Ġd okum
Ġvis u
in s
Ġr ekl
ĠK az
ias i
at ur
ej as
ij as
Ġsak e
Ġs r
Ġy p
es io
un g
r auk
l ap
on o
ie r
Ġj ok
ĠLietuv oje
Ġne tik
Ġvar d
j au
t oj
Ġs ed
k i
ĠG r
Ġb an
Ġv ir
Ġr od
iu osi
Ġnem ok
Ġplau kai
D D
Ġr eal
Ġv and
ik os
Ġb at
Ġnegal i
av imo
iu l
Ġj okiu
Ġsu g
ĠD abar
Ġtol iau
Ġt ap
et ai
um p
Ġfil m
z ia
Ġr im
Ġpaj amu
Ġki ti
Ġpat eik
Ġgraz us
Ġr an
ir p
Ġsus ir
tin ai
Ġ ad
Ġs il
ĠB u
Ġpat ar
ĠS u
i ti
l ai
es e
ed u
i tu
Ġl ig
Ġpav adin
m m
A B
Ġ1 00
Ġner eik
Ġdar yti
Ġnebu vo
Ġm ies
ĠV MI
Ġvis as
pr as
Ġpasku i
P r
ant ys
ai la
al o
k e
Ġziaur iai
Ġis p
Ġpinig us
Ġr egistr
Ġv aid
Ġpr od
et um
al us
in os
ĠA t
Ġtur but
Ġpas idar
iu i
om e
Ġdraug e
Ġm el
Ġval st
en ka
oj ai
Ġpl an
v e
ys i
an oma
Ġj iems
eis ti
Ġl iu
Ġfil ma
Ġgau n
ej imas
Ġnusip irk
Ġsv ies
y ba
ciau s
Ġp abai
Ġpam at
tr auk
Ġsi tu
Ġt ave
Ġpat ys
Ġpus e
Ġsun ku
Ġn ar
Ġg ird
Ġ: )
Ġsav e
it ai
Ġsv ar
r o
Ġt ink
Ġpat ir
r u
Ġtok ius
Ġj aus
Ġd om
Ġpas ik
ĠS iaip
Ġats is
Ġ /
Ġv ykd
Ġdazn iausiai
Ġkiekv iena
ĠM B
Ġprod uk
h t
tin is
Ġstr aipsn
us iu
ad o
Ġi v
ej imo
* *
Ġmokes cius
ĠK ad
in c
Ġnetur i
Ġ em
ic h
Ġmokes ciu
ivai zd
A r
Ġnes i
om u
ĠK as
d aug
Ġman es
Ġgal va
Ġ en
Ġpak laus
iz iur
Ġmie g
z i
Ġplau ku
e e
A S
Ġzod ziu
Ġv os
Ġtai s
or iu
Ġs pr
al b
Ġd aik
ku i
Ġprobl em
et is
t ab
ĠJ au
Ġkit aip
in ta
g an
Ġdarb uot
Ġj ums
or t
Ġi vai
Ġkazk ur
d o
ĠI n
Ġp uik
ĠN iek
ĠL t
Ġklaus imas
Ġt ipo
Ġb eg
Ġpas id
ĠLietuv os
Ġs im
Ġfil mu
____ ____
Ġsaskai ta
Ġgal im
N a
Ġz v
' '
Ġdaly kas
v os
Ġt he
uo men
imu i
ĠK iek
Ġgr ei
yks ta
Ġniek ada
Ġt ams
ar t
Ġskai ciu
ez inau
h al
uo ta
Ġ aug
Ġsv arb
im ok
iaus i
ai na
ob il
Ġis tat
j ei
Ġau ks
Ġm il
d avo
Ġsu l
Ġkl as
Ġmaz iau
Ġvel iau
er iu
Ġis v
Ġkok ie
Ġvasar a
im enu
Ġ3 0
Ġm yl
is i
yt as
---- ----
el iai
Ġsu ma
ĠU z
Ġp ol
Ġprek iu
Ġv id
Ġreik es
Ġsti pr
Ġ eg
k it
Ġuz t
or s
Ġen erg
Ġver s
Ġvis os
iek a
er is
k l
ĠP SD
in eti
iau b
an au
Ġsp ec
k iai
Ġpo p
ad au
Ġpeln o
Ġs ia
ol iu
Ġ +
Ġs ok
al a
Ġkit as
at o
oj ek
im in
tin es
auj a
Ġneb log
ei ti
Ġz enk
uk r
Ġsi andien
: )
ov an
av es
. ,
Ġau tom
yv en
1 9
v au
ie g
Ġr ank
Ġis mok
Ġis ras
uod a
Ġ ..
Ġm al
it a
iaus iu
Ġziur ejau
Ġsk an
Ġivai r
Ġpor a
Ġgau ti
on ai
l i
Ġm aciau
h a
Ġp s
Ġnegal iu
hal ter
Ġr ez
p s
Ġan ksciau
yk it
Ġkon s
Ġpagr ind
Ġ [
Ġpr ak
Ġp ig
. -
Ġpriklaus o
Ġgal etu
ĠN et
Ġes i
Ġ 0
Ġliu d
on d
Ġkur ia
ob ija
es im
ei dzia
Ġnetur iu
Ġknyg a
ĠT he
ing i
al i
Ġj as
ym us
Ġvie ta
ĠMan au
Ġv adin
Ġt e
Ġuzs ien
Ġties a
Ġpanas iai
Ġsiu n
ĠT aciau
Ġkok ios
Ġneb us
Ġne uz
Ġsu zin
Ġmok sl
Ġ1 2
Ġ x
I s
au n
in imo
Ġ: }
Ġpap ild
Ġr ek
Ġp ai
tin iu
Ġkv ep
in ej
Ġis k
ĠU AB
u u
od e
Ġne gr
Ġpr it
Ġkl asi
Ġmet ais
as ti
Ġr ud
al iu
Ġfil mo
Ġlai ka
Ġs tu
en ta
Ġuz dar
Ġkiekv ien
Ġk un
in tu
Ġb aig
eg stu
Ġk os
at u
Ġkal ba
is ti
a y
Ġprog r
Ġpr ojek
ele f
az n
ac ijos
Ġs io
Ġ od
Ġ ang
Ġtik iu
val g
Ġt inka
ys t
Ġne v
Ġgraz iai
Ġt vark
Ġreik s
Ġs tat
ik o
Ġis kar
Ġsiu o
Ġr eiskia
Ġtur eti
Ġdal is
T ik
Ġpa aisk
Ġjau n
Ġzin o
Ġkar tus
z io
eik s
Ġkar t
t yv
Ġkel is
Ġgyv ent
Ġprad ejo
Ġvad ov
gal v
Ġmeg stu
Ġnur od
Ġplauk us
Ġm ei
Ġspal va
b e
ar a
ĠJ o
as t
ol i
in us
Ġne ap
Ġtr ump
esn iu
ie d
ĠNor s
Ġt ad
av imas
Ġneb ent
h n
ak o
ent as
es u
inin kas
Ġr eg
Ġe ina
N u
oj us
ĠT ies
Ġor gan
ak c
Ġkel i
K aip
t oje
im i
Ġr us
o w
Ġistor ija
Ġkazkok ia
Ġ av
Ġl t
Ġs am
Ġne ats
Ġmok yt
Ġant ra
Ġpas iul
Ġsk iep
z iai
ing o
Ġbu halter
Ġpas is
p u
t adien
Ġyp ac
Ġnem az
Ġnaud oj
k iu
Ġ20 1
Ġbut ent
ĠJ us
m i
in imas
Ġnepat inka
Ġvis ok
is tu
at os
Ġdar o
Ġg an
iej i
Ġvai ks
Ġz urn
Ġpr iem
it as
Ġlab iausiai
and u
ĠK a
dz io
Ġuz k
Ġsavai te
yb os
Ġf iz
? -
I N
Ġt elef
Ġtar kim
i ama
Ġ2 00
Ġkel iu
Ġpus lap
Ġzin oma
Ġdirb ti
Ġklasi ok
Ġd ain
ĠK ar
ek tr
il g
Ġv y
Ġger o
Ġsus it
Ġpasir ink
Ġzmog u
au ks
r az
et o
ar g
var bu
ov e
Ġs iaub
inin kai
I S
Ġd ur
Ġis ig
ĠP er
Ġreik tu
Ġk ap
Ġkok ius
u ju
Ġt el
esn es
al ai
Ġs ist
Ġmokyk la
Ġsupr antu
Ġr aud
Ġvis iems
Ġv ais
P as
tin ka
Ġpadar yti
Ġsk r
Ġbr ang
d r
Ġ5 0
Ġaps kai
!! !
uo tu
Ġkad angi
Ġpasak yti
er e
Ġvien o
Ġk vai
2 0
ek it
Ġtr u
Ġleng v
ĠTai gi
s is
el ius
Ġkam b
os t
I E
Ġk oj
ei v
Ġkazk ada
Ġskir tu
in ink
Ġg aila
on us
Ġpus es
Ġvai zd
in ys
k os
k iau
iim ti
. :
Ġ aus
er v
u c
Ġsu m
Ġb ai
r os
ang a
Ġspec ial
Ġpagal v
im ais
Ġapl ink
Ġnak ti
ip az
Ġl inks
om i
yk ite
k ite
uo tas
ab uz
Ġk et
Ġpro f
it o
Ġm uz
on s
Ġeg z
b r
Ġmen es
iu n
Ġpas teb
Ġ' '
Ġ ~
ĠD el
Ġk at
Ġs es
i ar
Ġin ves
Ġsit as
Ġv aziu
Ġgal but
ĠB e
Ġpar od
Ġak c
Ġ eks
Ġg ar
Ġsk aud
ziau g
Ġk ab
en iai
en tr
Ġs od
Ġnebu tu
Ġuz p
Ġorgan iz
ĠT r
Ġsu p
Ġuz m
Ġr u
Ġjau ciu
Ġkit os
Ġreik etu
Ġautom obil
ra f
ez e
Ġmaz ai
Ġilg ai
U S
Ġk il
Ġpirk ti
Ġne at
Ġvis o
Ġdr aud
un k
Ġziur iu
Ġpaj amas
ie ma
Ġv akc
Ġb ur
Ġv at
Ġgyven ima
Ġmaz daug
Ġkaz ko
ĠT ada
Ġnegr az
Ġlai m
Ġdar ba
uk us
Ġt er
Ġs ird
ĠDD D
Ġtik ra
Ġak is
Ġbij au
Ġinforma cija
Ġuzs ak
Ġiskar t
Ġap mok
Ġnuo l
Ġmerg ina
isk i
r es
Ġpat og
tr au
ati ko
in eja
tin i
Ġstu d
Ġval d
Ġj ur
ĠJ is
Ġt us
an ta
em e
ĠD aug
m in
Ġkar to
Ġasmen iskai
c om
Ġs tov
Ġm o
Ġsu dar
Ġg yd
y la
Ġdv i
Ġis t
Ġ( :
yz dziu
Ġn atur
ĠTur iu
Ġies ko
Ġkamb ar
ĠP a
Ġdaly ku
Ġk od
ĠP ir
Ġsutar ti
n et
au z
Ġs tai
Ġkuriu os
Ġ1 9
Ġbud u
Ġati dar
ĠC h
ing u
Ġnu p
Ġuzd irb
Ġdr abuz
ul t
iv er
Ġpav y
m er
Ġk av
ra g
Ġnor ejau
tor ius
Ġislaid as
N es
Ġim anoma
ak e
Ġziur et
T aip
Ġver ta
Ġgyven imo
Ġ1 3
Ġne gu
at or
Ġi g
ij ai
Ġid eja
inin ku
Ġvers la
u v
ĠA p
Ġn ag
Ġvis okiu
Ġel ektr
Ġps ich
N e
ent us
V is
d av
Ġgyven ti
Ġz al
ik r
ĠD r
Ġim on
al d
Ġj uo
Ġtr ec
Ġt eks
Ġr am
ĠS i
. "
Ġt eko
ĠB r
er i
eg a
n is
Ġb el
Ġdaug uma
ik s
Ġnep am
Ġd ek
k es
Ġnesam one
tu i
ok as
s p
ij oj
D ar
g os
Ġf ain
Ġkazkok s
Ġsu v
Ġuzs id
Ġs ie
Ġgreit ai
ĠP o
5 0
d ien
Ġn ul
Ġdar yt
Ġidom us
em p
Ġpl at
P M
Ġpr id
Ġis r
Ġdien os
Ġ and
Ġsiu l
Ġnauj a
Ġs is
ĠS k
Ġkel ias
Ġkr auj
Ġindividual ia
Ġvie tos
l is
s ti
Ġr yt
ej ima
Ġsupr atau
al as
Ġz aid
om end
Ġvis ko
Ġvis ur
l y
Ġv ez
Ġkur io
ĠA ciu
Ġin f
Ġies k
Ġt es
ĠN ezinau
Ġsus ij
Ġats kir
Ġd iev
ĠP at
A R
vir tin
ir ks
ĠI d
Ġgr iz
ĠV iln
Ġt ec
ij au
Ġtr auk
Ġnem anau
Ġmokyk l
ĠA isku
Ġpa ciu
z as
Ġp enk
Ġprad eda
Ġl og
Ġgal e
ĠD iev
ĠJ usu
v m
Ġprek e
Ġg ars
Ġpab and
Ġn amu
Ġblog ai
s k
Ġt eik
Ġpr an
Ġs aug
ĠN ep
Ġmokes ciai
Ġprad ejau
ĠY ra
ik as
ĠN em
iu kas
et ain
Ġkl aid
Ġner v
Ġpras id
Ġkit us
& #
z n
!! !!
Ġsal d
ej om
ĠL T
Ġpras me
Ġpanas aus
as ak
in et
Ġkit o
Ġgal eciau
ok i
Ġsus idur
us ios
ei dz
Ġner eal
au t
Ġb ern
Ġgr up
un d
Ġvand en
m uo
Ġk ul
Ġtai gi
ĠK r
Ġd uomen
ĠK ur
Ġs tor
ar k
Ġy ou
n ek
Ġkom ent
l ius
Ġd eg
Ġgal ite
Ġnormal iai
om ai
Ġjok io
Ġk irp
Ġgal o
io t
Ġtau p
Ġv yksta
ĠN uo
Ġf in
e o
Ġser ial
iu ter
el iau
A V
Ġl ap
Ġgraz i
Ġproblem u
vo ti
iam as
Ġir od
Ġl up
uoj i
az ia
Ġpas iek
Ġvar iant
Ġ *
al iai
ĠJ uk
Ġsav es
Ġnegal ima
Ġdv as
Ġziur eti
Ġkon kur
Ġ1 8
L t
ĠLietuv a
z ius
ĠJ ie
Ġdir ba
in iais
Ġnam o
uos i
Ġpasak e
A n
Ġnep ad
Ġj ais
Ġpas it
ĠV ien
Ġtur ejo
Ġl b
ej es
Ġf ir
Ġak ys
Ġzin ot
kr itai
ĠTies iog
Ġsk elb
i bu
p or
ym ai
Ġvie toj
n ai
Ġnemaz ai
ar e
Ġsv aj
Ġsv etain
Ġto bu
Ġs ij
Ġdem esio
ie ju
Ġd es
Ġpasir as
ĠE ur
ĠN E
Ġnam ie
ig ht
Ġklaus imu
Ġg el
Ġnes us
Ġfak tur
Ġis d
od ziu
Ġmaz a
Ġd ovan
p o
Ġ om
Ġp vm
ur iu
Ġf oto
ul tat
Ġs ma
Ġr e
Ġnus tat
Ġsak au
s im
Ġfor um
Ġpriv al
f ek
Ġkr eip
Ġfor ma
Ġdien as
Ġd ziaug
Ġg at
Ġr ys
ĠG PM
ie b
Ġ ai
at ai
Ġse im
Ġsvar bu
Ġlai kas
Ġl ak
Ġsu b
ĠT u
ul k
Ġnus is
Ġl ov
yb iu
Ġmat au
Ġsus ig
Ġprad eti
Ġkos m
Ġm u
Ġger iausia
t ra
el ia
o og
Ġ ek
Ġr em
tis kai
Ġlai ku
Ġzmog ui
Ġdien u
Ġp ies
ĠK al
Ġdid ele
ĠTik rai
Ġne dar
tin k
Ġmok a
ik ti
Ġper k
kai ciau
Ġtur ejau
Man o
ĠZ iur
Ġar b
ĠZ m
for m
K ai
Ġg arb
Ġpard uod
Ġniek ur
Ġmat yt
ys te
Ġpac iam
ie z
I K
Ġk or
Ġs ez
Ġv amp
Ġg ir
Ġkok io
Ġ; }
d avau
ĠN eb
ĠV a
Ġnu v
Ġmas t
d amas
an o
uo tis
ien os
Ġgalv oju
Ġrim tai
im s
Ġr up
A U
m ai
ok ai
en c
Ġkon kr
Ġmerg ai
Ġs aul
ĠZ in
Ġp ild
ot as
ent ai
ar u
Ġc entr
Ġbais u
Ġd zin
Ġg av
Ġgrei ciau
ir as
ciaus iai
Ġnus pr
Ġtu kst
Ġveik s
Ġpop ier
A L
a x
Ġvien os
C ia
Ġkai m
eg u
ot is
Ġpaziur et
v el
Ġ X
an u
Ġpr al
n ors
ie t
Ġnuos tab
u na
Ġv ies
Ġg ul
.. ...
Ġras ti
n iu
Ġm is
Ġrez ultat
Ġmeg st
Ġa ciu
Ġdraug u
Ġgalv os
Ġnuo trau
Ġspr end
int ys
Ġ, ,
Ġju d
Ġkazkok i
j i
Ġs ku
r y
Ġ er
h o
n as
Ġmin im
Ġ ag
Ġkain os
Ġis b
Ġpat al
ar ba
ĠM ok
Ġpinig ai
Ġspal vos
er as
esn io
Ġnenor iu
Ġg aus
Ġnaud oju
Ġmais to
yzdziu i
Ġmet ai
Ġst eig
o ok
kai ciu
ks ta
Ġkain uoja
ĠT odel
in ima
ie ciu
iu os
Ġl es
Ġgyv un
) )
or i
ap ras
Ġap ras
Ġislaid u
A N
ing os
in tas
an cia
Ġm ums
Ġr odo
Ġvai ku
Ġparduotuv e
Ġtev ai
S iaip
l iai
u te
Ġtec hn
Ġl aid
id om
Ġpaj amos
Ġkomp iuter
Ġpaz ym
Ġinforma cijos
dz iau
Ġpasaul io
v ies
in am
ol is
Ġdal yk
m us
al g
es tin
om os
Ġvie toje
ok ios
Ġr etai
Ġl ank
Ġsus imok
Ġparas yta
Ġd y
Ġt ame
ais ku
Ġneb e
Ġgyven ime
an gu
iskai t
Ġnesupr antu
an cius
of obija
Ġkar ant
anc ios
Ġpaslaug as
' s
Ġd et
Ġreik ejo
yr us
ĠAr ba
ik u
isk ir
Ġmil ij
Ġsen iai
ik e
Ġk ep
Ġsil p
Ġp os
it r
um u
Ġats idar
1 2
Ġt h
Ġne im
Ġd urn
Ġsn ek
Ġ un
tin iai
Ġuzt enka
Ġv idu
Ġf ot
Ġdid elis
ĠS p
Ġpabai ga
ok it
Ġs ant
Ġkom pl
Ġkiekv ienas
Ġm inu
Ġkazk iek
Ġvid eo
en ciu
Ġis im
Ġei ti
l et
Ġsv ent
Ġliud ij
c iais
ĠK odel
Ġras o
Ġ et
Ġprad ziu
ik ai
Ġis ivaizd
Ġo b
Ġnet gi
Ġm intis
Ġ1 4
Ġvir us
Ġne ver
Ġnem egstu
Ġg ana
Ġtai k
Ġtok ias
Ġtikr iausiai
Ġpir mas
Ġtuo met
T he
j os
Ġk ak
Ġl ink
al e
Ġkr u
Ġkv ap
t ak
Ġtikr uju
ank amai
Ġdid z
9 9
ĠE su
Ġgyven a
Ġprobl ema
ĠKaz k
/ /
tin io
Ġsitu acija
Ġir as
i oj
Ġak tor
Ġprogr am
. )
y liu
Ġi z
Ġais k
Ġzmon ems
Ġindividual ios
Ġpask ol
I I
Ġpr i
ĠV er
ĠE S
6 0
Ġsk am
Ġn ukr
Ġs h
n i
Ġpl ius
tik os
Ġgr oz
vai zd
ĠAt s
Ġp ama
isk us
Ġpasak yt
Ġpac ios
Ġger u
Ġtr is
Ġau kst
Ġkas dien
Ġinf o
al is
Ġd e
Ġkel eta
Ġziur i
Ġpr im
Ġnep av
Ġmoter is
Ġsus ik
Ġst eng
Ġparduotuv es
Ġkeis ta
y gu
id az
ĠA l
v as
uo g
Ġsk ol
Ġskir ting
Ġsk on
ir g
Ġr ub
d yti
u pr
Ġv idur
at as
Ġs c
ie tis
Ġap g
Ġvien int
Ġkit iems
Ġvy ras
Ġsaskai tos
dz iai
Ġpad eda
Ġpatir ties
O N
Ġnes varbu
al v
ys tes
Ġtok iais
Ġgyven imas
Ġaps kritai
Ġdarb as
Ġdal i
Ġ !
Ġpapras ta
Ġsumok eti
uo liu
Ġsit o
er io
ĠP av
ĠVis kas
Ġs aus
ak tar
Jei gu
Ġjok ios
Ġt yr
Ġb es
at es
Ġz iema
Ġo per
Ġpaz yma
Ġnen us
Ġrekl ama
Ġas muo
ĠNor eciau
Ġb er
Ġg avau
ĠJ i
Ġdal yv
ĠVis i
.... ....
iu o
Ġak im
Ġe inu
Ġt aves
os ios
Ġpr ik
io ti
Ġgr yn
Ġsug eb
. ;
E S
f f
i on
Ġbu tinai
ent o
O O
p ard
v ie
ij ung
Ġsr it
Ġban ko
Ġran ka
Ġkoj os
Ġteis es
Ġtem os
K as
ek tu
Ġpa cia
yn e
Ġiv yk
n o
y ko
Ġsu per
ĠE UR
p at
s h
au na
Ġati d
ĠN er
Ġats il
u kas
Ġt var
Ġr ib
Ġsal yg
ut es
in siu
Ġger i
Ġau to
Ġnes veik
Ġvien u
Ġmei le
Ġei l
er ai
ĠD z
iv il
ac ius
Ġpil na
Ġn uk
ju ok
kr eip
Ġatl yg
Ġr adau
Ġgaun asi
s us
Ġklaus ima
Ġskai cius
Ġmoket oju
ed os
Ġvai kai
Ġegz ist
t el
os iu
Ġniek ad
ĠNiek o
Ġz ym
Ġbu ciau
isk os
c k
ĠT en
ies i
Ġats ik
ip irk
Ġver tin
Ġintern ete
Ġz ud
Ġnetik iu
Ġniek aip
Ġbl ond
Ġ ok
Ġs ios
ur a
Ġversl as
Ġsl yks
is u
uo m
Ġatv ej
Ġmerg inos
ĠT a
Ġatsir anda
Ġl eid
ien o
Ġdar bu
Ġ u
Ġgal etum
Ġpak ankamai
Ġfin ans
Ġprek iau
Ġuzsien io
Ġmo ciu
s e
Ġk auk
et us
Ġpas tov
Ġnus ik
Ġnam uose
Ġmas ina
ok u
ĠR us
Ġpav eik
A T
ak au
vai g
Ġeur u
Ġyp at
Ġpas iziur
eg ul
Ġmokyt oja
Ġ >
al iz
Ġkomp an
Ġzem es
ĠKar tais
E R
Ġ ug
Ġk in
Ġg il
Ġlig on
Ġat r
Ġskai ciau
Ġgalv ojau
Ġat eit
Ġl itu
ĠT as
tar p
Ġnenor i
Ġreal iai
Ġzin ai
?? ?
g e
Ġnes eniai
met e
Ġpasl ap
3 0
A t
Ġr ad
Ġi A
Ġaps aug
Ġpaslaug u
Ġdem esi
t aip
uos iu
Ġval and
oc ial
Ġp ic
Ġr ag
Ġsu mos
D abar
Ġt v
Ġb ank
ĠS t
Ġats p
Ġpr av
Ġbud avo
Ġrek omend
ĠD azn
yp s
Ġpateik ti
b od
Ġod a
Ġvariant as
yt os
Ġe fek
Ġpas itik
iam i
Ġpasaul yje
Ġmed zia
I T
Ġpap asak
Ġdaly kai
oog le
Ġpas tat
Ġuzs is
Ġpaz ist
1 5
er o
az in
Ġpas ig
Ġties u
Ġpuik iai
Ġ1 6
Ġnu g
A A
n d
Ġkit am
Ġant r
Ġp si
Ġsu galv
ed amas
ov es
Ġpam irs
Ġklien tu
l us
Ġse ima
Ġintern etu
in ant
I U
Ġ 000
av us
og raf
Ġsut eik
Ġras yti
ĠR eikia
Ġes me
Ġvel n
Ġnusipirk au
ĠZin oma
Ġp el
Ġne ziur
Ġuzs im
Ġnauj o
Ġv il
en gi
il o
Ġel g
ij o
Ġpaziur eti
Ġs aras
Ġras yt
Ġtur ite
Ġe it
us e
Ġgim tadien
Ġvand ens
Ġan ks
Ġgalim ybe
Ġn zn
Ġl ieka
Ġniek am
Ġnesi oju
Ġrank os
L abai
es k
Ġpat virtin
ol e
ks l
Ġreikal as
Ġvamp yr
il l
uoj ant
Ġprie zas
Ġmen esiu
Ġveid o
Ġmal on
ĠSi andien
ek ui
ĠV akar
ic ial
Ġsm eg
Ġsapn avau
Tai gi
-------- --------
Ġenerg ija
Ġl in
Ġnep a
Ġ =
Ġd ev
Ġteis ingai
Ġfilm ai
t on
Ġne ig
man o
E UR
tr uk
Ġkok ias
ev er
Ġsp or
Ġtiksl iai
Ġk ie
Ġpad eti
Ġdid eli
A M
ĠJ ums
Ġdraug ai
Ġneim anoma
i oje
p ac
Ġ1 1
Ġvalst ybes
in ama
Ġz ai
Ġsk aus
aik yti
Ġinves t
Ġs and
Ġap r
yt es
Ġger iausias
Ġjaus mas
Ġd ie
Ġo p
yk l
Ġs teb
iau g
Ġl iep
Ġpr inc
Ġsk amb
Ġnepr is
Ġ uk
ant as
Ġap k
ed i
Ġvar g
A ciu
t au
Ġis m
Ġis n
ĠK l
ĠL ab
Ġau tor
Ġsist ema
av ai
Ġiss ig
Ġpasir ode
Ġne ras
Ġis eina
Ġ1 000
ul iu
Ġsutar tis
ek ite
Ġsud et
Ġgird ejau
Ġr eng
tu be
ei gi
Ġnep ak
Ġveik ia
Ġintern et
Ġ on
Ġislaid os
. *
Ġr yte
ĠA i
Ġvalst yb
ie ciai
eis iu
Ġkun o
Ġnuol at
j p
Ġne valg
Ġpasid al
Ġad res
Ġb o
es s
ul iar
Ġlaiko tarp
Ġprof es
Ġpavy zd
ez id
Ġatsir ado
Ġpatik r
Ġt ep
Ġtur es
Ġned id
Ġmir e
Ġdir ek
Ġr iz
Ġsukur ti
b er
d e
Ġt al
Ġm acius
Ġat gal
Ġknyg os
ak st
v u
Ġm ai
ad u
Ġsavai tes
Ġfilm us
ar o
Ġab ej
c iasi
ed ija
ti ko
Ġkur ias
eis t
aik e
Ġlietuv iu
Ġkons ult
iaus ios
Ġsant yk
ur i
ar us
Ġd b
on om
tin ku
end a
av ima
Ġdar z
ej os
Ġak iu
ĠKaz kaip
Ġpran es
Ġnes k
Ġten ka
Ġpris tat
Ġsuk n
I M
Ġs eks
ĠS im
ius ti
Ġtikr as
ic e
Ġpard uoti
eng ti
Ġaps im
Ġsal ia
o ur
ek a
ĠM es
ĠGer as
ĠEur op
Ġsu tik
Ġnor int
ĠV SD
Ġaps ir
Ġit rauk
Ġskirtu mas
y na
Ġm ak
Ġ ^
Ġiss ip
Ġvar t
Ġasmen s
Ġam z
t n
Ġtev u
Ġsist em
n s
vo t
Ġsvarb iausia
Ġelektr on
ai m
ek mes
Ġprad zi
on t
Ġvaik inu
o tu
ĠN us
tin ga
E N
Ġat eina
w w
Ġd antis
Ġd antu
ek e
Ġjuod a
Ġdalyk us
D el
l ine
Ġis itik
Ġsak ant
j ek
Ġnes ig
Ġmegst am
Ġpr iek
ed e
Ġnaud oti
1 1
Ġt eig
Ġk iau
in eje
Ġd er
uo le
ej usi
Ġisp ud
U z
uoj ama
ĠGal i
Ġr uk
Ġpr iim
Ġgal it
Ġkon tr
Ġeks per
il e
Ġ2 5
Ġleng va
Ġsiaub o
y cia
Ġis vaizd
az iur
ma ciau
Ġkit ur
Ġ2 1
Ġlik o
e ciu
in eze
ĠM ar
Ġnuo bod
Ġg en
Ġprek yba
v ien
Ġnem atau
Ġbal s
Ġkur ti
Ġsl ap
Ġpabai g
Ġm ag
ak s
ĠM az
z a
Ġs erg
tin ius
Ġran kas
n us
Ġk ei
ĠJ AV
ĠR eik
Ġes ate
Ġdraug es
Ġtam pa
Ġsek m
Ġsuzin oti
Ġforum e
Ġp ur
ĠP vz
Ġnor isi
Ġkit ais
__ _
enk ia
Ġnuom ones
Ġpai m
Ġdokum entus
Ġkompl eks
Ġn uz
Ġdraug ais
Ġmat osi
Ġ4 0
ost og
b ol
Ġs amp
Ġvis gi
Ġat ostog
ec iai
Ġgau na
Ġsok ol
el ti
Ġar tim
d a
Ġp ok
Ġvaik inas
Ġpol ic
el yje
Ġsu gr
Ġ1 7
Ġkazkok iu
ĠPr ad
E L
n y
Ġd aina
Ġsk l
Ġuzdar b
Ġgyd yt
at yv
ac h
Ġkuri oje
Ġpapras tai
Ġ ez
Ġs iur
ar ai
it or
ĠP ati
Ġfor m
ĠAn g
Ġmat yti
Ġpanas us
Ġsavai t
, ,
Ġnuo rod
Ġmin us
Ġpavadin imas
Ġom en
T r
b os
l ys
tin as
Ġnuo tai
Ġiss ir
aa aa
Ġpaklaus ti
ĠM at
Ġmes os
Ġpadar yt
Ġsaskai tas
Ġleng vai
ĠViln iu
an e
Ġd iz
anc uz
ij us
Ġnezin o
Ġpasir od
ĠGer ai
Ġnauj u
Ġlaik rod
c iju
Ġne z
Ġb la
Ġpro ting
eb ook
Ġjuok inga
Ġneblog as
n os
t ol
Ġs oli
it us
Ġs an
iu ka
Ġm amos
uo met
or e
ej imu
ys e
ĠAp ie
S u
ok ite
Ġdid ziu
Ġstraipsn is
Ġpig iau
Ġpama ciau
b erg
y ra
Ġb aud
am o
Ġr yz
Ġper v
Ġpal ik
Ġdokum entu
Ġvaid uok
g er
l aid
Ġ auk
Ġ ima
is ko
Ġang l
Ġsma gu
Ġiss kir
Ġdv ieju
ĠIn d
Ġs ocial
Ġpra eit
Ġapmok estin
is a
ak ter
Ġsupr asti
Ġof icial
Ġtais yk
N or
ig in
ver tin
Ġatsir as
Ġpsich olog
h at
Ġat m
ĠS us
Ġrekl am
ai v
Ġl au
ĠS v
Ġvien od
Ġpav yzdziui
ĠU K
Ġdarbuot oju
Ġskaud a
B u
i antis
Ġir egistr
yd amas
Ġnebu na
ĠF il
ĠKad angi
k az
an cio
Ġlai kais
Ġpirk t
K az
j o
Ġv eg
Ġg l
yv end
Ġnep atiko
Ġkel nes
Ġtap ti
Ġisb and
Ġtur et
Ġnuo trauk
var d
Ġsam d
en as
Ġr eisk
Ġpan aud
ĠAn t
as k
Ġk ov
in iams
ar os
Ġm e
ko h
yn as
Ġpasidar e
I A
e inu
r is
Ġd esim
Ġg ab
od s
Ġgraz ios
Ġval dzia
Ġjur id
Ġ |
al ia
auk iu
T I
ĠK ol
Ġkrauj o
jp g
Ġd eja
at v
ĠT ad
Ġsus itik
Ġim oniu
Ġvakar e
okie ti
as d
ie tu
or d
ĠP ar
m az
Ġ #
in ciu
Ġl ed
ed ama
iais k
Ġmuz ika
2 00
Ġs te
pr ot
Ġats ib
ink it
ĠGr az
K ad
j ung
Ġv az
Ġgal ejo
Ġdraug as
Ġmen esio
Ġrekl amos
auj u
Ġuzs iim
yn u
yks t
Ġblog o
v ep
Ġpaziur ejau
c e
s iaip
Ġt ul
Ġs iais
ok io
Ġnem at
Ġpagal ba
Ġlengv iau
og us
tin gi
Ġvien am
Ġmokes ti
Ġgarb an
Ġp ik
Ġs ik
el iais
Ġuz ras
Ġneis s
uo te
Ġpa aug
yv ar
Ġ: >
yd avo
Ġmenes ius
K iek
o ta
Ġd ras
ĠA mer
Ġper d
iam os
ib aig
ĠBu vo
n or
Ġtr ans
Ġmes a
Ġsau le
Ġtru ksta
Ġd aktar
ak ul
Ġdal ies
Ġkel ia
Ġzv ilg
y le
it ariu
Ġd ez
er iai
Ġmokes tis
aj a
adien i
Ġpaveik sl
s ai
am us
Ġpas il
ra ti
esi oju
Ġab u
Ġvadin asi
en i
en os
Ġbu tina
Ġkur iame
eis ta
Ġdel to
Ġvalg yt
k is
Ġgal u
Ġat g
esn ius
Ġvaiks cio
in asi
Ġsv or
Ġm irs
ien u
ĠT ar
Ġpirk imo
Ġnesam ones
Ġvard u
q u
r us
u ko
Ġt ing
Ġmokyk los
Ġran ku
Ġaus kar
Ġ up
Ġt yl
Ġz vaig
ol io
Ġpadar e
Ġmir ties
Ġnegraz u
Ġnuotai ka
Ġsoli ariu
Ġne maciau
it an
ĠK am
ĠV al
Ġtikr o
Ġvai r
Ġkon tak
Ġn ot
Ġm ars
el abai
Ġs tik
az d
rod o
Ġvai kas
ĠPr ies
Ġgam int
Ġmoket ojas
Ġveid rod
Ġr ieb
Ġpr oto
Ġar ti
Ġas tr
Ġsio l
ĠPa gal
Ġskam ba
Ġk yla
Ġm odel
Ġat ejo
ĠT au
ĠP ats
Ġpat enk
Ġbl akst
Ġvirs u
Ġr om
Ġr uos
ĠP l
ĠR ut
Ġkr em
Ġatrod e
k am
Ġpas kait
um ai
Ġper ku
Ġlauk iu
ie l
ok os
Ġsk yr
Ġlyg iai
Ġd uoda
Ġr ug
Ġvis ad
Ġsun k
Ġna gu
ĠD id
Ġniek s
Ġvie tu
Ġsveik atos
Ġskait yti
Ġvard as
Ġkap it
el y
av imu
Ġuz r
Ġpo z
Ġ; /
Ġatsak yma
Ġsed i
Ġp ed
isti ka
Ġseim os
Ġamz iaus
as is
Ġr es
Ġnes in
ink ite
Ġapskai tos
tim i
is te
Ġkur iems
ing sn
Ġkok ybe
pl auk
ĠK oks
Ġdid eles
Ġkon c
Ġsm ulk
Ġinves ti
Ġl ek
ĠB l
Ġzmon a
Ġdeklar acija
at h
el l
Ġl ang
ap l
id o
ĠM u
Ġkam uol
Ġraud on
K a
i i
in imu
Ġpr ipaz
Ġis kr
Ġklaus imus
Ġbud as
Ġatl ik
Ġrink tis
d ami
p vz
Ġtur eciau
ed avau
ĠB eje
Ġsal is
Ġsupr ant
Ġpasaul i
Ġpamat yti
Ġap yvar
Ġzin oti
Ġgraz iau
Ġko p
Ġ5 00
t yn
Ġk ud
et es
ĠS e
T ies
Ġpav asar
ang os
eid o
Ġpasir odo
Ġmokykl oj
Ġmociu te
Ġkazk odel
ard e
ir egistr
Ġd antys
en e
ed avo
Ġvien i
Ġsp ort
Ġpris im
ytu m
f obija
aus ti
Ġtur esi
ic k
O M
ist ra
Ġpris id
Ġsn ieg
ok e
Ġr and
ĠT oks
Ġsusir g
ivaizd uoju
Ġdur is
l abai
ai ko
er t
Ġpam enu
Ġpapras tas
Ġk ort
Ġne jau
Ġm ad
Ġger os
Ġbat ai
Ġenerg ijos
Ġn os
iu ose
es ys
Ġpar tn
Ġskir iasi
Ġab s
Ġpeln as
Ġp ns
en ai
Ġz ais
Ġal koh
Ġmies te
Ġpai es
Ġnuz ud
O n
e ur
i pras
ie cia
or as
ĠF r
inin ko
Ġm intys
Ġg avo
Ġgal es
tin gu
Ġpavadin ima
r ez
Ġs ese
en cija
um i
Ġid eal
T U
a ciu
l io
et os
ia v
oj imas
ĠPr is
Ġarb ata
Ġpr ig
Ġat eiv
iv ers
Ġgraz iu
tus i
Ġkazkok ie
Ġmeg sta
jei gu
Ġte or
Ġz ingsn
Ġpar ti
Ġsus il
ac ebook
Ġes mes
Ġneblog ai
Ġserial as
Ġl egal
ĠV iena
yr e
Ġned aug
Ġskait au
Ġbat u
Ġsilp n
i at
t en
it am
ĠS iuo
ĠB al
Ġats tov
Ġsus idar
Ġatsak ymus
Ġprit ariu
A D
f r
n iek
yk ti
Ġteis e
Ġsapn uoju
Ġtap o
Ġmergai te
Ġtvar ka
f ik
Ġnes p
ĠV ienas
Ġner eiskia
Ġskait yt
Ġkiekvien o
Ġpasteb ejau
Ġru bu
el s
Ġgyven u
Ġtobu l
Ġv mi
Ġpask ir
Ġklaus ia
B e
r r
Ġpa cio
ĠZ odziu
ĠDr aug
Ġegzist uoja
ti on
it h
ink ti
Ġkr ed
ko ti
Ġnep az
Ġkn ygu
Ġang lu
O K
Ġk aup
en o
Ġvalg yti
Ġiesko ti
Ġveg et
Ġk iaus
Ġne aisku
Ġd ing
Ġik ur
Ġband o
Ġblog a
Ġsur as
Ġzym iai
u ku
Ġt uoj
il ank
Ġc iu
ĠE l
Ġnam us
Ġpas im
Ġdiz ain
Ġsak yti
Ġmaz as
Ġiss il
Ġam er
an or
at us
Ġpa ciai
Ġimon ei
Ġt iems
ej ausi
ĠT V
Ġmokes cio
Ġnup irk
N iek
i ima
u ka
ĠK okia
ip as
Ġant ras
Ġsak iau
cia v
Ġvad ina
Ġs yps
Ġm ax
Ġv es
Ġsu gal
Ġsp aud
ĠGal but
Ġnusipirk ti
Ġne tinka
Ġv iz
Ġis ties
Ġkel iau
Ġiss k
ĠZ iaur
Ġsen ai
Ġsl ep
Ġbais us
Ġkeis ti
Ġzem e
ibu d
2 3
J au
V a
Ġpas isk
Ġmok u
Ġidom i
Ġziaur u
Ġkalb os
Ġgalim ybes
Ġvis uomen
dz ius
ĠLietuv oj
Ġit ak
G r
N ors
l iaus
v iena
ir e
Ġj ame
aud oju
ines e
ĠGal ima
Ġdy dzio
ak t
yp e
Ġsum az
p an
s ak
Ġt rag
ik ab
Ġmok i
Ġpav ad
Ġnepr iklaus
ĠId omu
Ġsaul es
Ġ^ ^
f u
m at
Ġt ak
im is
oj ant
Ġzin ote
Ġpaslaug a
Ġpaslaug os
ou tube
Ġb ir
ej ui
Ġz av
Ġger b
Ġveik lai
Ġreikal inga
Ġ9 0
Ġklasiok e
Ġtrec ia
Ġk is
Ġnet eis
ar akter
Ġtr en
Ġ2 3
Ġak tu
Ġdarb dav
Ġnauj as
Ġsusimok eti
Ġp unk
Ġk an
ĠI R
Ġsal iu
yd is
Ġek onom
Ġj um
Ġvis ais
ĠP et
Ġ: /
yp al
Ġdrabuz iu
C h
Ġm ar
uo ciau
it y
ĠS h
Ġver te
Ġziur int
Ġpagal iau
Ġpagal bos
egal iu
Ġ201 2
2 5
: :
ab r
ap s
Ġap tar
Ġnep er
Ġtol i
Ġvakc ina
D aug
P ir
en ti
Ġl as
Ġpris imin
Ġtru ku
Ġis id
Ġsu ku
Ġnem al
Ġbal ta
ĠNor iu
Ġ ep
ant r
eis tu
ip u
Ġpo ziur
Ġfor mos
Ġit in
G er
Ġk ras
ok ius
Ġper ziur
Ġor igin
Man au
: //
in iam
ĠN eg
kas i
Ġnus idaz
ĠH ar
Ġnenor eciau
: "
Ġvis okie
Ġper ka
Ġvir tuv
Ġgaun i
i om
is tas
Ġl eidz
Ġats ig
ac iju
Ġval anda
Ġe x
Ġkal bu
Ġilg iau
Ġistor ijos
Ġatsis ak
Ġsird ies
ti ks
Ġb end
Ġis tr
ei tu
Ġnes is
ĠK o
ĠK in
Ġats ip
Ġneb es
p aud
s id
ie te
Ġdar au
og u
Ġsal ies
Ġvyr ai
k iek
t ys
Ġt etis
in si
Ġpr ab
Ġpr ezid
ien e
Ġc ivil
iv al
ym ui
Ġati tink
Ġvalg au
Ġnur as
Ġpop uliar
Ġber ods
K ar
t h
Ġtur to
Ġneb er
Ġais kiai
Ġsul auk
u ciu
Ġk er
ir ba
tr as
Ġant ak
asar a
Ġnemok amai
Ġig yvend
Ġsavait gal
" ?
n ep
t p
Ġm inti
Ġd ed
Ġkazk am
ev iz
** **
Ġzvaig zd
A p
Ġr aid
av om
Ġtar si
Ġsun kiai
Ġnepas ak
en ku
Ġnes ir
Ġbl iz
Ġsen iau
N et
Ġpr am
ĠA k
pr es
Ġp u
Ġt egul
Ġj ega
Ġsu valg
em ija
ĠA d
Ġf ig
Ġdarb us
por to
en z
oj ams
Ġnes iot
gi asi
to ti
Ġval dz
Ġh or
Ġmei les
Ġzvilg sn
B eje
Ġm yliu
Ġsu z
ĠD e
Ġproc es
Ġdom ina
Ġivair iu
Ġkiekvien am
v ok
Ġz yd
Ġi vertin
Ġbu l
ĠA ps
Ġnor as
ĠB ent
Ġau ksciau
Ġmin ciu
Ġmieg ot
Ġbel ek
is tai
Ġpr ar
ciau si
Ġprad ed
Ġint er
P a
Ġl em
ĠP al
ĠP am
Ġpasak ojo
Ġpardav imo
Ġpel na
2 1
a w
Ġ aud
an ai
us t
ab a
Ġkai r
og r
ys k
Ġpir ks
Ġmat e
Ġbuv e
Ġkreip tis
4 0
ar n
ek tyv
Ġdaug elis
Ġmat ai
Ġdir bu
Ġstov i
Z m
is ta
oj imo
Ġkai me
Ġap ar
aus d
Ġties iai
Ġaps is
Ġdv ir
Ġpasid om
yven ti
Ġuzm ig
I n
Ġt av
Ġv ed
it es
ĠK laus
ĠD ekui
Ġtr uk
Ġdid esne
Ġgau nu
Ġkazkok ios
Ġklas es
Ġz ied
Ġats iskait
yk la
Ġsv eln
Ġvar i
Ġvyr u
Ġapskai ta
g as
p i
t al
t ams
v ienas
ur e
Ġtik iuosi
ĠMan e
Ġh um
Ġnek al
Ġmoter ys
Ġnar ys
ht tp
p os
er k
Ġf aina
Ġband ziau
Ġpasaul is
Ġmais ta
Ġkav a
d u
in ko
Ġr usu
bu tu
Ġnen u
Ġdazn iau
Ġgalv oja
ĠY pac
Ġbat us
au men
Ġs ep
Ġb eje
Ġr et
Ġat ras
ip l
Ġnu b
yd avau
Ġparas yti
Ġpil nai
Ġt vir
in ejo
aug a
em es
ĠV okieti
Ġpal aik
Ġnemok u
1 3
: <
d el
k ol
ej imai
Ġtr ys
Ġ3 00
ci on
Ġch arakter
Ġnereik al
t y
Ġ ie
Ġk oju
aa a
Ġvadov as
p ir
p ort
in aud
ie ti
Ġl eidzia
Ġpas kai
Ġnor ejo
uoj asi
Ġver t
esi on
Ġsi oje
ĠH e
Ġor o
tur a
Ġvaiks to
t yje
yk im
Ġpal yg
Ġnuotrau ka
S e
Ġc ukr
Ġsmeg en
M ok
N uo
au ne
ot os
tik r
Ġsupr as
Ġlauk e
ĠBu vau
ĠMu On
L T
p h
an ka
Ġm om
Ġpad id
Ġiss iaisk
Ġal erg
Ġpers kait
Ġei les
Ġstai ga
O R
e ba
Ġl iek
ĠN en
ĠS od
Ġf r
Ġzin iu
ĠZ inau
Ġdaly kais
Ġod os
f il
n uo
ar ank
ik l
ius i
Ġbus iu
Ġtar n
T ur
d as
Ġ ]
Ġk ank
Ġpr ir
Ġsu tr
Ġnes im
Ġsm ul
Ġatl ikti
Ġpabai gos
al ios
oj asi
Ġz uv
Ġvis iem
Ġnerv ina
I D
au nu
Ġl y
oj am
ĠS ak
ed as
Ġsak yt
Ġiss it
ter n
ĠPr ie
Ġatsak om
ves ti
Ġzurn ala
u ks
id as
Ġver k
Ġket vir
Ġkambar i
Ġnepam enu
Ġaukst akul
ĠDazn iausiai
b us
Ġt oje
Ġb il
Ġpas tar
Ġnesu g
ĠPir ma
Ġvart ot
k in
Ġs iame
in ei
Ġne id
Ġpr iskir
or o
Ġf ant
Ġc ek
ĠB ut
Ġvaik us
Ġprog a
Ġkons erv
Ġmokykl oje
Ġanks to
Ġn ariu
Ġm ot
ĠN auj
ĠS m
Ġnuo t
isku t
ĠGer iau
Ġvasar os
Ġproblem os
Ġnuspr en
Ġl eg
oj os
ĠS en
tin o
ag r
Ġmie gu
Ġstipr iai
Ġpriem ones
Ġpradzi oje
P er
h op
iem e
tor iu
Ġ) )
Ġpriv alo
Ġdeklar uoti
Ġrod e
I R
Ġk ino
Ġpat rauk
Ġc ig
Ġpak eisti
Ġmir ti
Ġuzp ak
us ius
Ġats imenu
eis i
Ġsav imi
iskai ciu
Ġprek ybos
Ġtel eviz
a f
d abar
Ġ ....
an su
Ġne vis
im ti
av a
ol es
Ġnem eg
Ġdaly ka
Ġkain as
1 4
Ġsu aug
ĠP apras
Ġprad et
yn o
ĠVis a
Ġasmen ys
Ġ4 5
Ġsek asi
Ġnormal us
# #
T aciau
us ia
Ġg eda
oj ama
uot es
Ġbais iai
Ġnormal u
Ġregistr uoti
it er
om us
Ġpas al
ĠS o
Ġnor it
iz mas
un ku
irs ti
Ġpor eik
Ġuzk nis
Ġdraud imo
Ġuzsis ak
Ġd uk
Ġd ov
at iskai
am one
ĠN era
ĠS tai
aus t
Ġreikal ingas
Ġlauk ia
Ġnusipirk t
Ġtaup au
P o
y outube
er c
Ġtur it
Ġzod is
Ġpaaisk inti
Ġsald ain
Ġman ymu
bu vo
Ġuzs iimti
Ġdid eliu
Ġser ijos
Ġbij o
Ġtink lap
Ġklas e
ark et
Ġsvetain e
Ġtechn olog
Ġpastov iai
i omis
iu kai
Ġr aj
uo tos
il i
Ġval andu
Ġfaktur a
e ite
Ġr ep
io l
Ġkar a
Ġpam oka
Ġproduk tu
Ġgar ant
x x
z o
Ġt t
ok ineze
Ġkur iam
Ġsus is
Ġsit ie
Ġsutar ties
. (
Y ra
ad as
om o
Ġpas ip
Ġsak ai
Ġprad es
Ġsiu z
Ġatv irks
Ġmeg z
Ġkuriu o
amp a
Ġgrei ciausiai
Ġnuol aid
m on
Ġm amai
ol f
ip a
Ġnep al
Ġbus i
Ġprad zia
Ġnek enciu
Ġproc entu
Ġnepas teb
Ġskan us
Ġprak tiskai
Ġist eig
Ġsuv ok
Ġamer ik
p us
s to
Ġv on
Ġv itam
Ġtur etum
Ġmat o
Ġatv ir
Ġ6 0
Ġvienint elis
Ġk oja
Ġi tik
Ġger iausiu
Ġats ipras
ba y
ĠVis ai
Ġpab eg
Ġzal ia
s as
Ġp ot
Ġne tr
Ġm i
Ġg oogle
ĠO r
Ġknyg as
Ġuzdirb ti
Ġissk yrus
O J
] <
n em
Ġpas ibaig
Ġatl iek
Ġsiun ti
Ġkod as
ĠPir m
Ġsuku os
Ġs tum
ad ina
Ġr inka
Ġr aumen
Ġi pras
Ġats itik
Ġtikr u
eliu i
Ġnesupr atau
________ ________
Ġtrauk ia
Ġprasid eda
c ios
h h
o od
Ġp ud
Ġk ed
Ġg ausi
ĠN ek
ĠA v
Ġpad es
Ġpirk au
Ġparas iau
Ġvard a
itai ko
Ġbai me
ĠZm ones
ĠNeb ent
f er
Ġd uo
id e
Ġisvaizd a
Ġsamp un
t am
Ġl aip
uos ius
Ġner andu
Ġsiu lo
Ġduomen u
Ġpaskol a
1 8
> ]
ei dziu
Ġskan u
Ġmuz ikos
Ġsiul au
T u
k om
n eb
Ġt om
Ġm on
ĠP R
Ġpar sis
Ġnus il
ting as
uol is
Ġnesam oniu
Ġvykd yti
Ġdaik tus
ukus e
D r
ir ko
Ġsal ta
Ġdirb i
vel g
L ietuv
u kai
Ġ eik
Ġ ac
Ġs tar
pr atau
Ġdaug ybe
Ġasmen u
Ġatsak yti
Ġvisok ius
Ġpenk tadien
Ġatsil iep
Ġnesin ori
in ami
Ġl uz
Ġpas t
Ġkaz in
Ġnet eko
Ġpir mo
Ġfil me
Ġpasirink ti
Ġram iai
ĠKazk ada
? !
at inka
Ġpr ot
Ġsu tinku
ĠJ os
ĠL enk
Ġnaud os
Ġzenk las
Ġnurod yti
Ġpagalv ojau
Ġuzp ild
Ġapsim oka
j uk
Ġs ius
ĠV IS
yn es
Ġnel eidzia
Ġil ga
Ġprof esion
Ġfain as
Ġsrit yje
Ġatvej ais
1 6
l ais
p ak
s o
Ġp and
Ġtik eti
ĠK uo
Ġkazk uo
Ġsut vark
y y
Ġis tai
ek omend
Ġap ac
ĠK it
ĠE s
eng ia
Ġ3 5
Ġsek mes
Ġpasidar o
Ġminu ciu
Ġnever ta
ti ka
Ġd uoti
Ġg inc
at oriu
Ġbu nu
em ent
ed ami
and s
iv yl
Ġdal ys
Ġsukur e
Ġlig a
Ġnereik es
Ġneap s
0 1
E D
S I
l ep
ie tus
an os
Ġpr iziur
or a
or ius
Ġgal esi
io log
ĠT okiu
Ġst amb
Ġil gi
iu ku
ol d
Ġpasku tinis
ĠAn ksciau
Ġklien tas
Ġob jek
m is
Ġk ojas
Ġat askai
yn ai
Ġpers kaiciau
Ġrod os
Ġvaland as
c m
Ġp ens
Ġap d
Ġpl aciau
Ġsus id
Ġam zin
Ar ba
Ġgyvent oju
Ġgar anti
Ġter m
T uriu
a h
t enka
an ks
Ġj ap
om b
Ġpat ies
Ġtur esiu
Ġmok ytis
ĠB and
up er
Ġsiu os
Ġvalst ybe
Ġlinks mas
Ġduomen is
E T
O L
y ju
Ġs ap
Ġl anga
oj imu
Ġdar ai
ĠI m
Ġner adau
Ġkom edija
Ġpris imenu
Ġnag us
R A
Ġk eb
Ġs or
in eju
Ġb as
ur as
ur os
Ġnu t
Ġnu trauk
Ġak i
Ġak tyv
var b
Ġsveik a
DD D
Ġprasid ejo
Ġpild yti
) ?
? "
n ei
Ġne ati
ĠA tr
Ġger iausiai
Ġpo veik
Ġveik ti
Ġsaskai tu
Ġmais tas
Ġem oc
Ġkonsult ant
d ama
Ġt egu
al l
et ina
uo z
ĠP ak
Ġnep iln
Ġsupr anta
ĠBu tu
Ġsma g
Ġ us
Ġk upr
Ġb ar
Ġl ent
Ġpas inaud
Ġtik tu
Ġpasku tine
Ġser ija
Ġsti lius
Ġpask amb
Ġkalb eti
Ġpapild omai
Ġgrup e
Ġsusig raz
Ġsvent e
Ġnusik al
Ġabej oju
A isku
Ġp c
Ġs uo
er ial
ad ic
Ġ2 4
ĠE n
Ġpak ab
Ġste bu
Ġatvirks ciai
Ġne j
Ġis ejo
Ġpas tu
ĠA ha
ys ti
Ġ2 8
end e
tos i
Ġnebu vau
Ġplau kais
Ġintern eto
Ġte at
Ġskirtu mo
c o
d d
u al
el em
tu ka
Ġnuo ma
Ġak inius
Ġkel ios
ĠE r
Ġmaz esne
Ġpasak o
Ġversl ui
Ġal e
aup au
Ġmyl i
i ciu
in em
Ġl ic
Ġuz aug
aus tas
var t
Ġpardav ineti
Ġbendr ijos
Ġprojek ta
Ġnereal us
ĠZiur ejau
Ġomen y
Ġk enkia
ie gu
Ġm arket
Ġz iem
Ġkur iais
ys ite
and i
Ġnet ycia
Ġpan ele
ĠR as
irb ti
Ġpadar o
Ġpag am
Ġmies to
ĠTies a
Ġakc iju
Ġkav os
azia vo
Ġsij onu
Ġbend ra
U h
z iais
Ġk una
im os
or k
on g
ĠS aul
ĠM e
Ġjau tr
eis tas
tuv es
Ġzmon emis
Ġzin ias
Ġneb ep
Ġpav yd
uod u
Ġmerg inu
Ġbendr auti
oz e
Ġam ziu
Ġapsir eng
i an
in amas
Ġg ink
ĠT ie
Ġats kait
Ġpar ama
Ġak men
Ġid eg
Ġiss ik
Ġdid elio
Ġh e
Ġpal iko
Ġpanas iu
Ġmin ejo
Ġati tinka
Ġkeis tai
Ġprak tik
Ġatskir ai
Ġvanden i
Ġk t
Ġb az
ok o
ek ti
Ġsus ipaz
ov id
Ġpad ovan
eid au
Ġlais vai
Ġisig yti
Ġkvap as
Ġb ang
us io
Ġpr ag
Ġis trauk
Ġgal voti
Ġat eis
Ġat eiti
Ġkar sta
ul is
iv ald
Ġnu d
Ġan ime
Ġneis ivaizduoju
Ġvyr iaus
Ġsveik ata
Ġpra ejo
inink e
ĠVilniu je
c ijas
er ius
Ġl a
Ġnes ak
Ġkok iam
ov as
ep s
Ġpan a
yr ank
Ġpanas u
Ġtiksl as
atur a
Ġprogr ama
Ġtrump ai
p ati
Ġl av
tu mo
pr oc
Ġkok yb
Ġim ti
Ġpav arde
ĠPas ku
Ġnusip er
Ġgat v
Ġvair uot
l and
in ciau
en cijos
ej ot
Ġtik i
ais t
ĠA b
int os
Ġpris ijung
ĠVis ada
Ġvakar a
Ġpasiul yti
Ġskr aid
or u
Ġnaud otis
Ġmie la
Ġsusij e
Ġuzr egistr
O D
au Se
Ġm it
Ġm um
ĠS tr
ĠS ako
Ġgr iez
Ġpav ed
Ġkal bet
Ġnebu tinai
Ġfor umo
Ġab ejo
Ġpor t
Ġveid a
Ġpamat yt
Ġreg istra
Ġsusit ar
ĠNem anau
Ġ> )
Uh auSe
J o
k al
Ġt eigi
ent ais
Ġzod ziai
ĠAn d
Ġtelef onu
v i
y ras
Ġg aud
ĠT avo
ant iems
Ġtiek eju
aul io
ĠTur but
Ġmies ta
K ur
g um
Ġpas ta
Ġnep ag
Ġaps ilank
Ġ8 0
Ġsut aup
Ġpavy ko
[ ::
l d
Ġk aul
Ġf unk
ul e
Ġsak oma
ic a
Ġkom un
ib l
Ġskir ti
Ġreikal av
Ġem o
Ġtams iai
Ġaug a
Ġparod yti
Ġslyks tu
b ent
ĠT h
pr o
and ar
Ġras au
Ġal aus
Ġparduotuv ese
Ġsut ap
Ġgroz io
Ġnesveik a
Ġnesug eb
au liu
Ġr ec
ĠI I
Ġras iau
ĠL inks
ac ijoje
Ġpan asi
Ġties us
Ġ7 0
Ġt ab
Ġpasak iau
Ġh ip
Ġidom iai
Ġtev as
Ġdaik tas
Ġket ur
Ġnuorod a
y f
Ġt or
ĠM aciau
iz mo
uoj amas
Ġprad edu
Ġsal yje
Ġpam eg
Ġtar if
Ġatsak ymo
man au
Ġkvep ia
Ġfot ograf
1 00
I d
n er
Ġ ejau
ir st
Ġd z
ok st
Ġr ak
eti k
Ġatrod ytu
Ġsusit vark
ĠAng l
n am
r aud
s s
Ġs o
Ġm y
Ġb ed
Ġis ik
iv e
Ġpard uoda
Ġan ti
Ġvaik inai
Ġtaisyk les
K odel
b as
f i
al aid
ĠN ei
ĠN elabai
gal aik
Ġklaus imai
Ġmieg o
Ġnag ai
m l
Ġne veik
en ks
ys is
Ġtur int
sl o
Ġid ejos
Ġst alo
Ġskir ta
Ġreikal o
apn avau
Ġlik e
" ...
C I
ai t
Ġpa ypal
ko p
Ġmet ams
iju ok
el t
el ig
Ġis pl
ĠG ab
auk e
Ġpav oj
ĠGal v
Ġlietuv oje
Ġtiksl iau
Ġnar iai
Ġuzsien yje
Ġer d
Ġrug s
k g
is s
ĠP an
ys im
Ġnor es
Ġnem oka
isk e
Ġsit os
Ġpapras ciausiai
Ġnuom os
anc ias
Ġpask elb
ĠNiek as
N ep
S i
au r
Ġr ies
Ġl ip
ĠP aziur
ĠK aune
ku te
Ġpat r
um os
ig ub
ing us
Ġsus imas
Ġmet od
.... ..
Ġpam ate
Ġst ab
** *
Ġnepad ar
c iams
p ar
s m
s io
Ġ %
Ġn iu
Ġir anga
oj om
ĠT IK
ĠV el
Ġid arb
Ġkazkok ius
Ġnezin ai
Ġzod zio
oo o
Ġisig ij
Ġpatog u
Ġatidar yti
in om
tu ose
Ġdar osi
ĠP atiko
ĠK okie
ĠD arb
ac k
yd ami
Ġnaud inga
Ġbr olis
ĠPas kui
Ġziaur us
Ġsud om
Ġsil ta
Ġpok alb
Ġsan aud
Ġd br
ik i
Ġz ad
Ġnes ik
Ġkit okia
dz i
Ġkazkok io
Ġsen a
Ġpuslap i
Ġautomobil i
Ġb iu
Ġj inai
el d
Ġis or
Ġid eju
Ġpris ig
inis tr
Ġblond ine
k ada
uz es
ĠS te
Ġgam ta
Ġsie la
Ġryt o
II II
Ġnug aros
Ġfant az
Ġmi isu
T ada
Ġp yk
Ġd ave
uo la
Ġtik s
Ġap ib
Ġats iti
eti kiu
ĠG yv
Ġpl ana
Ġlai kui
Ġreikal auja
Ġparas e
Ġ15 0
atu ir
Ġbai mes
Ġfir mos
Ġlank yt
Ġbir z
Ġaukstakul n
: ]
iu k
Ġm aud
Ġpas iu
ij omis
ĠT o
em ijos
Ġras t
Ġveik l
ĠR es
Ġsupr ast
Ġfak tas
Ġsvar st
Ġproduk ta
ons ult
. ?
7 0
l b
Ġk g
in tuv
Ġb ez
Ġl yd
ei cia
ĠL yju
ul ta
Ġnus teb
Ġsav ivald
Ġpatar imu
!!!! !!!!
Ġgat ves
h m
p az
z m
og i
ĠV at
Ġzmon em
Ġnel aim
Ġmie las
Ġmil zin
Ġryt oj
Ġteik ti
ĠKl aip
Ġmak ia
ĠInd ividual
z e
in ejau
er ia
Ġuz g
Ġger esnis
Ġkl ub
Ġ2 000
Ġnaud a
uol iai
Ġpuik us
uc k
Ġkod a
ator ius
Ġatsidar yti
Ġliudij ima
Ġprekiau ti
4 5
v il
y ciu
al k
Ġj oms
ei ciau
ĠT uo
og a
ĠV ykst
ent e
Ġlai kai
Ġgau t
Ġneg erai
Ġautom atiskai
Ġlinks ma
ĠEurop os
' t
Ġv iln
tu kas
Ġman ote
Ġat kreip
ys it
Ġtur im
ĠE d
Ġiss is
Ġal iej
Ġraud ona
Ġdidz iausia
c ias
p le
v eg
Ġm obil
Ġvis am
io let
od amas
Ġnes uk
ys tu
Ġkok ybes
Ġver kiau
Ġnetur etu
Ġvand uo
Ġdaik ta
Ġsod rai
Ġnuostab us
Ġcukr aus
9 0
n t
Ġd a
Ġd ang
er ija
Ġgal esiu
Ġneb and
Ġprek yb
Ġsal i
ĠH m
if e
Ġsvies a
A i
j ai
o ol
Ġm or
Ġr andu
Ġnes ioti
Ġdar e
ĠP ad
ĠD ie
Ġf u
tin ti
eg or
ĠI st
uk e
Ġtiesiog iai
Ġstraipsn i
Ġzv eng
Ġstipr us
Ġom g
Ġateit yje
ĠTar kim
p ag
t em
Ġb egal
et inai
ĠP ra
ĠD eja
Ġdaug iausiai
uos tab
Ġpak r
ec ia
ĠU Z
ĠF R
Ġab i
Ġnum at
Ġuzt eks
Ġisras yti
Ġmal onu
Ġkru tine
Ġsusik ur
Ġpavyzd ys
V er
Ġv ag
ij om
Ġman iau
iam u
Ġneb et
Ġties os
Ġsapn as
Ġlik s
Ġlauk ti
Ġsr uog
azia v
! -
N em
t ada
Ġs iau
Ġb eda
Ġl eisti
az u
ej ams
Ġpa ci
Ġap yrank
Ġtok iam
and zio
Ġsak yciau
Ġpav irs
Ġjuok ingas
ier ius
Ġdaik tu
Ġpol iti
pu bl
Ġtelef ono
Ġgl ob
F il
z v
ai r
Ġpr il
oj amas
Ġnuo d
Ġsav arank
Ġal ga
Ġatsak ymas
Ġband au
Ġsti liu
Ġveid as
Ġdovan u
Ġlov os
Ġminu tes
Ġkompan ija
j am
eik al
Ġar gum
Ġpat ink
Ġper ki
Ġpras au
Ġparduotuv iu
Ġapk laus
Ġriz ik
Ġvaldz ios
us ti
Ġj oje
Ġpas itaiko
Ġat nes
Ġsus idom
Ġkel etas
Ġeur op
Ġvard o
Ġklaid a
Ġpas iim
Ġnes ul
ĠK aun
auk ti
ez es
Ġ2 2
ic ija
Ġpasiek ti
Ġvirus o
Ġaktor iai
Ġprim ena
Ġvalstyb ei
O f
i anti
r i
w ay
iu ko
Ġg eg
Ġj eg
tu ku
Ġis eit
Ġap ibud
int ies
Ġaps iver
Ġpapras ciau
Ġsti liaus
of l
mm m
Ġkun as
Ġvanden iu
Ġun ivers
Ġveln io
P av
Ġ ev
Ġd iskut
am es
Ġis ip
em j
ĠI l
uk ti
un ka
Ġnauj os
Ġbr ek
aa abai
Ġse x
AI P
Ġpavadin imo
Ġdain os
Ġissig and
ĠFil mas
Ġtul pa
Ġnuspren dziau
s a
s es
t ei
z ios
Ġr o
ab and
ĠS U
eg z
ĠM el
ĠM erg
ĠB ijau
Ġveik t
Ġil galaik
Ġsun kiau
Ġpers on
tim is
ĠDiev as
Ġkonkr eciai
Ġlaid a
Ġet c
Ġispud i
n el
Ġp ei
is h
Ġd ingo
Ġl enk
Ġpr anas
Ġat k
... -
Ġnepr ad
Ġkosm eti
Ġv yst
Ġd eb
Ġd iskus
Ġb jau
Ġnes akau
ĠA us
Ġtur ime
Ġgr ipo
Ġvien ai
Ġnet oli
Ġnu tik
Ġw hat
Ġsavai me
Ġstraipsn io
ĠJo hn
Ġjauciu osi
Ġnusis nek
P ati
S k
n auj
s it
Ġ &#
Ġt oj
ĠK om
ĠM ama
Ġc itr
Ġnu ejau
ac ijas
Ġe ini
Ġpask iep
sti tu
ĠViln iaus
Ġnuv aziu
Ġskon io
i ate
al ius
Ġd ata
Ġnor o
Ġtur ta
Ġsp ind
ec h
Ġnegal ejo
auks iu
Ġnepam irs
Ġbiu dz
G B
b o
Ġk antr
Ġs ai
Ġne aisk
en es
Ġnor ite
Ġta j
Ġkit okiu
Ġnus ib
uod i
Ġbuv om
Ġnepr as
Ġbaig esi
Ġtelef ona
Ġru ko
Ties iog
Z in
t yti
Ġp om
Ġs iaur
in kai
ĠV yr
Ġkar s
Ġpav arg
Ġmat es
va j
Ġgalv oj
Ġpasku tini
Ġmieg oti
Ġenerg et
Ġkvai la
Ġdek ui
Ġles ius
Ġskam bu
Ġdesim t
? )
E su
P al
j is
t uo
Ġm l
el ek
on os
ĠP ard
um us
Ġats im
ĠG aila
Ġpad ejo
Ġziur esiu
Ġvaid yba
Ġsvarb us
Ġlup u
Ġgat ve
ON E
N ezinau
l ug
al yv
im ams
ur g
Ġpr ancuz
Ġman ai
ies k
ĠS al
Ġver tas
Ġkam uoliu
Ġmie ga
Ġtol er
kst au
Ġlietuv iai
Ġkeis tas
Ġapl ank
Ġisg ird
Ġvaiks ci
enc ial
8 0
an us
Ġg asd
er ti
Ġl eis
Ġdar ytis
Ġger us
Ġiss iv
ĠC ar
Ġnegal v
Ġdaly ko
Ġpaziur iu
Ġnesi oja
Ġimon eje
Ġnusik irp
' .
A l
B r
M es
N eb
V ien
Ġne kreip
Ġd ep
Ġis tik
ĠP ukuse
Ġap val
Ġger ti
ĠI S
Ġtr adic
ov ie
Ġsav ininkas
Ġmaz u
Ġdid esnis
Ġpor os
Ġsed ziu
Ġem e
Ġzenk lu
Ġdur u
Ġkvai l
Ġpatog iau
p av
v aks
Ġp uod
Ġs irg
Ġy our
ĠD an
Ġ- -
ĠR e
Ġnen aud
ird ejau
Ġparduotuv eje
Ġjuod ai
Ġsug eba
Ġprojek to
Ġpaband yt
Ġdziaug iuosi
Ġcentr e
2 2
t omis
w il
Ġt im
Ġn k
is o
an iau
Ġv okie
Ġb A
Ġg raf
Ġpas i
ĠV asara
iz uoti
Ġin stitu
Ġes at
Ġpapras tu
Ġismok ti
Ġstud ij
ĠPat inka
Ġpasidal inti
Ġb iz
ek es
bu l
kur ie
Ġa A
Ġkomp o
Ġsut eikia
Ġtem per
Ġvakc inos
Ġjur os
Ġpasiras yti
Ġkarant ino
Ġinvest uot
Ġsukn ele
in imai
Ġv esti
er es
ĠJ ap
Ġsk il
Ġsus tab
Ġprie v
Ġkom and
Ġskir tingi
Ġgalv oje
Ġpardav imu
kait ant
Ġkons ulta
Ġpriezas ciu
ai les
au tu
Ġj iem
ĠS c
ĠS l
Ġak torius
ĠF or
Ġned irb
Ġjuod i
Ġrud i
Ġsudar o
Ġmu it
Ġakim is
c t
m ais
in ek
ĠK or
Ġdr us
Ġlai mes
Ġneb el
yg a
Ġdraug us
Ġmas inos
Ġmed ic
Ġregistr uotis
________ ____
Ġklas ej
Ġvaizd as
Ġstai g
Ġsvent es
Ġdirek torius
A K
ir ti
Ġbu k
ek m
Ġuz l
aus iu
ĠM egstu
Ġsav ik
ud o
Ġnaud oja
Ġatsak o
Ġsapn ai
Ġklien tui
Ġkrauj as
Ġiesk au
Ġlup os
Ġskon is
Ġsmeg enu
Ġres tor
V isi
y j
Ġpr iimti
Ġger iu
ĠJ u
tr ig
Ġniek uo
Ġiss iimti
Ġe bay
ĠVis u
ĠPas ir
Ġpers p
Tik rai
Ġdain u
Ġnereal iai
Ġmai tin
Ġvaikscio t
d ur
i ba
Ġt at
ad e
Ġl esu
Ġap at
ĠB ais
Ġras i
aud a
Ġin sp
ec io
Ġsit aip
oter is
Ġsavai ciu
Ġnesupr anta
Ġzenk lo
Ġpapild omu
Ġgroz is
Ġsap na
J uk
V iskas
l ia
n ezinau
Ġb azn
ik oje
Ġsu mas
aus as
ciu i
ĠB el
Ġpras o
ĠU S
Ġh er
Ġpirk ejas
Ġblog as
Ġlig os
uu uu
inink us
ĠDaug iau
engi asi
ĠBut ent
v iz
w o
Ġs as
Ġm od
Ġsu kr
ej imus
ĠS E
ios e
ev eik
Ġpam ok
ĠTik r
Ġw ith
Ġklien tai
Ġdarbuot ojai
Ġprojek tas
Ġgyvun u
Ġsaras a
Ġsnieg o
is e
it ar
Ġsk ys
Ġnem ieg
Ġversl e
Ġversl u
ĠNes upr
Ġtink l
Ġrez is
Ġth at
sh ip
ww w
agr ind
ands berg
e et
tu me
Ġgr and
Ġvai ka
Ġnaud ot
Ġbal ti
eal iai
Ġparas yt
Ġband e
Ġnesam on
ha ha
Ġvy ra
Ġlek tuv
Ġdov ana
S O
Ġs ienos
in imui
al es
Ġd o
ĠP ras
Ġpat yr
pr en
ĠB us
Ġats ikr
ym ais
Ġes ame
Ġkom ed
Ġnegal ejau
yp ac
Ġsud eg
Ġneg yv
Ġkalb ant
Ġapl amai
Ġstud entas
Ġklaid u
Ġelg tis
1 7
m etu
z es
Ġt atuir
Ġn r
Ġn ame
Ġl ol
Ġpr at
ais ka
ĠT iek
iaus ius
ĠV ai
Ġdirb t
Ġzod zius
Ġneats imenu
Ġfain ai
Ġgrup es
Ġgir dziu
Ġnuotrau ku
, -
y bu
Ġ {
ir bu
Ġpat ais
Ġpar uos
Ġval do
Ġprad ziai
Ġpasirink imas
Ġter itor
Ġkul tur
Ġadres a
Ġpavyzd i
Ġneid omu
ĠAtr odo
J is
M A
Ġ uos
Ġ eid
Ġs yk
et usi
Ġr yta
ej osi
Ġz an
ĠP u
pr ies
ĠV eliau
Ġpav yzdziu
Ġdid esni
Ġneblog a
ator iai
ĠDiev e
Ġsvaj one
Ġsteig ti
Ġsc en
% ,
I AI
es ta
im es
Ġuz im
Ġats arg
Ġpav alg
ain os
Ġplan uoju
Ġbrang us
Ġsusidur e
Ġsvor io
Ġrec ep
O T
j og
l iau
tu ok
az as
Ġnes il
ies ti
ĠA m
Ġuzs iima
Ġzmog umi
Ġvie tas
Ġbr uoz
Ġbal t
kar ciais
Ġlyg io
oo oo
Ġlais ve
Ġtem oje
Ġistat ymo
Ġpatal p
Ġanks ti
e ar
y ja
Ġp amas
Ġne truk
Ġsu pl
Ġz u
Ġnes ud
Ġjau ciasi
Ġmok amas
Ġkas os
ul io
oju i
Ġmaz iausiai
yn us
Ġau torius
ist iek
Ġpal aid
Ġnebu tina
Ġdv iem
ĠNiek ada
Ġdvas ia
Ġsteng iuosi
R R
T as
a A
j oje
k odel
u ta
in iame
ad arb
ĠK n
ĠM on
yt o
gal i
Ġsk at
tis ka
Ġkiek i
Ġmin ejau
Ġw h
Ġpers kai
Ġnepa tik
l ik
Ġ eis
Ġm ada
oj imai
Ġskir tingu
tur iu
Ġvyr o
Ġpriv er
Ġbuhalter ija
Ġpriem oniu
Ġlov a
Ġpolic ija
Ġinsp ek
P at
T odel
Ġir ank
am enu
ej ais
Ġgal iausiai
Ġuz kr
Ġtr um
Ġpad et
ĠNes u
Ġstr azd
Ġser ver
Ġpriv ers
Ġdeklar acijos
Ġrud a
Ġskirting ai
Ġoficial iai
Ġsvor is
Ġt ek
Ġl it
Ġpr iaug
oj es
Ġman ot
il iu
ĠK ada
Ġpat iek
Ġjau na
Ġgr if
Ġnus im
Ġin s
yd ama
Ġnen esioju
Ġtarp u
Ġnak ties
ciaus ia
Ġpatir tis
Ġiesko t
Ġvidu je
Ġsalyg os
Ġlau ka
v iu
z u
au ta
in emis
Ġne ina
Ġd ol
.. ?
Ġbu ta
yk tu
ĠG i
Ġsus ip
Ġgyv ybe
Ġver tes
asi tik
ĠPr ancuz
ĠPas ak
Ġzod i
Ġsumok a
Ġmoter u
Ġvietos e
Ġdiev e
sim oka
Ġek r
Ġperk ant
Ġrub ai
ĠDazn ai
l am
y ch
Ġf re
Ġsus iz
Ġnu pl
Ġkel io
eks as
Ġan kst
Ġatsak ymu
Ġblog iau
Ġab or
Ġtoki om
Ġproc ed
Ġrink os
Ġsvies iai
Ġdarbuot ojas
Ġauks ta
Ġav at
Ġapskai ciu
Ġdziaug s
Ġsaus io
Ġserg a
. ^
Q u
i A
tu mas
Ġar e
Ġar t
ĠB an
iv id
Ġnegal eciau
ĠGal iu
Ġpris ir
si pras
Ġnek laus
anc iais
Ġskiep ytis
Ġskaus mo
T a
T en
Ġn o
Ġn aik
oj ais
Ġnes ut
Ġger t
Ġsk ype
Ġpl et
Ġnu eit
Ġnei tik
Ġgyven o
Ġst andar
Ġdv igub
Ġor as
Ġvaik ams
Ġsm ar
Ġmir tis
Ġpra ejus
Ġnev irs
Ġsup rati
Ġautomobil iu
Ġrub us
Ġmirs ta
wil ight
s on
Ġ one
Ġn as
us as
im uose
ĠM ag
Ġver ti
Ġpan os
Ġiss isk
Ġkuriu ose
Ġgam inti
uok ite
Ġps d
Ġfiz inis
iar ank
Ġmergai tes
Ġdzin sai
Ġpatal pu
Ġun ik
Ġkak lo
Ġpasisk iep
Ġcig ar
zv ilg
Ġunivers it
l aug
o vo
Ġ eisiu
av i
yt us
Ġpl ov
ac e
Ġkr auja
uod amas
Ġklaus imais
Ġvai ko
kur i
ĠPr itariu
Ġvaik ino
Ġbud a
Ġlietuv os
Ġdem esys
Ġnereik etu
Ġzenk la
Ġskan iai
Ġprit rauk
Ġmedzia gu
Ġsistem os
Ġnuotrauk os
Ġsmulk men
Ġkort ele
k io
t odel
ai liu
Ġm ini
Ġd angu
el k
Ġr iba
ej ote
om et
Ġf raz
Ġpar ei
Ġtikr os
Ġkit oks
Ġneb era
Ġak iniu
Ġuzs ikr
Ġgau tu
Ġskir tas
Ġirod yti
Ġkarant inas
Ġt est
al aik
Ġg e
Ġman im
il k
ĠT am
og o
ĠI ki
Ġuzs iregistr
Ġtar iant
Ġsuk elia
Ġnuos av
Ġpasidar yti
Ġfilmu kas
Ġnatur aliai
Ġgars o
ĠZm ogus
Ġpri pr
Ġvampyr ai
3 3
O V
m g
iu m
Ġne gi
on ija
Ġnor etu
ol as
Ġpl es
Ġpl okst
uoj ate
ez is
ist eng
ĠH o
Ġtam p
Ġpasku tiniu
Ġneis eina
Ġkurios e
Ġrink oje
Ġmoksl ininkai
aun i
uc kas
Ġvaziu oti
Ġvirus as
ĠRes publ
Ġn ama
Ġd eti
Ġis eiti
Ġz n
ĠT eis
ĠT ev
Ġf antas
Ġnor etum
eg o
ĠJ uok
aik au
auk ia
Ġdr op
Ġnel ai
Ġpris is
Ġbal z
Ġsur asti
Ġnuos tat
Ġpavadin imu
Ġprival oma
Ġsudet inga
Nor eciau
Ġaptar n
. <
J A
P vz
e ini
iu ks
Ġat zvilg
ta ciau
Ġnes itik
ĠN egal
... "
ĠP ay
ĠS um
Ġf yf
yt oja
iaus io
Ġras ai
Ġsk us
ĠR ob
Ġtuo m
Ġsen as
Ġpirm iausia
uok sn
Ġpatir ti
Ġkat egor
99 99
vie te
juok ino
Ġefek tyv
Ġvienod ai
s ite
al aus
Ġv iolet
Ġr en
ĠK ita
Ġnor u
Ġger iausi
Ġto p
Ġkit oje
Ġnus k
Ġnus t
ym e
Ġkom erc
Ġpus br
Ġdien ai
Ġpardav ejas
Ġbendr ija
Ġmies t
Ġsam on
ĠZiaur iai
Ġbliz g
% .
B al
S T
g ai
in antis
an ciai
er os
Ġl aaabai
ĠT okia
ĠI tal
Ġpar amos
uk au
Ġan aliz
Ġsvetain es
Ġpaslap tis
Ġkamuol i
Ġsiuz etas
Ġnepiln am
m eti
Ġn amas
ti pr
Ġg eb
Ġg eles
Ġr elig
Ġpas iem
Ġpa cius
ĠS un
Ġf acebook
pr is
Ġats kl
Ġnu eiti
Ġgali oja
Ġbe butu
Ġpasak ius
Ġjuok o
irks iu
Ġbank r
Ġspor to
Ġpatenk inta
Ġkair iarank
N oriu
Ġp ieno
in ku
am bu
Ġl etai
it rauk
ĠT okie
ĠP M
ĠD om
Ġtur gu
ĠM o
ing iau
ul i
Ġgyv as
Ġpan eles
Ġkr ov
Ġpus iau
ties iog
Ġsl uoksn
anc e
if ik
Ġsitu acijos
Ġpasik eite
Ġvisok ias
Ġatvej is
Ġsugalv ojo
Pa gal
Ġsukuos ena
Ġamzin ai
varb iausia
I V
i oji
p al
Ġ ur
Ġ !!!
al ais
ik us
Ġkai mo
Ġpas kaiciu
pr antu
Ġpar odo
Ġpap l
Ġkal end
Ġdraug a
Ġisl aik
val d
Ġsusir as
Ġpatar ti
Ġfir ma
Ġvienint ele
Ġsiur p
Ġteor ija
v ais
es tu
Ġis mes
ak ti
ap p
Ġtik etis
ĠP uik
ius iu
ĠM usu
Ġ: -
ac iai
Ġkr iz
Ġlais ka
Ġmyl im
Ġkat al
Ġkauk es
Ġgimtadien is
Ġeksper im
Ġkei ciasi
! "
' m
N us
Ġb ab
us o
Ġl ove
ej aus
Ġats idur
Ġel ement
Ġkeis t
aziu oja
Ġjuod os
Ġsusir ink
Ġpuik u
Ġvers ija
inink ams
Ġprid eti
Ġrem on
Ġrup i
ĠMok es
Ġisim yl
AA AA
Ġissip ild
Ġsekm ingai
Ġgydyt oja
b aig
i oja
y ci
Ġt ot
ti tu
Ġr usiu
il a
Ġdar iau
tin u
Ġgr aud
ĠI D
ing umo
ĠL yg
Ġkr eps
Ġsal yse
ib ir
Ġit ar
Ġjuok as
Pr ad
Ġ200 9
Ġrys kiai
Ġpic a
Ġdirek tor
Ġhor os
Ġsusigraz inti
Ġatzvilg iu
Z odziu
v yr
Ġs ono
im osi
en cia
ais iais
ĠI sl
ĠL atv
Ġnu tr
Ġpinig ais
Ġlig u
Ġpasid az
Ġmacius i
ĠSim on
Ġpabaig oje
2 8
k el
Ġs em
Ġd ydis
im ybe
Ġpas to
Ġgal ime
od avau
ĠK on
ĠS itas
Ġkar o
Ġnep l
Ġtr iju
ati on
Ġvaid ina
Ġpol it
Ġsuzin ojau
Ġkvep alus
Ġisk ilo
Ġpuslap yje
IE N
Ġpopier iaus
Ġp et
Ġs iam
Ġs iusti
in imus
us a
Ġj omis
ĠP irk
ĠP ers
ol iau
te in
Ġsak ykim
Ġisl aikyti
Ġsapn us
Ġpasidar yt
Ġnurod yta
Ġpradzi oj
Ġpriek i
Ġapyvar ta
Ġla abai
Z iur
e in
k ime
Ġg um
Ġl az
Ġpr otas
Ġf iks
Ġuzs iem
Ġkr aup
Ġpal ikti
oc k
Ġsveik i
esim t
Ġkauk e
At s
Ġp auks
Ġs id
iu z
Ġd anti
Ġpr os
ak a
ing umas
ĠG yven
uoj ami
var st
Ġdid esnes
ec ius
Ġ3 000
Ġkom is
Ġsiu ks
Ġpadar yta
Ġdokum entai
ĠKaz kas
Ġproduk to
ee e
Ġnukr eip
Ġop tim
0 5
6 4
m b
p e
v ez
Ġ ).
au tas
Ġr enk
Ġger esne
Ġtikr i
Ġnu ejo
Ġbut eliu
ĠTik iu
Ġmerg a
Ġband yti
Ġmed it
ĠY ou
Ġliud na
Ġvais tu
OO OO
ykl oj
Ġsukn eles
Ap ie
D ekui
Ġl iem
Ġis aisk
Ġz adu
ol iai
pr ie
Ġpar eig
uk i
Ġnep ers
Ġpo bu
Ġes am
Ġmaz i
Ġpadar iau
kar t
Ġbais aus
Ġvadin ama
Ġneap simoka
Ġdeg tine
azia vau
Ġsteig imo
Ġsalyg as
ĠRus ija
Ġatsib odo
Ġpavasar i
Ġsyps ena
Ġnesim ato
Ġatsikr at
. ).
? ;
V iena
d irb
k uo
Ġl ast
on ei
em iau
Ġger esniu
ĠJ ai
uoj am
ep ti
isk is
Ġdarb ai
inin kui
Ġal gos
kait au
Ġlais v
Ġvir tu
Ġkvep alu
Ġvisok ios
Ġspecial iai
Ġgav osi
Ġnuotrau kas
Ġoper acija
Ġsuprant ama
Ġgeg uzes
' ,
) ;
E E
N er
l er
Ġp ul
Ġs aip
Ġne tink
Ġb om
ok le
ei le
ies e
ig r
yk les
ez iur
Ġsp ar
irs ta
Ġkain uos
ciaus ias
Ġnustat yta
Ġtukst anciu
Ġpama cius
ĠPav yzdziui
Ġgryn ai
Ġitrauk ti
Ġtren ir
Ġatsiti ko
5 00
f ak
Ġt il
ir dziai
Ġpr ati
or c
Ġis aug
ak as
on ais
il u
ais v
Ġtur g
tis kas
Ġdarb e
Ġsun aik
Ġreikal u
Ġvaik ina
Ġati m
Ġsm ur
Ġvalg o
Ġpirm os
Ġmoksl o
Ġsird is
Ġkompiuter io
Ġvaland os
Ġapr ib
Ġriz ika
Ġkantr ybes
K r
M M
T ar
Ġb urn
uo gu
Ġis vard
ius t
ig o
yk los
Ġsv eti
Ġpir stu
Ġlai me
Ġpaz yst
iniu ose
Ġnetur ejau
ĠVis ka
Ġreikal ingi
ĠIs s
ĠTur i
Ġban ka
Ġspr en
Ġdiev inu
Ġaktor iu
Ġlaikotarp i
Ġuzknis a
A g
v yn
Ġs iena
Ġm p
Ġpr aras
Ġi p
Ġnes enai
ĠN ev
ĠP aul
Ġc m
pr ess
ĠL R
Ġkit ose
Ġpav yks
Ġsp eju
inu kas
ec t
enk e
Ġsau ks
Ġlaik ras
?? ??
Ġuzd r
Ġgird eti
Ġproduk tus
eiks m
Ġlinks m
Ġfir m
Ġnedar o
ĠNer eikia
Ġypat ingo
Ġomen yje
Ġvari anta
7 5
R eikia
g is
i x
s v
t le
Ġm aike
us k
ia ko
Ġl iz
Ġl auz
Ġpr iras
eik e
Ġtik et
Ġtur tas
Ġper pard
Ġats iun
ĠO i
Ġsus t
Ġko vo
Ġbuv es
Ġ4 00
iklaus o
Ġsukur ta
Ġplauk ams
Ġsie los
---------------- ----------------
i ojo
ar eig
Ġvis iska
ij oms
Ġtik ejausi
ĠK okios
ĠV il
Ġtu al
Ġid eti
isk r
Ġbr and
Ġnek lys
Ġnam ai
lo w
lu te
Ġsur ink
Ġkeli ones
Ġrys k
Ġatsip alaid
Ġkeb ab
E K
T ad
f ot
in at
al io
os ta
Ġl iecia
ĠN etikiu
Ġf l
Ġper t
yt ojas
ĠV aik
un o
Ġin form
Ġim okos
Ġak s
Ġiss iskir
Ġpaz istu
Ġpap uos
Ġsen elis
Ġsupr anti
Ġpanas ios
Ġspal vo
Ġpatik tu
azn iausiai
Ġsum ais
Ġlog ika
Ġrezultat as
Ġnevalg au
Ġmars kin
Ġabs oliu
G raz
Ġ &
Ġ ejo
an ko
Ġd on
Ġb iolog
Ġl iau
Ġpr ip
ab l
Ġvis vien
ĠK el
ol aik
Ġger okai
Ġras oma
ma g
Ġpir st
ĠR am
Ġmaz os
Ġpasak oja
Ġkom anda
Ġ20 10
pas aulio
Ġjuok ingai
olog ija
Ġkab in
Ġduomen ys
Ġarb atos
Ġparduod u
Ġnug ara
Ġgen er
Ġting iu
Ġatsakom ybe
sipras au
] .
l yg
Ġ oj
Ġm istika
Ġpas iskait
il ti
ĠP aras
ĠA g
Ġvien oje
Ġgraz inti
Ġes ant
Ġatrod yti
Ġmat erial
Ġkon v
Ġpadar ysi
Ġteis iu
Ġkuo m
Ġkalb i
Ġmel ag
Ġgalim ybiu
Ġbaig sis
Ġklasiok es
Ġautomobil io
Ġdrabuz ius
Ġimon ems
Ġre ak
Ġag ent
60 2
Ġsavik aina
Ġp y
Ġpas iv
Ġvis om
ĠT uomet
Ġuz mok
Ġmok ejimo
Ġpar em
Ġdel f
eng v
Ġdraug ei
Ġh ig
ĠF l
Ġteis us
Ġband yt
Ġsm s
Ġbendr adarb
Ġtev ais
Ġnuos tol
Ġpagrind inis
Ġang el
Ġgel ez
Ġfaktur os
Ġpazist amu
Ġkonc er
Ġmot yv
ĠSo Of
Ġdrop ship
iu v
Ġg ud
Ġl im
Ġl iez
on is
ĠS avo
ĠS iul
eg e
ĠG oogle
Ġnet ies
Ġnu einu
Ġdraug o
Ġkon f
kur is
Ġnesu ge
Ġasmen iui
Ġsr iu
Ġmel uoja
Ġskaiciu oti
Ġgel ton
Ġsez ono
Ġgul i
ipirk au
Ġtrans porto
Ġigyvend inti
P H
v akar
ai te
in ems
Ġm m
Ġv ys
am d
Ġl esiu
Ġis man
ei l
Ġpl on
tik rai
un u
Ġnus p
Ġpati ks
Ġkr yp
Ġsun kus
Ġpil vo
Ġspal vu
Ġch em
Ġnesupr ant
Ġgars iai
Ġprogram uot
Ġypat ingai
Ġprofes ija
Ġisvaizd os
Ġblakst ienos
Ġpoziur is
Ġfig ura
0 7
K laus
k oks
Ġne juok
ies iems
Ġdaug iausia
yb eje
la ck
Ġnu tar
Ġneb en
ĠE m
Ġmaz osios
st am
Ġatrod ys
yd i
mok estin
Ġsl ams
Ġsapn e
ĠW h
Ġpag er
Ġpagrind ine
Ġskiep u
IE K
Ġnegraz us
Ġiras yti
Ġpriezas tis
Ġon line
Ġissiaisk inti
Ġk ine
Ġs ias
Ġs mal
in inka
Ġb ild
Ġg eliu
ek as
ĠD u
Ġsav im
Ġklien tams
ĠNet uriu
Ġjaun as
Ġvy ko
Ġsprend imas
Ġoper acijos
ĠSim ps
Ġangl iskai
Ġveikl oje
I L
P ar
m ui
ir l
Ġb y
es it
at eg
er ijos
oj ami
ol l
ot h
Ġkiek is
Ġpad irb
Ġdraug em
Ġpasak ysiu
Ġnereik tu
Pr ies
'' .
Ġprojek tu
Ġsod ra
Ġgaus iu
Ġakim ir
Ġrugs ejo
Ġscen ar
E IK
j ie
Ġd uos
Ġkai re
Ġuz tat
Ġras tu
Ġpar ode
Ġzin ok
ĠNor ejau
Ġisp u
Ġmel yn
Ġsiul yciau
Ġsez ona
ĠLab iausiai
Ġkontr oliu
Ġnemal onu
Ġsusis iek
ĠTikr iausiai
M S
S us
g yv
Ġm ik
ok r
tu os
Ġis iv
ais i
Ġap ip
ĠS ita
ed us
Ġgr es
Ġsus iv
Ġdr austas
Ġgraz ia
Ġsp ausd
ati ka
Ġpam okas
Ġpries tar
Ġpras mes
Ġidom iau
Ġpapras ti
Ġatsir ad
Ġdokum enta
Ġregistr u
Ġuzdar yti
galv ojau
Ġer z
Ġvari antu
Ġsutr ik
g o
Ġt ip
Ġs azin
it inka
Ġpas paud
ĠE U
Ġskai ciai
Ġan al
Ġdirb ant
kar tais
Ġse imin
Ġmed zio
Ġad vok
Ġdrabuz iai
Ġkoment aru
Ġnuspr ende
Ġsku dur
Ġgil iai
Ġdras iai
Ġviz u
Ġdarbdav ys
ĠNesupr antu
PH ONE
A k
M at
e y
k okia
al s
ur d
iau ti
Ġsu kasi
Ġpas nek
ĠA u
ĠI T
ing s
Ġsk yl
Ġsav u
ĠE ch
eng e
Ġvar toj
ut bol
amu ju
Ġasmen ims
anc iam
Ġilg us
Ġgam tos
Ġkomp ens
Ġjuod u
Ġnum eri
Ġiv yko
Ġistat ymus
inej i
ons tr
Ġlaim inga
Ġiesk ojau
ĠKal edu
pard uotuv
Ġret karciais
Ġmom entu
2 4
b ai
n iai
p ti
Ġt fu
ie ta
or pi
Ġsu var
az a
ak es
ei c
Ġkai nu
Ġvis uomet
ig a
Ġmok esi
Ġiss iim
Ġziur ek
Ġaps ig
Ġsupr at
Ġkol eg
aj ung
Ġmie lai
if l
Ġtiksl u
Ġtink amai
Ġtel ek
Ġbrang iau
Ġkil o
Ġyou tube
ĠKal edos
Ġlegal iai
Ġlic enz
ĠKaun o
G erai
v id
z ai
iu d
ti l
el la
ej ome
ap ie
Ġpas iz
ek tra
Ġmok ami
ĠL ai
ent ra
Ġim oku
Ġpan aik
Ġatrod au
Ġsal ys
Ġpasak ys
Ġpras tai
ĠVis iskai
Ġor ien
ĠNe bu
Ġrod ys
Ġpatir timi
Ġsim bol
Ġzurn ale
Ġtru ko
Ġbai giasi
Ġsudar yti
Ġez ero
Ġpot encial
Ġneklys tu
9 5
? :
as h
Ġt un
Ġk and
Ġs est
Ġm am
il s
ĠN egaliu
... )
tin eje
Ġger esni
to p
aik os
ul iai
Ġzin ute
Ġkel iais
ic io
Ġpam atau
Ġsit am
Ġst ot
Ġpaj ud
Ġvaik ystes
Ġilg as
Ġjuod as
Ġnar koti
Ġdom etis
Ġpasiul ymu
Ġpasis ak
iun ciau
Ġmast au
Ġteig ia
Ġnos ies
Ġpraded ant
( (
P l
o y
Ġb aj
ik es
Ġr oz
Ġl eks
or ld
Ġpas iimti
ĠT e
Ġnes id
ĠN ed
ĠS w
ĠS varbu
Ġper l
ks cio
ing uma
uoj at
iem et
ov a
Ġnem ate
Ġskai ciav
Ġvai kstau
yks tu
Ġpaziur esiu
les s
Ġlietuv iskai
Ġnormal i
ĠBu na
Ġuzsien i
Ġkvai las
Ġnegraz iai
Ġatskir a
Ġcentr o
Ġkompan ijos
Ġateiv iai
Ġparti ja
ĠGab e
Ġisigij imo
I O
V akar
b ur
n io
v inas
Ġ ink
Ġp ail
Ġn lb
Ġr ado
az o
ĠN U
id a
Ġtur tu
ĠM ed
Ġpir s
Ġpad etu
Ġner up
Ġpro pag
Ġe inam
Ġdid zi
Ġor g
Ġgalv oji
Ġw eb
adien is
Ġindividual i
Ġlais ves
Ġneuz s
Ġ201 4
Ġpriem one
Ġpuslap io
Ġkambar io
Ġuzsid irbti
Ġsusidur ti
Ġstor a
Ġisivaizd uoju
Ġliep e
Ġcivil iz
Zin oma
t ad
y tuv
Ġir eng
av osi
ĠS iaub
ĠM en
ĠB endr
aud o
uk es
auk es
ink es
ĠE g
Ġprie ziur
Ġpris ik
ĠH a
Ġnauj us
Ġasmen ine
ĠIs pan
Ġzod ziais
Ġspal v
Ġlaik yti
Ġapl inka
Ġrek viz
Ġprit aik
Ġnev yk
Ġnaudoj amas
Ġneat rodo
Ġkoment arus
Ġdvas ios
ĠVien int
Ġre ag
Ġvies ai
Ġde pres
Ġinvest uoti
Ġregistra cijos
Ġapib rez
e u
Ġk eik
Ġs mu
Ġd ziu
Ġb ob
av imui
Ġuz tikr
ĠS ekmes
Ġc ovid
ed o
and o
Ġats iz
ĠL andsberg
iz ud
Ġnus id
sl as
Ġneb eg
st at
gr az
Ġpasir uos
Ġnauj i
Ġ:] ]
ĠKiek viena
Ġgyvent ojai
Ġkeli one
Ġskiep ij
.: ]
Ġbur na
una tik
Ġu ab
Ġpaim ti
K itas
N T
n oz
w ai
Ġd ail
Ġb iur
os s
Ġj ung
el ei
od avo
il as
ĠN SO
ĠM eg
Ġvien ame
Ġkok iais
un e
Ġdr ama
Ġval iu
auj i
Ġaps ipirk
Ġvar o
Ġa f
Ġtev ams
Ġsiek ia
Ġreal ybe
Ġrim t
Ġvid aus
uu u
Ġrud eni
Ġtelef onas
Ġru tu
Ġbur bu
Ġuzsak yma
Ġapsaug os
Ġveln ias
Ġnepris imenu
Ġbaud a
Ġissil av
ifl ame
p ad
Ġ ),
Ġb ibl
es tas
tu met
ĠP ol
ĠP ag
ĠD ep
Ġc on
ig n
vo ice
Ġneb eb
Ġuzs ip
Ġtau ta
liu ku
Ġpris iziur
Ġbal tas
Ġpra eina
Ġtvark ingai
zio v
ĠPir mas
Ġpaband yti
Ġsvaj oniu
Ġsub sid
Ġrezultat u
Ġkru va
........ ........
Ġminus as
ĠKlaus imas
Ġvyriaus ybe
Ġsavarank iskai
Ġren kasi
9 23
k m
m ail
v eng
Ġne idom
Ġg it
ok ur
ad ino
od y
Ġpar s
Ġdaug umai
Ġin v
Ġprad zios
Ġmat em
Pr is
Ġskirtu ma
Ġvakc inu
Ġdidz iausias
ĠRus ijos
Ġgimtadien i
ĠVal st
Ġitak os
Ġvirtuv e
Ġpirks iu
Ġie ina
Ġml n
3 5
K uri
T A
e f
Â ®
Ġp j
Ġl emp
Ġkai ma
Ġbu n
ĠS is
Ġo i
Ġats eit
Ġtr ius
la y
Ġnu var
Ġsp uog
Ġbutu m
Ġgyven imu
Ġvar z
Ġnezin ojau
ind avo
ĠTik iuosi
Ġband ysiu
Ġkain avo
pas laug
ĠGer a
Ġmoter s
Ġsukur tas
Ġof f
ee ee
Ġpagrind e
Ġgel t
Ġsku b
Ġgyvun ai
ĠPet r
Ġproces as
Ġtav im
Ġsaldain iu
> <
b eje
Ġs iai
Ġm enk
el us
Ġl itus
ej i
eik es
Ġpas ekmes
ĠS it
ĠS ud
Ġgr ie
Ġmok ama
gi ant
Ġsus apn
Ġnep irk
Ġnus ivyl
Ġzin ojau
Ġpirk ejui
Ġil gu
Ġnauj ai
ĠVis os
Ġdirb antis
Ġgim inai
Ġnum eris
Ġnetik i
Ġad m
Ġmyl ia
kl aid
Ġzurn alis
Ġsird i
Ġduk ra
Ġpast angu
Fil mas
Ġro zin
vaks ia
Ġnetruk do
) :
P S
T IN
i pr
Ġp oto
is iu
Ġr ed
od ami
Ġap ku
Ġsv aig
Ġpir mu
Ġneb egal
Ġnem ato
Ġpras tas
ĠNes eniai
ĠNor veg
Ġsaskai toje
Ġstr ateg
Ġsek und
Ġtiksl o
Ġstraipsn iu
Ġproblem as
ĠJus t
Ġsprend ima
vies ti
Ties a
niek o
Ġisip areig
d b
n ies
Ġ az
at ves
oj ima
Ġdar oma
ĠP az
ĠS uper
Ġf ail
ĠM ax
Ġpar a
yb ei
ĠE x
Ġkazkok ias
Ġan e
Ġnetur ejo
Ġbuv us
Ġpaziur ejus
Ġdarbuot ojus
Ġpuik i
Ġorganiz mas
ĠLab as
Ġmad os
Ġpalyg inus
Ġsmar kiai
b al
c ijai
} }
Ġp eciu
an uoju
os of
ok ias
am ais
ak u
kai te
id es
em ba
ant o
ĠA fr
ĠD o
Ġc it
Ġtaip ogi
gal vo
Ġkl ystu
Ġkit iem
Ġak iniai
Ġkal tas
Ġpris ipaz
Ġnen audoju
Ġpras yma
Ġbendr ai
ier iu
Ġmies tas
Ġplan eta
Ġvykd oma
Ġuzt ektu
Ġmei l
Ġav ar
Ġnatur alus
Ġsez onas
Ġug is
Ġatsp alv
Ġsocial inio
Ġding sta
Ġgrif ka
: *
r io
Ġp ietu
au le
Ġd auz
Ġl et
Ġz lug
od ama
ĠT aupau
em ber
Ġpa ju
Ġgr ipas
Ġkit ai
Ġnus it
Ġgraz iausia
ĠR aud
Ġprad esiu
Ġmat os
Ġsun us
Ġbud ama
Ġsud er
adien io
Ġrod yti
Ġsuzin ot
dr aug
Ġegz am
Ġnustat yti
Ġpatal pas
Ġob uol
Ġpaskol os
Kad angi
itan ika
Kar tais
Ġpastar uoju
Ġleg end
Ġsyk i
E M
P ats
Ġp h
Ġs w
Ġs ar
ti z
er l
Ġpr et
Ġis ver
ej oju
Ġvis iskas
Ġat aug
Ġkur t
Ġf e
tin iais
ĠM c
Ġger ia
ĠB U
Ġpar aiska
ĠO j
Ġpav eld
Ġkr enta
Ġsal ygu
uod avau
tar us
ekl am
Ġbal tu
Ġatl ieka
Ġpaslaug omis
Ġsvies us
Ġspr esti
Ġdaik to
Ġistat yma
Ġivair ius
Ġmo tina
Ġpazym ejima
Ġrom ant
Ġalerg iska
Ġgaranti ja
Si andien
onsult uoti
Ġaks esu
J i
V ienas
a ys
t yt
v us
es ite
Ġsu form
av ejo
ais ant
Ġap im
ĠD O
ma gu
st yti
tos iu
Ġdaz yt
dar b
ĠU zd
Ġh ar
Ġmerg os
Ġparas o
Ġparas ysiu
Ġnepr al
Ġned uoda
Ġpriklaus omai
Ġgaun as
Ġistat ymu
Ġstat yb
Ġpagalv oju
Ġdziaug tis
Ġpopier iu
Ġskol a
Ġsuteik ti
Ġkiau liu
Ġstebu k
Ġsudom ino
2 6
as e
is tus
ar y
ti mas
Ġg ime
oj imus
ais e
ĠS apnavau
ku ose
Ġto o
ul d
Ġpir sto
Ġpak anka
Ġdaz u
Ġst eigi
Ġteis inga
Ġbud ais
Ġati tik
Ġgam yba
Ġisg irsti
Ġgan etinai
Ġkambar y
ĠNem egstu
Ġveiks mo
Ġtaik omas
Ġpasiziur eti
Ġligon ine
Ġpriezas ties
Ġdie tos
Ġisn aud
Ġadres as
Ġatsisak yti
Ġatsipras au
Ġpenktadien i
q uote
Ġg ais
or ai
Ġis jung
om ybe
Ġpas veik
Ġman yciau
Ġat b
ĠP anas
Ġger k
Ġ( "
un ai
Ġim un
Ġuzs idar
Ġgyven i
Ġdid men
Ġmat ytu
ĠH mm
ĠNes amone
Ġneis l
Ġkoki oj
Ġnuos t
Ġklien tus
Ġch a
Ġsusir asti
Ġad r
Ġsod ros
Ġnup ies
Ġdiev as
ĠNeb log
Ġveiks m
Ġkvap o
Ġmegstam iausias
Ġiregistr uoti
Niek o
Ġziem os
Ġev oliu
ĠMag ly
Ġparei gu
Ġpy rag
K ol
b and
t eks
v an
an z
Ġis tis
ap e
ap o
Ġuz tr
Ġpat ariu
Ġnor ima
ent uoti
Ġnet ol
Ġpl anas
Ġtikr ov
Ġant ro
Ġiss imok
Ġkon d
Ġpaj am
Ġatsak e
mal us
Ġpirm us
Ġmoter i
Ġmyl eti
Ġtrump i
Ġnatur ali
Ġelektr os
Ġskelb imu
Ġalkoh olio
Ġdvir aciu
Ġfraz e
P R
Z inau
r op
Ġp m
ir t
Ġd ivid
ik t
Ġi vard
ĠT eko
Ġpar ag
Ġsus im
tai gi
Ġak ies
ic ius
Ġklaus iu
Ġst engiasi
ĠH ausas
Ġsun u
vis i
Ġlaik osi
Ġzem iau
Ġnak tis
olog e
Ġtap s
Ġpatar imas
Ġbern iukas
Ġkirp eja
Ġpazym os
Ġkapit alo
Ġpaies kos
Ġveget ar
ĠKin ijos
ĠRespubl ikos
? [
o x
Ġ uod
Ġk m
in ams
Ġv as
us is
ad r
av os
Ġc om
Ġtikr ais
Ġnep ar
Ġnu val
Ġmaz esnis
up uti
Ġkr iti
Ġkr iter
ud u
Ġik r
Ġdraug ams
Ġkon tein
Ġw e
Ġbud amas
Ġnek om
Ġel ektra
Ġint elek
Ġuzd eg
Ġ7 2
iant ys
Ġraud onai
Ġvaziu oja
ĠDaug uma
Ġzaid imu
Ġmilij on
Ġsusik aup
sh op
Ġpamirs au
Ġproting as
Ġvaikscio ti
Ġly gi
Ġnuot yk
E J
G eras
P D
g yven
y ziu
Ġb edos
Ġg o
Ġg adina
at is
ap us
ek oju
ĠT er
aug i
Ġka tik
Ġnu tiko
iam us
Ġnus ir
Ġzin ios
Ġe inant
Ġmet a
Ġpaz eid
Ġnel egal
Ġmokes ciais
Ġvel tui
inin kais
Ġbal k
eln o
Ġgam ina
Gal i
Ġpaklaus t
ĠJau ciu
ĠKiek vienas
ĠUz s
Ġsiun ciu
Ġklasiok ai
Ġdur ys
Ġskaud ejo
Ġvald ymo
dav om
oog l
Ġskon i
Ġatlyg inimo
Ġmedzia ga
Ġneziur iu
Ġnuobod us
Ġbals as
Ġprig im
neb ent
Ġreikalav imus
A Z
m ecio
in usi
Ġm ikr
Ġg ail
.. ;
Ġr enku
Ġis var
Ġis prot
ien es
Ġar ch
Ġf oti
ed ai
ĠL e
Ġsk yle
Ġim okas
ain iai
Ġskai tosi
yd au
Ġpadar ys
Ġbr oliu
Ġasmen i
akar t
Ġsm ird
Ġpirm oji
Ġam zius
Ġvaid men
Ġsub jek
ĠX D
Ġkarant ina
Ġnepav yko
Ġrekomend uoju
Ġinternet ine
Ġauk let
Ġnekal bu
Ġnusiper ku
egz ist
D iev
S h
p yr
ai dziu
Ġne var
Ġb ad
av usi
Ġpas iklaus
ĠK itas
ĠM ir
pr ad
tr u
uk ur
ĠR egistr
Ġkr iks
liu mb
Ġbr angu
Ġstr uk
Ġtev us
re en
Pr itariu
Ġplan o
Ġsvies os
Ġtink ama
Ġkiekvien os
yst eje
Ġbuhalter e
Ġlog iskai
Ġnerv u
Ġaktor e
Ġblond ines
Ġmars k
Ġprisimin iau
Ġraid es
Ġstaig iai
Ġnesuge ba
Ġprieziur os
B l
is tikos
Ġne iv
Ġne esu
Ġne rodo
ad inti
im tai
Ġl aipsn
eik ti
ĠN T
ĠP inig
Ġap t
Ġnor etusi
Ġgr ind
ot us
ĠL aukiu
Ġtr au
Ġ2 9
Ġh m
Ġpal auk
Ġpasku tines
ard es
Ġsumok i
Ġisras o
Ġpapild oma
Ġkvep alai
Ġtechn ika
Ġdurn as
Ġsnek a
Ġrib os
Ġnesveik ai
Ġefek tas
Ġpatikr inti
ĠMat yt
Ġstik l
Ġatsakom ybes
Ġvitam inu
Ġstebu kl
Ġtemper atura
p es
s en
al ine
ik iu
Ġpr emj
Ġis is
Ġz ir
ĠT AI
Ġnes isku
ĠN eis
ĠS il
ol o
ios ios
Ġniek a
ul ia
ov u
Ġim an
ĠR em
Ġsp int
Ġvel gi
Ġgau tas
Ġpal uk
iaur iai
Ġlyg us
ting ai
Ġvad ovo
Ġei le
Ġvirs aus
Ġban kas
Ġproduk tai
Ġpasiul yma
Ġpriem imo
Ġpuslap is
IS K
Ġkompiuter iu
Ġzvaigzd es
Ġpersp ektyv
t eliu
ar na
om ina
Ġvis aip
ĠK eista
ku b
iz ma
tuv iu
ov iu
ĠR eiks
Ġpav yz
Ġiss iun
le y
tat e
yd o
Ġsiu olaik
Ġsit uo
zd a
ib r
Ġidom iu
Ġsen u
ĠPr ezid
Ġpapras t
Ġpers ik
Ġpag elb
Ġisg yven
Ġiskar to
Ġuzk ab
Ġuzsid edu
Ġatsiras tu
Ġgarban oti
Ġskyr iu
Ġapyvar tos
Ġep id
Ġnuras yti
Ġemoc iju
Ġdz em
Ġpobu dzio
" )
K al
M az
S m
k ia
ar i
Ġr anda
uo dzio
ei vis
ei ve
Ġi pr
Ġf utbol
pr et
ĠI ev
to o
Ġ2 6
Ġik vep
enk i
enk ti
Ġvar gu
ĠLietuv ai
Ġbuv usi
aj i
tur g
ĠTur ejau
pa gal
Ġproduk tas
Ġpaklaus e
Ġtams os
Ġistat ymas
Ġspec if
Ġpig iai
azn ai
Ġkab es
Ġdeg tines
Ġparduod i
Ġsh op
Ġsteng iuos
Ġauto b
Ġinvesti ciju
Ġaud itor
r ang
Ġ etik
in amos
in kui
iu kus
Ġm er
Ġb en
Ġis eis
Ġis ijung
Ġat nauj
ĠT ipo
Ġar kl
id al
Ġap ziur
ĠS varbiausia
aus ta
ĠD aktar
Ġtok iems
Ġats id
Ġkar j
Ġka ciu
Ġsv ie
kur iu
ĠF acebook
ĠH er
Ġlaik ytis
uol ab
Ġkalb ejo
Ġpirm i
Ġnepat ogu
Ġrim ta
Ġpateik ta
Ġsitu os
zi ama
alb ant
yst ej
Ġnev ykd
Ġrus ai
Ġ201 3
Ġakc ijas
Ġautomobil is
Ġkambar yje
Ġzaid imas
Ġserial a
Ġnepad es
Ġsvetain eje
Ġlin ija
Ġnedid ele
Ġpraeit a
Ġveidrod i
Ġminti mis
Ġnuot aikos
Ġnuolaid a
ych ka
Ġd av
os k
Ġg elb
Ġnes um
Ġdar yk
ĠP AS
Ġkur iai
ĠA iste
eg i
ĠM il
ol a
Ġats kai
Ġ2 7
Ġgyv ybes
Ġver cia
ud a
-- -
Ġpagal voti
Ġversl ininkas
Ġilg os
pas ak
Ġnormal iu
Ġisg er
Ġrink ti
Ġrod yt
Ġspr og
Ġbeg a
Ġvakc in
Ġtrec i
Ġsald um
Ġfaktur as
alg au
Ġmintys e
ogr am
tern atyv
Ġpud ra
C IU
I G
P SD
T oks
i form
z dziu
Ġp ut
an ija
Ġv og
ik is
ik lis
ok rati
ek u
ĠK vaksia
ĠA ir
ĠB log
ĠI t
Ġkl iu
Ġzmog um
inu ku
Ġaps id
Ġ3 6
Ġtau tos
ut n
Ġkv ita
ves t
Ġser ijas
Ġmoket ojo
Ġvir usu
Ġpatog us
ĠDiev ui
Ġatlyg inima
Ġmag ija
Ġarti mu
Ġvisuomen es
Ġpand emija
nel yg
? ..
Ġ ut
ar eg
Ġd ziov
ur u
el ydis
or iaus
Ġbu to
Ġtik imybe
yk le
Ġnep ard
uoj amos
Ġnu gal
un as
ov iz
Ġpad az
ite ir
Ġsav ybes
Ġdal yje
ic i
ĠE sti
eb ra
yl i
Ġsapn u
Ġdeklar uojant
Ġgim ines
Ġlais va
Ġisg elb
Ġpatar ciau
Ġsvarb i
Ġneats is
Ġvampyr u
Ġsantyk iai
Ġvaz el
qu iem
Ġpaskait yti
Ġantak iai
Ġkupr ine
Ġbez dzi
Ġvokie ciu
ĠID V
C y
d esimt
Ġ iej
Ġt ir
an ku
Ġj egu
ad os
Ġl edu
or it
Ġis ak
ys ta
tin os
ul es
ov ai
Ġin as
Ġid io
Ġgyven imui
Ġdaz ytis
Ġbal ans
Ġpasl ep
Ġkalb ama
uok it
Ġnetik etai
ali oji
Ġvadin as
Ġreiks mes
Ġsam dyti
Ġfiz inio
trau ka
ĠPat ar
ĠZiur iu
Ġgav ai
Ġateit ies
Ġmedzia gos
Ġneziur ejau
Ġbo bu
Ġatostog os
Ġsokol ado
Ġsugr iz
Ġsoliariu ma
Ġrieb al
fil m
e en
k on
Ġp ost
Ġk ir
Ġk ina
Ġs abl
in or
in anti
Ġm eis
Ġb ras
Ġg aiv
Ġj om
Ġl yt
Ġi jung
Ġnes uz
em us
ĠK okiu
og as
ĠM oter
Ġper oks
ko t
ĠJ am
ĠJ ez
Ġzin ia
Ġak cija
Ġpam in
ib er
Ġnezin ia
Ġ5 000
vis os
Ġvad yb
re am
Ġfilm ui
Ġrim ciau
Ġnereik s
Ġvykd ant
Ġdaik tai
'' ,
Ġmokyt ojas
Ġtus cia
Ġtrec ias
Ġdek ingas
Ġkru tines
Ġpri ima
Ġuzdarb is
Ġperv ed
Ġpaaug l
Ġauskar us
Ġraid e
ĠDie vo
Ġliez uv
U K
p irk
z ud
Ġt irp
Ġk ieme
et r
tu mete
Ġgal ia
ĠP aj
ant ai
ĠD on
ĠM AN
Ġper nelyg
ĠV amp
Ġkar al
Ġkl u
Ġkl in
Ġak ivaizd
Ġmaz esni
Ġpras ta
Ġsupr ato
adin asi
Ġkol kas
Ġmin ist
met us
Ġnenor ejau
Ġauks to
Ġzurn al
Ġsiaub as
Ġtel ep
Ġkoj om
Ġlaim ingas
Ġakys e
Ġdes ine
Ġmociu tes
ny Cy
Bu vo
ĠGraz u
Ġuzras u
Ġalkoh ol
Ġsep tyn
ĠEs me
c iam
d us
Ġs ch
in uosi
el emis
ak tu
Ġpas auliu
Ġi form
Ġman imi
ĠA S
Ġvien oj
Ġsk and
ul l
uoj antis
ez a
Ġfil osof
esn iais
Ġprad edi
Ġiss pr
ĠC l
ĠC o
Ġpasak yta
Ġpal ieka
Ġal us
ĠNes varbu
Ġpaziur ek
Ġpardav imas
Ġuzd irba
Ġparduotuv ej
ci ant
Ġkalb ejau
Ġnereik ejo
Ġgird ejus
kit es
aliu kas
Ġuzk laus
Ġklasiok as
Ġdek a
Ġgriz au
Ġbern ai
Ġsvaj ones
Ġvies bu
Ġpapasak oti
Ġsantyk ius
Ġlaikrod i
Ġsugal vo
Ġnesis eka
Ġpriev ole
e x
g iu
v aik
Ġp on
Ġne kr
Ġb aug
us ias
Ġr uz
or os
Ġgal vot
ĠB at
ĠB lack
ĠJ okiu
Ġats to
Ġvien kar
yb ai
ĠE ik
Ġpris it
Ġnen um
Ġan ima
Ġal ternatyv
ard as
Ġser ti
Ġvakar o
ĠGer iausia
Ġzem eje
ens e
Ġpra juokino
Ġdokum entas
Ġnemok i
alb eti
Ġtams us
Ġvadov u
Ġnemaz a
Ġvais ius
Ġdraud imas
Ġvald yti
Ġtaup yt
Ġdarbu i
Ġissip l
Ġatostog u
; ]
R AI
Ġk ate
Ġd is
uo tai
it yv
ab u
Ġpas iteir
Ġnes io
Ġdar yciau
ĠP ap
Ġkur o
Ġc o
ĠL AB
ĠO f
Ġtikr us
Ġant ros
Ġdr e
Ġin voice
Ġpad or
Ġval ios
men iskai
Ġgyven am
Ġ3 3
Ġpasak yk
Ġatv aziu
Ġnebu ciau
Ġpra eiti
Ġrim tas
Ġkun ig
Ġpuslap iu
Ġvaziu ot
AU G
Ġdzin s
Ġbank e
Ġpaskait yt
ĠHar is
Ġpasidom eti
ĠSen iau
Ġkonsultant e
Ġadm inistr
2 9
K l
T V
[ /
o ciau
as tr
ok ol
Ġr ata
uo to
Ġsu le
Ġnes a
Ġnes unku
Ġap art
ĠS OD
ot ai
ĠG AL
Ġnep asitik
uoj ame
Ġant kai
Ġveik lu
Ġuzs ir
Ġpati ksl
Ġbe prot
Ġmat ytas
ain u
Ġasmen ybe
Ġor a
Ġlietuv a
Ġistor iju
imin iau
Ġmal onus
Ġbaig iau
Ġtrauk ti
ĠNep atinka
Ġdzin sus
Ġnepa aisk
Ġpasinaud oti
Ag nyCy
N esu
i imu
Ġk eks
Ġk emp
in ate
in ezes
Ġb it
el eje
Ġi gu
Ġats ius
Ġpir kai
tis ku
Ġzin om
Ġpav ai
Ġklaus imo
ĠZ em
cia vau
Ġfor uma
Ġdirb o
Ġw ill
Ġnepas is
Ġnepas ir
Ġjaus ma
Ġpaaisk int
ow s
Ġpriem on
Ġuzsak ymu
Ġtus a
Ġ19 9
Ġlup as
Ġnepad eda
Ġpazist ama
Ġmai kute
EN T
ĠVokieti ja
Ġnemeg sta
IIII IIII
2 7
A ps
G yven
X X
d s
h ing
t f
t s
Ġs of
an aud
Ġne ist
Ġne egzist
Ġd ia
Ġgal ejau
ĠP agrind
Ġf an
Ġger iausios
ĠI z
ov os
Ġsak es
Ġsav anor
ic ijos
Ġkr itik
Ġpus val
Ġsi an
eisk it
Ġpil n
Ġlietuv iskas
Ġse imo
Ġgam ybos
Ġnepas iek
Ġsumok et
Ġbij ojau
Ġsitu acijoje
Ġvykd o
Ġvais iu
Ġmuz ik
Ġsusidur es
Ġlov oj
Ġnejau ku
TU V
Ġpavad inti
Ġaktu alu
Ġdidzi oji
) ...
D id
I J
K okia
S ak
U AB
d yt
m s
Ġn osi
Ġv ab
Ġd eda
ok es
ad i
Ġpas ijuok
Ġvis ame
Ġbu wo
ĠS av
ot es
Ġkar tas
ink is
Ġaps ik
uod avo
Ġpam oku
ĠPr ek
Ġpadar ytu
arb an
Ġpanas ia
Ġnormal ios
Ġtarp tau
Ġnuos ird
Ġsveik atai
atur os
Ġnar io
Ġdarbuot ojo
Ġsim ps
Ġrek ia
Ġneap mokestin
Ġpagalv ojus
rag on
sp ychka
Ġkul tura
Ġlap kr
Ġnepav yks
Ġgryn ais
Ġprinc ipu
Ġapk ab
Ġdarz oves
ĠReik es
Ġsnieg as
Ġnepasak yciau
Ġbelek aip
Dr aug
M erg
P VM
Ġk up
Ġs ank
Ġv ejas
ti ksl
Ġd ziau
Ġb anga
at er
am on
Ġl unatik
Ġpr okur
Ġz ol
ij aus
Ġbu vai
ant e
ĠS K
Ġgr o
ĠI esk
Ġats ibud
Ġnet ek
uk t
Ġgyv a
Ġes hop
Ġsp uogu
men u
Ġsit oj
Ġidom aus
Ġmes ti
Ġnepr iim
Ġsti l
Ġvakar ais
tim us
Ġgim imo
Ġtem p
Ġsed eti
Ġklas eje
Ġtvark yti
Ġzal ias
Ġlak u
Ġuzsim er
ykl oje
Ġsan su
Kaz kaip
Ġtyl iai
Ġprisim inti
Ġnuzud e
Ġsusidar o
Pir m
Ġwhat ever
Ġkand id
P ard
d ai
p ju
Ġt ank
Ġk ent
Ġk ieno
Ġs iemet
Ġv s
Ġg aves
el anc
Ġpr ov
Ġpas ek
Ġman ip
Ġas aru
yt ojai
ĠB en
ĠJ ur
Ġnu veik
Ġtas e
Ġkr uv
ain as
eliu ose
Ġdien omis
Ġel giasi
Ġpardav ineja
Ġab ieju
Ġmel as
Ġeg o
Ġrank ose
Ġprak tika
Ġsusit aup
Ġpirmas is
Ġsugalv ojau
Ġskaus mas
Ġpoz ym
anor mal
Ġnupirk ti
ĠKit aip
Ġzinias klaid
Ġkosmeti ka
ĠPay Pal
E G
G yv
O r
o i
p tom
ar ag
Ġm a
es a
us ta
ok is
ok us
tu ko
Ġis ore
Ġpas te
Ġpas ivai
Ġnes ako
ies t
ĠA R
Ġpat iems
Ġnor a
ĠO mg
Ġnu fot
Ġatrod yt
Ġ3 1
Ġkam era
ĠH ot
eal us
Ġbendr o
ĠAn tra
Ġlietuv iska
Ġsek me
Ġlauk t
Ġpirm yn
re e
inks m
Gal but
Ġnemok ama
19 8
Ġgyvent ojas
Ġaplink os
Ġpasiziur iu
Ġmenesiu i
Ġpanaud oti
Ġves tuves
Ġkeliau ti
Ġsiunti mo
ED IT
Ġsem in
Ġabsoliu ciai
0 4
0 6
J us
S S
j us
y way
Ġp uola
et er
av imai
em or
ĠA c
ĠS laid
Ġnuo tol
Ġpad al
Ġpav og
erg a
iniu i
liu kas
Ġh a
Ġsen ov
Ġdien om
isku mo
pl eks
Ġa ha
Ġilg io
Ġneg er
ci antis
Ġsur inkti
Ġsukur t
AI S
Ġdarbuot oja
Ġpagalv oji
ĠId om
Ġtobu la
ĠVer slo
Ġleid o
Ġatsp ind
Ġtal p
Ġseks ual
Ġkort eles
Ġsutap imas
Ġuzmok es
I AU
L ab
U U
k amb
r et
Ġ und
Ġk odo
iu j
al inis
Ġpr az
tu ma
ĠP A
ĠK oki
ĠM al
ĠB aig
and en
ĠL ond
aik iau
Ġtr ail
ep el
Ġim porto
Ġneb ij
Ġiss im
Ġiss iem
Ġpro tinga
tat o
Ġaps imok
Ġklaus im
ain iu
vai r
Ġteis ma
Ġnuom oniu
met is
Ġlietuv isku
Ġvyr ui
Ġnesupr as
usiu ju
Ġmokyt ojai
Ġmenes ines
Vis ai
Ġfain i
ĠDiev inu
Ġapg ail
Ġapr anga
Ġmax im
Ġinter pret
ĠHe art
Ġtab let
ĠAus tr
e op
g el
m el
Ġ aj
Ġp iev
au to
Ġs ov
Ġs ou
Ġv an
Ġr it
Ġr ev
Ġis met
ĠN o
ĠP s
Ġats itinka
te p
Ġkit okie
Ġdr eb
Ġiss id
Ġdraug yste
vis kas
Ġbal andzio
ĠTik sl
Ġmas e
Ġvad inti
Ġnepat enk
Ġapl inkui
re y
trauk ia
Ġatsis p
Ġistat ymai
Ġrank omis
Ġkvai lai
Ġlog iska
Ġklaid as
Ġrys io
Ġkonkr ec
Ġvirus a
Ġsamp una
Ġblakst ienas
ĠSe imo
Ġnepaz ist
ĠLinks mas
Ġniu ansu
Ġerz ina
3 00
N ek
S tai
j as
p ai
s un
Ġt eta
Ġn aiv
Ġs aud
Ġb aus
Ġir angos
Ġr amu
Ġr atu
Ġl os
on ui
io v
ĠK GB
ĠA j
Ġc r
eis ciau
gi p
Ġsus in
Ġpir sta
Ġgraz aus
Ġkr am
kur ios
Ġal l
Ġmie l
ĠSveik as
Ġpasaul y
tim ai
Ġdu ok
Ġpatik eti
jau ciu
Ġneuz tenka
Ġtaup yti
Ġgir l
Ġrup es
Ġminim um
Ġplius as
Ġskirting os
Ġsrit ies
Ġkie tas
Ġnuobod u
plauk e
Ġitak a
Ġtruku mas
Ġsavaitgal i
Ġdvigub ai
6 6
I nd
O G
_ ^
j ame
k ab
v ern
Ġp ie
Ġt virtin
Ġm iska
Ġv sio
Ġg ed
en er
ur das
Ġpr iz
Ġz omb
ra y
ĠP il
ed it
ĠB ab
Ġpir ko
ac ion
ijos e
Ġpro ta
tor iai
isk iep
Ġdaz ai
Ġal ieju
Ġbendr oves
Ġit eis
Ġlietuv oj
Ġlik ti
Ġnepas ik
ĠGr eit
Ġvalst ybiu
Ġtink amas
Ġauks o
Ġismok a
Ġkos mos
eiks ti
Ġrus ies
ow n
enc e
Ġveiks mas
Ġgaus is
Ġnukr ito
velg ti
ĠKor ne
Ġbibl iot
J ie
S veik
S iuo
l ig
n en
t t
z odziu
es o
or ry
it l
it ek
kai n
Ġkur imas
ĠA T
Ġjau cia
Ġmok ejimai
ĠV ar
ym ams
Ġim port
Ġneb ijau
Ġveik i
Ġpak om
.... ...
ziu ra
Ġst ere
Ġal u
Ġned az
Ġbais iausias
Ġsutar tyje
ro w
Ġdom iuosi
Ġisv ada
Ġvaizd a
Ġnatur al
Ġuzsid irb
Ġgriz o
Ġliudij imas
Ġgaletum ete
Ġlin zes
Ġryz a
Ġsilpn ybe
ĠNeg i
Ġsmegen is
Ġsmegen ys
Ġneveik ia
ĠGalv ojau
Ġreak cija
Ġimun it
Ġserti fik
" "
K A
e ine
Ġk eiti
Ġne ik
Ġm inties
Ġd ied
iau liu
Ġis h
Ġman d
Ġgal as
Ġnes iek
ĠN el
ĠN uostab
ĠP ac
ĠA B
ĠD i
ĠD av
Ġ( -
ĠB er
ing ais
Ġpar eisk
ĠO M
ĠO h
Ġdr ug
ĠR ud
Ġak iniais
ĠE V
Ġkr it
Ġtiek ejo
Ġziur edavau
yn iu
Ġsen okai
Ġpanas ius
Ġkol ek
ĠNe w
Ġsutar ciu
Ġsumok ejau
Ġmel yna
Ġproduk cija
Ġneuz m
Vis u
Ġgriz ti
ĠKal edas
Ġpopier ius
Ġth is
Ġsrit is
Ġsaras as
Ġsand or
Ġtures ite
Ġsik na
Ġzav i
ĠDe ath
Ġcharakter io
ĠSod rai
Ġraj one
Ġisteig ti
Ġked es
Ġgatv eje
Ġmit yba
Ġfantaz ija
Ġplokst ele
ĠSimon yte
K oks
T ie
g erai
k at
Ġt eikia
Ġs ta
Ġs ol
ie tes
al ines
Ġb yl
im g
Ġr eciau
ij e
Ġbu tinas
gal ima
ĠG u
Ġpl ak
ink t
Ġkel tis
ic ion
Ġuzs ik
Ġpirk imas
Ġfor umas
ĠIs vis
Ġmas in
Ġtarp us
Ġdeklar acijoje
Ġzem yn
Ġpagr isti
Pr ie
Ġjaus tis
Ġ200 8
IE TUV
Ġsum us
Ġist ver
Ġgriz ta
sk yrus
Ġvarg o
Ġatm aina
Ger iau
Ġperziur ejau
ĠPirm iausia
Ġuzpild yti
Ġbaz e
Ġpoliti ka
S p
S aul
a el
g am
p iuter
is as
is ciau
Ġs az
in kas
al ija
Ġm ont
ti v
ti mo
os ius
Ġj oks
am irs
Ġl enda
Ġpas imok
Ġtik tai
ĠT os
ĠK ons
Ġas tuo
ks ci
ĠV L
ĠL ove
yk us
Ġtr ik
Ġid ejas
Ġkr ema
Ġmet as
Ġpasak a
cia vo
Ġgau tos
Ġsun i
Ġmerg inas
Ġzod iako
Ġlyg is
Ġ9 9
Ġleng wai
Ġpirm adieni
Ġjuod apl
Ġklien to
Ġvirs ija
Ġpatar imus
Ġmel o
Ġpaklaus iau
ĠIn tern
Ġ201 1
Ġvisok iais
IN G
Ġpavy dziu
Ġplat int
Ġsusij usi
Ġsprend imus
Ġvidu tin
Ġfot k
Ġautor iaus
Ġkop ija
Ġtruk do
Ġhum oro
Ġluz au
Ġsutvark yti
Ġbed arb
Ġpamas t
Ġtrum pa
Ġnesisku n
K o
Ġt eke
Ġs ask
Ġv ej
at rodo
er u
er iais
Ġsu tinka
av u
oj ate
io us
ĠS T
Ġf ond
ĠM y
Ġc an
ĠJ uod
Ġvien us
ĠG am
ip er
Ġtr as
Ġ2 50
ov us
Ġgraz ius
Ġner etai
ĠE gip
Ġpak ar
ain i
eid imo
Ġreikal ingos
Ġvaik inus
Ġpil nas
Ġnormal aus
ci ama
Ġindividual iai
Ġnemok eti
Ġreg uliar
Ġvaziu oju
Ġig nor
Ġram ybes
ĠId omus
Ġrezultat ai
Ġmilij ard
Ġliudij imo
Ġeil inis
Ġprav er
Ġatostog as
Ġparti jos
**** ****
Ġzvaigzd e
Ġsampun u
Ġlankyt oju
Ġpaci oje
ech an
ĠLAB AI
Ġstere oti
0 9
3 1
Y K
Ġp ietus
Ġt y
Ġne ab
Ġm ent
ti po
Ġd ipl
Ġb aik
es iai
ok iais
et h
av ausi
ĠN um
ĠN audoju
Ġar ciau
ĠP S
ĠM ie
Ġper nai
Ġger esnio
pr end
Ġgr yna
ĠB ur
ĠB lo
Ġats ibu
ĠL ais
ĠO o
ĠO ho
Ġnus iv
Ġveik las
Ġes m
Ġties intuv
Ġuzs iaug
me ciu
Ġpirk ejo
Ġversl ininkai
mal iai
Ġkv adr
Ġpardav ejo
ĠNe pr
ĠAn tr
Ġbais i
Ġsek a
Ġ6 00
Ġ8 00
olog ijos
esio ti
Ġnar kom
Ġjaus mus
Ġisv engti
Vis a
Ġkirp ciu
Ġdovan os
Ġmu ito
Ġveiks mu
Ġlaikotarp iu
Ġsantyk iu
Ġmodel is
Ġateiv iu
Ġzingsn is
Ġpand emijos
Ġtat too
Ġkultur os
Ġakimir ka
. ),
9 8
P ad
S ekmes
c ep
u j
au ciau
Ġs ona
Ġne rod
Ġm yg
ik oj
az ai
Ġvis ose
aug oti
Ġnes iv
ĠS ia
Ġo t
Ġgr ai
ĠV ely
Ġkit okios
Ġsus ib
Ġtr osk
Ġzin os
Ġdal iu
Ġnei pras
inu kai
Ġpras t
Ġst al
ĠPr iklauso
Ġlik au
Ġlik usi
Ġpirm am
Ġsveik as
Ġnetik r
Ġsed et
Ġstraipsn ius
Ġzurn alo
Ġuzk liu
eiv iu
Ġuzm irs
Ġskelb imus
ĠZm og
Ġrup intis
Ġgroz i
Ġskirting as
Ġivyk iu
Ġatlyg inimas
Ġvertin u
Ġslyks tus
Ġadres o
Ġvaiduok liu
Ġnejau ciu
Ġcivil ine
Ġsavaitgal iais
Ġtarif as
ĠDarb o
Tar kim
Ġrenku osi
A ha
A mer
d ys
f iz
f ul
f era
Ġt ektu
Ġs ign
in ame
Ġne kaip
al ap
Ġj okie
el f
el ine
tu kai
iek u
Ġnes var
Ġuz eina
ĠK iti
ĠK AD
ĠA z
ĠS turg
ĠD irb
tin t
Ġnor inciu
Ġtur intis
um e
Ġper mok
ĠB ar
Ġats ist
Ġpar ysk
Ġant sp
esn iam
ĠE D
Ġziur ejo
Ġklaus iau
Ġnaud oji
Ġpal ank
ĠVis gi
Ġbr ol
Ġfor mu
Ġdirb au
Ġpasku tinius
ĠPas tar
isku mas
Ġned r
Ġfak tu
Ġisg yv
toj ai
Ġsed ejo
Ġ:) ))
Ġbeg ti
________ ___
Ġgrei tu
Ġte vo
Ġbaig es
Ġkos t
Ġfiz iskai
Ġdiev ui
Ġkonkur entu
Ġcentr as
Ġtaik oma
Ġsc enos
Ġelektron iniu
Ġkei cia
Ġperskait yti
Ġstar t
ĠKlaip ed
ĠUS A
F or
c entr
i oms
k laus
Ġ os
Ġ ever
Ġp up
Ġt iem
Ġb ach
et ais
uo tus
tu d
oj amos
od as
ĠN r
ĠP aband
Ġkur yb
ĠS n
Ġy r
og iska
Ġtok iai
Ġc entra
Ġkit ko
Ġdr am
Ġiss am
Ġ; //
ud e
Ġmas to
Ġlik tu
Ġnum ir
Ġtem u
Ġsim pati
Ġvid inis
Ġpagrind u
Ġstat istika
auz e
Ġsusij es
Ġpaband yk
Ġlap a
Ġai kst
Ġisivaizd uoti
ĠAts ak
Ġikur ti
Pir ma
Ġkras to
Ġnusikirp au
Ġdol eriu
Ġpail s
Ġneidom us
E d
E s
I m
M m
j oj
m ed
p aras
r ent
au tis
Ġn iam
in oms
iu ke
Ġne va
Ġd uot
Ġb edu
ik tu
az e
Ġkai mas
Ġpas ij
Ġvis alaik
Ġat mos
ĠP askai
ĠA pl
Ġreik m
ĠV yt
yk e
Ġim tis
ev ez
Ġsp ir
Ġbus ena
Ġpro tu
ec k
Ġpasak ei
Ġpras m
Ġgau ta
Ġh ave
Ġpapras tos
Ġparas yk
Ġband ai
Ġbais iau
Ġlik u
Ġnusip l
Ġnusip irko
Ġkuo met
Ġjuok tis
ĠAt l
Ġnaudoj ama
Ġnaudoj asi
ĠKar ta
Ġryt ais
Ġsprend imu
Ġag res
Ġatsik eliau
Ġelektron ine
Ġpur sk
Ġpasirod ys
Ġpu bl
Ġsius tis
Ġreikalav imai
Ġsusimas tyti
Ġpasiu le
Ġprekyb ai
Ġbjau r
0 3
B ut
P atiko
f o
p ild
Ġp uos
an ras
Ġne f
es as
Ġj okia
ap ar
Ġi var
Ġdar os
ĠK an
ĠK ing
eg au
ĠM as
ĠM mm
Ġper mat
ĠJ a
Ġvien uol
gu l
iz za
ip s
mas t
Ġsv iecia
Ġsak yk
Ġpad ev
Ġneb ed
Ġiss in
Ġdid esniu
Ġdid elius
Ġsal e
ĠZ iema
Ġdaz ais
Ġdaz yti
Ġpus meti
ĠU n
Ġversl ininku
Ġpadar ai
ind ows
Ġparas ei
Ġpers iv
Ġkomp a
Ġfak tais
ĠKaz kur
Ġad min
Ġvaid en
Ġpamat o
Ġisv aziu
Ġprak tikos
Ġdek oju
Ġgars as
Ġsij onai
Ġnuk irp
Ġbo ba
ĠEurop a
Ġtaisyk le
Ġled o
ĠAmer ikos
Ġpaies ka
Ġnusib odo
Ġgrand in
ambu lo
ibir u
Ġlyt ies
C OM
M e
P apras
V ai
Y S
Y pac
c al
Ġk u
Ġd ama
Ġl an
Ġvis oje
Ġi veik
Ġgal imas
Ġdar ysiu
ĠA te
ĠS kaiciau
aus kas
ĠM MA
ig alv
ĠL IETUV
Ġta x
ama ciau
Ġnep apras
tuv e
ez in
Ġneb ais
ĠR o
Ġnem ir
Ġtiek ejai
ag e
inu i
Ġpapras tus
Ġparas u
Ġpil va
Ġlaik oma
ĠGer iausias
Ġ7 00
Ġsumok eta
Ġsut ampa
Ġauks te
Ġpol itik
Ġlengv as
Ġkvap a
Ġdalyv auti
Ġmak sim
Zm ones
Ġatras ti
Ġmakia zo
Ġzveng iau
ĠUZ T
app y
Ġkriz e
Ġhoros kop
3 9
M ar
S v
t ie
t oks
y kai
Ġ Q
Ġt ose
Ġne it
al p
Ġr ob
or iz
Ġis dr
Ġpas iskaiciu
ĠP uk
ĠS AV
Ġpat ek
ig u
Ġgr ipu
Ġmok ejau
ĠB eveik
and is
ing iausia
Ġdaug elio
Ġpl ona
tik e
Ġver tus
yg os
Ġsav aip
ĠR ed
Ġsal a
Ġik el
Ġ3 8
uod ama
uod ami
Ġklaus ti
Ġpus eje
ob l
ĠLietuv iu
Ġpasir up
Ġpirk eju
Ġbal tos
ind o
Ġpapras e
Ġreikal us
VM I
Ġpardav imus
Ġser iju
Ġtrup u
Ġtarp inink
Ġem ail
Ġsim tus
Ġreg ejimas
Ġpasis eke
ĠTr ump
Ġkil ogr
Ġkil omet
Ġuzsak ymo
Ġjur a
Ġplat for
Ġdvas ias
Ġparduod ant
ĠAts imenu
Ġug io
Ġpic os
Ġpapasak ojo
Ġsteb eti
Ġseks u
Ġvaiduok lis
Ġpavasar is
Ġtav imi
Ġapd ovan
ĠHo use
Ġskus tis
. !
5 5
E l
S im
S en
d azniausiai
l iais
Ġt usu
Ġt uose
in osi
Ġne w
Ġv em
Ġd ede
Ġd iskr
Ġb iski
am n
el iams
on ald
ei line
ap as
il ly
ĠP lius
ĠA Z
ĠA le
um ui
ĠL aur
ink e
Ġdr eg
Ġkiek iais
Ġnus kr
Ġsav ininko
Ġpav yksta
iskai to
Ġpard uot
Ġkal edu
ĠZ eme
Ġvel ai
Ġvai kui
Ġsen i
Ġdv asi
op er
Ġbut ybe
Ġjuos e
Ġmerg inai
Ġatsak ingas
Ġmie li
Ġw as
Ġpardav inej
Ġlyg tais
Ġbendr aut
ug h
Ġser vis
Ġsud as
Ġtarp e
Ġintern eta
Ġjaus mu
Ġsim pat
Ġivair ias
Ġmoksl as
Ġtvark ytis
Ġdet ektyv
Ġaisk ina
Ġvidur y
Ġkred ito
Ġtrag edija
Ġbil ie
ĠPapras tai
Ġginc ytis
Ġnepadar ysi
Ġsanaud as
Ġissigand au
Ġkosmeti kos
Ġisgird au
Ġsusiz av
Ġadr esu
Ġtarpus av
. ___
E ur
N K
h ip
in anciu
Ġv ok
Ġd est
uo ga
Ġis pr
Ġz uik
Ġtik o
uz o
uz ia
ĠT ams
Ġnes idaz
Ġap els
tin ej
Ġnor esi
ĠM et
ĠV os
ĠL en
yb emis
aik yt
Ġnep aras
Ġnu per
Ġkazk ieno
ĠR ealiai
Ġpav ar
iskai s
Ġpak liu
tor iaus
eng iu
ines iu
Ġkal ed
isk iai
ĠZ emes
Ġau ka
Ġpam ineti
ut eli
Ġned irba
Ġser v
Ġsuk ele
Ġsud eti
ats imenu
Ġpab ud
Ġkitu ose
Ġvalg iau
Ġsveik ai
Ġsed ejau
Ġdom eno
Ġdom ejausi
Ġiv ed
zi arag
ĠJau n
Ġauks tu
Ġmokyt ojos
Ġdur na
Ġbrang iai
Ġkat es
Ġnereal u
Ġkonkur encija
Ġtobu las
Ġkaim yn
Ġrezultat us
Ġminu te
Ġpamirs ti
Ġdirek toriu
Ġkred it
Ġpasim at
Ġnemal on
Ġprezid entas
Ġorien t
( :
7 3
K om
L A
M B
b es
d id
e bu
m ent
n oze
o h
Ġm mm
or ija
ak uoju
oj oje
om ybes
Ġgal ios
io p
il es
em i
em os
Ġpa eme
ĠS ake
Ġpat enka
Ġtur ejai
Ġkar iu
yb as
Ġmet alo
Ġpras yti
eid e
si on
Ġisl ieka
ĠH ol
Ġfor mas
isku ma
Ġneg ird
Ġvalg ai
Ġklien ta
Ġreal u
Ġ100 00
pras m
Ġrank om
Ġvadin amas
Ġnaudoj ant
Ġspecial istu
Ġdraud imu
Ġisr ysk
ĠViln ius
Ġstor i
pard avimo
Ġgimtadien io
Ġdie ta
ĠLab a
Ġsistem oje
Ġminus a
Ġkapit alas
Ġraudon i
iav imo
Ġnepriklaus omai
ĠKin ija
Ġries u
Ġaukstakuln ius
Ġmaud ytis
Ġsusikur ti
Ġtatuir uotes
Ġpasiem iau
Ġliau d
r ofl
y dziu
ð Ł
Ġn ic
in to
ir anda
Ġm inistr
Ġv ykti
Ġd etis
Ġr ibu
Ġl eistu
Ġis imin
av er
Ġbu te
ĠN aud
Ġdar ant
ĠA A
ĠS F
Ġgr uodzio
ĠI g
ĠV eik
Ġnet aip
uoj anti
Ġgyv ai
ep u
Ġin ai
Ġin trig
Ġim t
Ġpav ardes
Ġprie z
ĠAs ht
ĠAs tra
ĠC SI
tor y
ati ks
Ġdraug iu
Ġtar kime
Ġpris ikab
Ġkazkok iam
Ġteis ybe
eisk ite
oc ij
Ġbev il
Ġtams u
Ġreiks me
Ġket uri
Ġjauciu os
Ġlaim ejo
Ġ19 8
Ġisr ad
Ġsald ytuv
Ġmast yti
Ġsteng tis
Ġsteb i
ĠAng el
Ġblakst ienu
Ġveget are
Daug iau
Ġzvilgsn is
Ġpriskir ti
Ġsuvok ti
Ġmarket ingo
Id omu
Ġseimin inkes
Ġnerup i
P A
g l
s ia
y gi
z dziai
au ku
Ġs auk
Ġv yk
at ais
ur s
Ġr aus
Ġis eitu
Ġvis ta
Ġbu ciu
ĠN esioju
Ġdar k
Ġkur j
ĠD ia
ĠD og
tin iam
Ġtur intys
Ġkar as
ĠO k
ĠO l
ĠO z
Ġkit oj
Ġnep ab
Ġnu nes
Ġsav oka
Ġid ejo
Ġmaz men
Ġtiek ejas
ud as
tor e
ec ial
tar kim
Ġnel yg
Ġvar yt
Ġisl eisti
amos ios
Ġneg avau
ĠW e
Ġpag im
Ġfak tiskai
inks mas
Gal ima
Ġtem oj
Ġdokum entais
Ġsug adin
Ġmieg ojau
Ġsuv aid
Ġgars us
Ġsald us
Ġgyvun us
Ġriz ikos
Ch uckas
Ġlem ia
Ġsveln iai
Ġatvir ai
Ġpasibaig us
ĠNek enciu
Ġniu ans
Ġapyrank e
Ġspind uliu
ĠVyr iaus
ĠBais u
Ġtinkl alap
Ġperskai cius
ĠSiul au
Ġdivid end
. [
4 4
: [
; )
D arb
N era
P ag
T avo
V SD
m erg
n ev
r eikia
Ġs oka
in esi
Ġne tiks
Ġm ig
Ġv yks
Ġb est
ik ietis
en ec
Ġr etas
om obil
ĠN ot
ĠM ich
Ġger esnes
Ġkit ame
ez ti
Ġkiek io
Ġneb em
Ġkel niu
Ġdabar tine
ang e
Ġvai kais
ema tikos
Ġdv yl
Ġasmen ines
ĠNor int
ver t
Ġneis v
siu n
Ġbendr avimas
lu b
uol at
Ġpatik ti
Ġdokum ento
Ġpatar imai
Ġregistr uotas
Ġneblog i
Ġreiks ti
Ġvadov auj
tadien is
auks i
Ġvais tus
Ġtus o
Ġkod u
Ġteks ta
Ġsij onas
Ġlaid o
Ġfot os
Ġliudij imu
Ġop oz
Ġliep os
Ġteig ti
ĠVilniu j
Ġjurid inis
Ġsusitik ti
iat oriu
Ġvisuomen e
Ġfig uros
ĠAps kritai
ĠPam enu
Ġuzknis o
Ġpud ros
Ġbankr ut
+ +
. :)
N en
n aud
r ad
Ġp ais
Ġp oju
Ġk ers
Ġv eda
Ġd ul
us iais
ik iur
Ġl anks
Ġis it
ej imui
om g
Ġvis omis
Ġvis kuo
Ġi pro
il eris
ĠT wilight
ĠK okius
ĠS kir
ĠS aun
Ġsk alb
aik es
ul ys
Ġnep aj
Ġtr enk
Ġpap u
Ġkom pas
Ġnegal etu
Ġvie tomis
Ġh ob
Ġplau nu
Ġpapras to
antis ka
Man e
Ġtoki omis
Ġei tu
Ġnuos irdziai
Ġnesupr anti
Ġtem as
Ġfilm uose
Ġpateik imo
Ġsvar u
Ġsim b
Ġneats ak
Ġakc ininkas
Ġstov ejo
Ġvez a
Ġpran esti
Ġstor os
Ġdvas iu
An t
Ġre ink
Ġnedar au
Ġkonkr et
Ġgav us
Ġnuostab u
Ġjud a
Ġag ur
Ġmilij onu
Ġligon ines
Ġpaslap ting
Ġkie ta
Ġispud is
Ġsokol ad
nor eciau
Ġdez ute
ĠPagal iau
Ġpunk tas
Ġuzregistr uoti
Ġdang aus
Ġbrek etus
Ġdiskus ija
Ġatsikrat yti
Klaus imas
Ġnebeb us
Ġlemp os
Ġpasiteir auti
G PM
f a
n oriu
p inig
p alv
w ork
â Ļ
in cio
ie cius
Ġd aig
us iems
at oje
ad es
Ġsu j
av al
Ġpas iti
ĠT ave
ĠT okios
Ġdar ysi
ĠK at
ĠS iek
ku tes
Ġc epel
Ġjau ti
Ġgr as
Ġgr ub
ĠB o
Ġtr unka
Ġten k
Ġsav ininkai
Ġ; )
yn uose
Ġpus ry
Ġpam okos
liu z
liu ka
ĠU kr
Ġatv ejai
ĠAr b
Ġpaj eg
Ġnesu v
Ġkuri oms
apn uoju
Ġnek alb
ard o
Ġlaik yt
Ġlaik omas
Ġsuk aup
Ġmed aus
Ġei lute
Ġgreit a
Ġgim iau
Ġiv ykd
Ġprit ar
Ġbuhalter ijos
Ġpasis lep
Ġkil ti
Ġnuostab i
Ġmis ko
AN D
Ġprogram avimo
Ġauto bus
Ġnuk ent
Ġpranes ima
Ġseks o
Ġpabaig oj
ĠPrad ejau
Ġste bet
Ġkontak tus
Ġpaskir ti
ĠDraug e
Ġtak elis
Ġkis en
Ġjum is
ikl in
Ġissit rauk
Ġrep uta
Ġvon ia
Ġsor ry
Qu a
Ġkalend or
Ġgud r
Ġnarkoti ku
Ġtablet es
? ...
K ita
P ras
V aid
j aus
o ut
p il
Ġs ild
Ġs oc
ie ga
iu ju
Ġne kain
ur od
uo ciu
Ġl ob
Ġl azd
Ġis ter
eik tu
Ġvis kam
uz d
uz e
ĠT egul
ĠT AIP
aug o
ĠP asi
ĠA bu
ĠM in
ed es
Ġsk ard
ip us
Ġtr iuks
Ġsv enciu
Ġzin omas
Ġprie var
Ġziur edama
var ko
Ġmet e
Ġpap r
Ġklaus e
Ġau t
Ġskai ciaus
Ġmen o
Ġkam p
kad angi
Ġsun s
ĠPr o
ĠVis us
Ġbal su
Ġvaik inams
ver s
Ġilg am
Ġpers ek
ĠW ill
ĠTur k
Ġvasar ai
Ġvasar io
Ġbij oti
Ġ15 00
Ġsn d
Ġisp ild
Ġsvarb iau
Ġbuhalter is
tadien i
Ġsiaub ingai
Ġsod a
Ġbel ieka
Ġzaid ima
Ġsij ona
Ġmu ta
Ġdet aliu
Ġprekiau j
Ġnedid eli
Ġkontr ol
Ġuzdarb io
Ġlaikrod is
Bu tu
Ġisband yti
Ġkov a
ĠTar p
Ġnos is
Ġdov anas
ĠLenk ijos
Ġpoveik is
aziav om
Ġpasiim t
Ġart eja
Ġpritrauk ti
ĠVienint elis
Ġsusin erv
Ġreguliar iai
R U
f as
h am
y e
Ġk uk
Ġs on
in ukus
Ġm iske
Ġd ug
el a
Ġl ie
Ġl ev
Ġtik etina
ĠT op
Ġnes idom
em as
Ġpat ekti
ĠM or
ĠM ars
ing esnis
Ġats iv
ĠG irdejau
int us
ac ia
Ġzmon os
ov iau
Ġzin utes
ic an
Ġmaz esnes
Ġmet ru
tat yti
Ġsal t
Ġpasak ytu
eju ok
Ġbr it
Ġais ki
Ġsau n
Ġnek on
Ġa fr
Ġmas inu
iev uzia
Ġisg asd
Ġregistr uota
Ġplan etos
Ġbeg i
Ġsiun ta
Ġneat si
Ġter eikia
ĠCh uckas
Ġprid et
Ġpaband ysiu
Ġsku n
Ġminim aliai
Ġpos ak
ograf ija
ĠEurop oje
Ġpasirod yti
Ġdaktar as
Ġtyl i
Ġraudon os
Ġpripaz inti
Ġkop ij
ĠZiaur u
Ġsulauk ti
Ġverk ia
Ġbirz elio
Ġsavivald ybes
Ġprancuz u
ĠPasir odo
RR RR
Ġkonv encija
Ġvizu aliz
Ġvaiden asi
B A
B E
M ama
T oliau
] ,
n ed
n era
p ek
v at
as y
Ġk ot
Ġk one
is laid
in cius
Ġm ur
Ġm ol
Ġm echan
Ġv azin
os p
am iesi
iau k
Ġl aisk
Ġl iter
Ġvis t
od r
Ġas ar
ĠV istiek
Ġdaug eliui
ip e
Ġnep aisant
Ġnu tinka
Ġes anciu
Ġpak ei
Ġpap ai
ines s
Ġkal or
Ġpasak au
Ġpus ses
Ġnegal es
Ġpal eisti
op e
ind amas
val aik
tur but
Ġproc entai
Ġveid u
Ġban ku
Ġsil uma
ĠSu pratau
Ġstraipsn yje
Ġpaklaus a
Ġivai zd
Ġtams oje
Ġismok t
Ġpagrind as
Ġ12 0
Ġfiz iniu
Ġtel ika
Ġkamb ariu
Ġvaizd o
Ġparod yt
Ġakc ininku
Ġeks tras
Ġlink e
Ġvidur i
Ġatsik eliu
Ġateit y
Ġzai zd
Ġapk al
Ġinvesti cija
iav imas
Ġsugal voti
Mok es
Ġjap onu
Ġneband ziau
lam ent
Ġnepilnam etis
Ġdepres ija
Ġgit ara
ĠAsht ray
0 8
V at
l um
n eg
p apras
ai z
Ġt eb
Ġne isk
Ġb angos
el g
oj usi
Ġz ala
Ġpas p
ra A
od is
Ġdar ys
... ?
ĠP AR
ĠA ti
ĠD eiv
Ġgr iau
Ġpar ekomend
ĠL ink
yv us
ĠG yventi
aik ys
ul ti
Ġpav er
Ġprad ek
Ġuzs iras
Ġtiek ejus
Ġaps iv
Ġmen as
Ġpries ingai
Ġan a
Ġal b
Ġsau kst
Ġa er
Ġpardav imai
anciu ju
Ġpra eis
Ġpamat ai
Ġdom intu
Ġpasik ar
Ġskaiciu okle
Ġauks cio
Ġivair us
Ġsiun cia
Ġmoksl u
Ġ201 8
Ġpagalv ok
Ġdraud ima
ĠPa tik
ĠPa ypal
Ġlog oti
Ġlog ikos
Ġmast ymas
Ġsprend imo
Ġkompiuter i
Ġdet ales
Ġet ato
Ġkauk iu
Ġprav arde
Ġuk io
Ġvaikinu i
Ġperv ez
ger iau
itan ikas
Ġgamint ojo
Ġlang o
Ġzais ti
Ġkeliau ja
otos hop
ekomend uoju
Ġapac ia
Ġterm inas
Ġteat re
9999 9999
Ġnusid ev
Ġneegzist uoja
ĠOM G
0 2
4 8
R E
Z anras
g eras
o cia
r en
r on
s av
y cios
Ġp ienu
Ġk eiks
Ġs ag
in amai
al t
ik liu
Ġg u
Ġg ejus
et au
en om
or ator
Ġz ole
og ai
Ġats tum
Ġkok iai
Ġkl ij
ink au
Ġim s
Ġpav eiks
ĠE ina
Ġpak eite
Ġaps il
Ġkal tin
ain ius
Ġpus l
Ġteis ingas
Ġasmen is
Ġdien oras
Ġw ow
ĠPas aul
tur os
Ġlietuv is
Ġneg aila
Ġpask at
Ġnusip irksiu
Ġintern etas
Ġtink am
Ġsim tu
Ġprogr amos
Ġrus is
Ġram us
Ġprasid es
Ġbern as
ĠZiur int
Ġgav os
Ġkaim ynu
Ġmilij onus
Ġzud o
Ġapsaug a
Ġlau ko
Ġstik line
Ġekonom ika
Ġnesir uosiu
Ġzvilgsn io
Zm ogus
Ġfr om
Ġipras ta
Ġidarb inti
Ġiseit is
Ġdrus ka
Ġpasiz ym
Ġdzem per
. ''
4 7
S t
f iks
n z
Ġ eti
Ġ ejom
Ġt i
Ġt era
Ġk inu
in y
an cija
Ġne vai
Ġr usi
Ġl iet
Ġz ada
Ġpas isteng
ĠN PD
id us
Ġuz kl
ĠP C
ĠS and
ĠD em
Ġf t
Ġnor ejai
Ġc e
ĠJ on
ĠV AT
ĠL iu
Ġkar st
Ġkl ied
Ġnus isku
Ġzin ojo
Ġpad aug
Ġkel ti
Ġzmog elis
men s
Ġnem el
Ġmet ine
Ġmet ines
oti z
irs iu
Ġpris iz
Ġidom ios
ter s
Ġnauj iena
Ġbud o
Ġint erv
asar is
Ġband yk
Ġbendr auja
Ġpriv alai
Ġkomp et
Ġjuod us
Ġeur o
Ġtap at
itu acija
ht ml
Ġnesi ojau
gan iz
Ġgrei ciu
Ġauks tas
Ġ.. ...
Ġkiekvien ai
Ġ201 5
Ġvaizd uote
Ġlinks mai
Ġses uo
Ġorganiz mo
ĠCh uc
Ġdrabuz iais
ator iaus
ark ime
An ksciau
Ġfir mu
Ġdziaug iuos
vel giant
Ġpral eisti
Ġpatal pos
Ġpri pratau
Ġrub ais
Ġok up
Ġmegstam iausiu
Ġkapit ala
ath er
Ġpartn eriu
Ġvartot oju
iol ikos
OJ E
Ġduo nos
Ġprisijung ti
ĠGalv oju
Ġkomed ijos
OV ID
Ġbun ant
Ġgerk le
pju cio
N R
a ju
b ank
c iniu
l ij
m il
p m
v in
v en
z us
Ġp iz
Ġp sl
Ġk ios
Ġn ick
ar ant
al ina
et inu
Ġl oter
Ġat paz
ĠT om
ĠT ina
... >
ĠA ug
ĠS up
ĠS unku
Ġpat eikia
Ġpat eko
Ġnor is
Ġper io
Ġjau d
uos ite
Ġkar toj
aud e
Ġsus k
Ġnu eina
Ġneb ek
Ġmaz yte
ĠC r
ĠC on
Ġpak eist
Ġmat ei
Ġnel eis
Ġbl yn
Ġpirk imu
ĠVis as
Ġreikal a
Ġab iem
Ġsuk el
adien iais
Ġnum eriu
ĠSu prantu
Ġdom in
Ġmoksl us
Ġpai ma
ast ys
Ġneap yk
Ġdain uoja
Ġbai gi
Ġtec io
Ġirod ymu
ight less
Ġnuspr end
Ġgul ejau
Ġapras yma
Ġuzsim aniau
IM AS
Ġisitik ines
aaaa aaaa
Ġsuz avejo
________________ ________________
Ġtiks la
Ġapyrank es
ĠPrancuz ija
Ġnesitik ejau
Bal tas
Ġelement ar
Ġpareig as
paslaug u
4 3
K it
s ime
Ġs to
in ejimas
ir eng
ar p
Ġd ant
ik tat
Ġg avimo
ad int
tu p
Ġnes un
Ġf un
yt oju
iaus iais
yk es
uos ti
ĠO n
yb ine
iam o
ĠR yt
Ġjis ai
iskai ciau
zin oma
Ġpak el
eng va
ec hn
Ġais kiau
idar o
Ġsm ilk
Ġislaid oms
ĠW hat
Ġbij ot
Ġrekl amu
Ġvaid ino
Ġpamat ysi
Ġdom ena
Ġpasik eis
Ġbeg u
Ġsim ta
________ __
Ġpol iklin
Ġses es
Ġses ers
Ġnul is
Ġatskir ti
Ġsij onus
Ġkosm arus
Ġpies ti
Ġkor id
Ġ;} }
Ġtukst ancius
kaiciu oti
AN T
Ġpazym ejimo
ĠKazk oks
Ġkin eze
Ġpasitik r
Ġpasitik eti
Ġpapasak ot
Ġpastat e
Ġzai dzia
Ġkompleks u
ĠGraz us
Ġpik ta
ĠDid z
Ġiskr yp
Ġatstov as
ĠAv on
Ġnutrauk ti
Ġbazn ycia
Ġcigar etes
Ġink ariu
. ____________
I l
R K
S tr
S un
f in
h u
m ar
n k
t oja
Ġp eti
an i
Ġne ting
al iniu
Ġb iciu
er d
et vir
ia kas
Ġpr ap
or eks
av imus
Ġpas ib
Ġvis oms
Ġgal a
ĠA uks
ĠA Qua
ĠS er
ig er
ĠG irl
ul g
Ġnu film
un t
Ġdel fi
Ġak cijos
Ġsp ak
Ġsp ek
end o
Ġkr eiv
Ġpries ais
omis i
Ġh mm
Ġpal engv
Ġnauj am
ema ciau
Ġreikal ai
yz uole
Ġkalb am
Ġnak timis
Ġisg yventi
jau t
Ġmies tu
Ġbeg ant
Ġ201 7
Ġkap ines
eiv iai
Ġkat inas
Ġlaim ingi
mer k
Ġsvetain iu
Ġdes r
Ġlov oje
Ġpos ta
Ġaukst yn
Ġrag ana
Ġvil k
Ġdev etu
Ġkompleks uoju
Ġtaisyk liu
Ġjurid inio
Ġkrem u
ĠBal tarus
Ġded asi
Ġuzmig t
Ġtechnolog ijos
Ġataskai ta
Ġneati tinka
Ġpril yg
Ġapklaus a
Ġaplank yti
Ġpriver te
Ġtrum pas
kel nes
Ġatsiun te
Ġprigim ties
Ġiform inti
Ġnesiskun dziu
) -
B and
B ec
R as
V iln
c r
d os
n ie
t ele
ai le
Ġk ek
Ġs os
ar l
Ġm isku
ok ti
am ina
Ġl en
ak tyv
oj at
Ġpas am
Ġvis uose
Ġgal imai
ĠT oliau
Ġnes ijau
ĠP h
ĠP AT
ĠK vai
ĠK AIP
ĠD AR
tin ta
Ġc ip
Ġgr iu
Ġgr ieb
ciu ose
ĠB as
bu na
Ġkit om
Ġkit okio
Ġnep atiks
dz iais
dz iasi
Ġdr ak
Ġsak ei
Ġneb ev
ev icius
Ġkal ej
ĠZ M
eid i
Ġbal u
Ġmerg inoms
Ġreikal avimu
Ġatsak ys
Ġmin ks
Ġilg esni
Ġtoki oje
Ġlaik ys
Ġsuk elti
Ġkain uotu
Ġpab endr
entu i
Ġsia p
19 9
Ġisk laus
Ġstat ybos
Ġskiep o
Ġspecial istai
Ġkambar ys
Ġkonkr eciu
)) )
Ġnukr yp
Ġsugeb ejo
Ġsalyg omis
Ġleid imo
Ġprekiau ja
Ġlaikotarp io
kaz kaip
Ġisband yt
Ġtrans por
Ġkaup imo
Ġpopuliar us
ĠNen oriu
Lietuv os
ĠEn erg
Ġamziu je
Ġsusitvark yti
Ġaliej aus
Ġproced ura
Ġdropship p
Ġtelek ineze
ĠSturg elis
Ġreikm ems
Ġpasiti ksl
; *
D irb
F r
G AL
N auj
V el
Y V
l ab
r uk
z z
~ ~
Ġ 00
Ġp ien
in amp
ie ciams
Ġne inu
Ġb or
at ch
Ġman ikiur
od ziai
Ġnes imok
em u
ĠA V
ĠS iais
ĠS askai
Ġo ut
ĠM yl
um oje
ed au
Ġger imu
ĠB ud
ĠB ET
ĠV aid
ĠG ER
Ġkl on
Ġnep anas
Ġver tina
Ġsav ybiu
Ġkel nem
Ġprad ejus
Ġuzs iimu
Ġpaz as
Ġdid eliais
Ġsal u
ati ja
Ġ3 9
Ġpasak ai
ain ai
Ġsit us
eid imas
ĠH itl
Ġlab orator
Ġplau t
ind a
aj ai
Ġmin usu
mal u
Ġparas a
Ġkv ies
Ġneg yven
Ġtrup uteli
Ġ7 5
Ġmais tu
ziur ejau
ĠAt siprasau
Ġsvies ia
Ġgird i
Ġbeg yje
Ġistat yme
Ġpai esk
Ġisk yla
Ġzurn alas
Ġaplink iniu
Ġkod eks
Ġisd est
Ġkompiuter is
Ġsusimok et
Ġsc ena
Ġlin ijos
kaz kas
qu e
Ġauskar ai
Ġsport ba
Ġnepriklaus o
Ġvert ybes
Tur but
Ġideg io
Ġpadovan ojo
Ġjeg os
Neb ent
ĠTeis ingai
Ġnelai me
Ġnejuok inga
Ġsekund es
Ġadmin istra
: }
O P
R M
T h
b le
g t
i or
k v
p ats
au b
au kai
ir o
ar is
al bet
Ġd omisi
Ġb on
es is
uo c
it is
od a
il is
Ġuz ima
ĠP ab
ys era
Ġas ocij
Ġc ool
Ġmok osi
ĠJ as
ĠV arg
ĠL a
ĠL auk
Ġpl oks
Ġkit omis
Ġtr ol
tik au
tuv a
sl ininkai
Ġin val
Ġsak ys
Ġpan eig
Ġpav el
ank os
Ġpagal vot
Ġskai to
Ġgau tusi
Ġbr oli
ind avau
Ġor u
Ġ20 19
Ġsapn o
ĠAn dr
Ġjuok ingu
ne y
Ġfak e
Ġnar ius
Ġpagrind ines
Ġrud uo
Ġstat yti
Ġjaun imas
Ġav on
Ġskiep yti
Ġaus u
Ġneat rod
Ġzaid imo
Ġzaid imai
Ġnereal i
Ġvariant ai
60 1
Ġligon ineje
30 8
Ġprav ers
Ġpasitik ejimo
Ġkie tai
Ġskaus ma
Ġliep ia
Ġprinc ipa
Ġkiau les
Ġsokol ada
Ġreisk ias
Ġdaktar e
Ġzais t
Ġteor iskai
Ġsmul kiu
iol ika
Ġapac ioj
ĠPak laus
Ġpavoj inga
!!!!!!!! !!!!!!!!
Ġatkreip ti
Ġsas iuv
Ġfre elanc
Ġnevirs ija
ajung os
ĠDep p
Ġmatem atika
Ġartimu ju
Ġdre am
ĠDav id
A tr
B U
E ch
K am
k okiu
p j
Ġp x
Ġs okiu
iu je
an sl
im t
Ġpr ib
or eg
oj anti
Ġz and
Ġz ver
om es
Ġpas od
Ġpas iel
ais yti
ĠT i
ĠP oteris
Ġkur imo
ĠD es
Ġpat ars
ed ziu
Ġper eiti
Ġjau nu
ko v
ig and
ĠV id
Ġ: <
ip ti
iam ai
un gi
ĠR om
Ġuzs it
Ġkr uo
yr ai
Ġdid eja
Ġpris il
kur s
eid avo
ĠF iz
Ġteis mo
Ġreikal ui
Ġnek iln
Ġblog i
Ġ20 20
Ġziaur i
tur i
Ġmir es
Ġuzd uoti
Ġmoket oja
vir tina
Ġch ak
Ġrim to
ĠSu pr
daug iau
asti ka
Ġpasirink au
Ġvais tai
Pas ku
Ġkat astr
Ġtus as
Ġnup irko
Ġpsich iat
ĠPat ys
irks i
Ġserial o
Ġserial u
ĠVien i
Ġnustat o
Ġlak a
Ġperk el
Ġjud eti
Ġminim alios
Ġles iai
Ġob uoliu
Ġprim ine
Ġatid uoti
ĠSt ambulo
Ġmalon iai
Ġkontak tu
Ġrieb alu
Ġpatenk intas
Ġinvesti cijos
Ġgales ite
Ġneteis ingai
ph en
ĠLenk ija
ĠBand ziau
enks m
Ġsustab dyti
Ġnupl aun
Ġnelai mes
Ġsmal s
Ġsuvar z
Ġauklet oja
Ġmeis tr
Ġkatastr of
M O
P ra
c ine
g im
p aj
s il
s tr
Ġt ycia
au tai
in etu
in tum
Ġm akar
Ġd istr
Ġb akter
os im
at l
en tino
ia vo
Ġl ife
tu kus
Ġsu man
av el
ak iu
oj uosi
Ġz aliu
Ġz irg
Ġnes ibaig
ĠS uk
Ġras yk
ĠO t
iz ab
Ġtikr ina
Ġtr eciu
Ġnu eik
tis ki
Ġpad ek
Ġpan or
Ġneb aig
Ġneb rang
ĠC OVID
Ġkal ti
Ġkal ta
eit a
Ġh ot
ĠF B
ĠF u
Ġbr angi
Ġor e
Ġnepr iv
Ġlyg iu
Ġlaik e
Ġatl aisv
teb ejau
Ġvakar u
Ġklien tais
Ġch ir
Ġprog os
olog ai
Ġlais vas
Ġpac ias
Ġsr iti
Ġlig oniu
trauk os
ru ko
Ġmieg as
ĠUz tenka
Ġgyvent ojo
Ġdain as
Ġpasirink imo
IE S
Ġnatur alu
ĠNE S
Ġkompl ik
Ġnepav yksta
Ġtvar ko
Ġneig iama
Ġlaikotarp is
Ġpristat ymo
Ġdidziu le
Ġled ai
Ġpirks i
pak ab
ĠIm one
Ġpei liu
Ġkomand os
Ġrezis ierius
ĠRob ert
ĠRaud onai
Ġarch itek
Ġpasivai kscio
tiv ity
Ġatsibu nd
G aila
T ev
b eg
p t
r iu
t eis
Ġp ain
Ġs ienas
in ar
in ais
an zin
al ias
Ġd ydi
Ġb ic
en is
ia ja
Ġis mete
Ġsu br
Ġz liumb
Ġi vesti
il us
ĠT U
Ġnes kir
Ġnes kaiciau
ĠN atur
ĠN IEK
Ġar m
Ġdar ytu
Ġuz v
Ġuz baig
Ġap z
ĠK alb
ĠS am
ĠS iauliu
ĠJ ac
ĠI A
Ġpar aisk
aud u
Ġnet aik
Ġsus tipr
Ġnep ra
Ġsv ori
Ġpak elia
inu ka
Ġprek ems
isk om
Ġklaus au
Ġvel u
ĠGal u
Ġpinig ine
Ġsen eliu
Ġnesu galv
Ġparas ykit
Ġpasku tinio
Ġel em
Ġneis ivaizd
Ġblog u
Ġpardav eja
Ġlaik au
Ġpab rez
Ġmoket ojai
Ġies kai
Ġnak tim
ĠBu halter
ĠKiek vien
Ġaug ti
Ġsok ti
Ġmoksl ininku
Ġ201 6
ĠDel f
Ġorganiz mui
An tra
Ġfaktur u
Ġrup inasi
Ġvampyr ais
Ġmalon umas
Ġprinc ipas
Ġneras i
Ġnesk auda
Ġpristat yti
Ġsokol adas
Ġbaud os
Ġkiaus iniu
Ġtrag iskai
Ġisid arb
Ġvirtuv es
Ġivertin ti
ĠVokieti jos
ĠSod ros
ĠStai ga
olf ing
Ġpoveik io
Ġpagam inti
Ġgriez tai
Ġfantaz ijos
Ġsai ku
Ġdrus kos
Ġzu vo
Ġinspek cija
Ġpet ies
eziur iu
Ġkonf lik
Ġkond icion
Ġlapkr icio
tiksl iau
Ġissin uom
Ġinterv iu
' re
) (
B ent
I st
a ff
b ei
g io
g ina
p ol
y c
Ġp uol
Ġk ib
Ġn ars
Ġs eg
Ġs ienu
al inio
Ġv o
Ġv oru
Ġd il
Ġd ulk
ur ai
el ej
Ġr itu
Ġis kir
Ġz oles
Ġpas ist
Ġvis uo
Ġnes iskir
Ġkur a
ĠS ut
og os
ĠD ev
Ġf b
Ġnor us
ĠM is
ig h
ĠL aik
yk liu
ĠO ne
Ġtr akt
ym osi
Ġgraz iausias
Ġid esiu
Ġprad etu
Ġuzs il
Ġmaz o
Ġkr ap
Ġbl ius
!! !!!
Ġisl eis
Ġbut eli
Ġor d
Ġgalv as
per im
Ġpardav e
Ġpardav eju
Ġpardav inet
Ġneg atyv
Ġmed zi
Ġpirma ja
Ġvakar as
Ġsiek iant
aipsn is
Ġnum ire
Ġmies tel
Ġgird ejes
Ġgird ejusi
ĠIn ter
Ġskaiciu oja
Ġpuslap ius
Ġmenes iai
Ġkil mes
Ġdraud z
Ġgriz t
Ġlap o
Ġnusis yps
ĠKal ed
ĠSp e
Ġvertin ti
Ġleid imu
ĠSt eng
Ġelg esi
Ġpatvirtin ti
Ġauk l
Bu vau
Ġreisk inys
ĠDraug ai
Niek ada
Ġvaldz ioje
Ġtvir tai
Ġissit ies
Ġamerik ietis
Ġerd ves
Ġzu vis
Ġturgu je
Ġkriter ijus
Ġkriks cion
ĠDaktar as
Ġkost iu
But ent
Ġkeiks maz
A u
H m
I Z
L yg
P ap
S ita
l ove
m iu
x press
Ġp au
Ġt ime
ik ol
ok iam
am ba
en ele
Ġr ami
uo n
Ġl e
Ġl op
Ġis ejau
ei les
ei ciausiai
ais ti
Ġnes ur
Ġnes up
ĠN aus
ĠN ever
ĠS akau
Ġpat yre
Ġper vesti
pr og
ĠJ ol
Ġras iu
bu vau
Ġpar al
Ġsk ur
ĠG abr
imas i
iz mu
Ġkit oms
tik us
Ġsv og
tis ko
Ġsav ininku
Ġes anti
Ġ; '
Ġsal tiniu
Ġmat ote
Ġpasak ot
Ġau ku
Ġjos e
ib odo
Ġsen os
ame L
Ġpirk ejai
Ġbr olio
nes u
adin imas
Ġkol ega
Ġmie liau
ties i
Ġsau nu
Ġtol im
Ġpardav ejai
Ġpers irg
ting o
Ġproc enta
Ġjuok ingi
AI L
Ġpac iame
Ġrink imus
Ġban kai
Ġrim tu
Ġplan uoji
Ġbeg iot
Ġsim ptom
Ġzv akes
Ġmyl ima
Ġ:} }
Ġtikiu os
Ġkoj ines
Ġist irp
ĠDiev u
Ġnepad ejo
Ġprival umas
Ġseim oje
Ġgir tas
Ġisim ciu
Ġpri orit
Ġskol u
Ġpasig am
ĠNus ipirkau
Ġmegstam iausia
Ġgarban os
Ġmodel iu
ĠVokieti joje
ĠNen or
ĠSod ra
Ġsiunti mas
Ġduo na
Ġlaip tais
Ġmum is
Ġketur is
Ġprivers ti
Ġfyf a
Ġperpard av
ĠFl ightless
ĠLandsberg is
Ġatb aid
arna cija
âĻ ¥
" ..
1 000
A b
I US
S kam
j aust
s te
v or
z em
Ġ ievuzia
Ġs eip
an es
Ġv okieti
Ġd iktat
Ġg and
Ġj e
Ġr inkai
on ijos
ap r
Ġat p
Ġat ejus
Ġat ein
ĠP us
ĠK os
ĠA P
ĠD ekoju
Ġpat eis
Ġnor ime
ĠV adinasi
Ġras ite
Ġpar ke
ĠL it
iur b
Ġkl ysti
ac io
Ġin tu
Ġsav yje
Ġak rop
Ġpav are
Ġpro tingu
Ġe ch
Ġkal ejimo
Ġdraug ui
ang as
Ġklaus i
Ġvar toti
Ġpam el
Ġh o
Ġsen am
Ġversl us
ĠVis ur
Ġkuri ant
Ġskir st
Ġasmen inis
Ġasmen ybes
Ġor iflame
Ġneis eis
Ġneis ejo
Ġned raud
Ġpil nam
Ġbendr auj
Ġit ampa
Ġsek ti
Ġmed ziu
Ġkeis tis
Ġnepas it
Ġnepas tov
Ġnak v
Ġreal us
Ġtap tu
Ġsil tas
Ġpatar imo
Ġvykd au
ĠNiek ad
Ġisv ez
Ġpagrind iniai
Ġpig u
ĠNet gi
Ġzal ios
Ġvez iu
Ġlap u
Ġnuv ykti
Ġkaim yne
Ġdy dziu
Ġtyr imu
tel ejo
Ġpolic ijos
Ġvienod i
Ġnuotrauk oje
tyn es
Ġsveln us
Ġistai g
Ġvairuot ojas
ĠGyv enu
ĠPu tinas
Ġhoros ko
Ġburn os
Ġorg in
Ġlaipsn iu
3 4
: (
T okiu
d em
f l
g es
g ird
t eles
w ard
y ku
in uos
in ejimo
Ġne kas
al ini
Ġd atos
Ġd uodu
Ġl ies
ak tik
ej augi
Ġkai res
Ġi liuz
Ġat auga
ĠT E
Ġnes kai
Ġkur iem
ĠS ur
ys ime
ĠM us
ĠJ im
ĠJ iems
ĠV ir
Ġdaug umos
ĠR ug
Ġval ia
Ġuzs inor
Ġiss ak
Ġpak onsultuoti
eks u
Ġkam e
Ġdv ej
Ġdv yn
Ġpasku tiniai
Ġpaziur ekit
eln as
Ġspal vas
Ġser gu
Ġneg eriu
ĠW r
of f
Ġreal ybes
Ġad ata
ĠAt sis
Ġsim tai
:) )
Ġpagrind iniu
Ġtrump areg
Ġkoment arai
Ġpasit rauk
Ġdes ini
Ġnustat e
Ġminim alus
Ġtechn ikos
Ġmilij ona
Ġtaik yti
Ġplius u
Ġmalon iau
Ġskamb ina
Ġnesig inc
Ġissir eisk
Ġryz i
Ġperv eda
Ġnuotrauk oj
ĠAmer ika
Ġuzr ak
Ġinter es
Ġapar ato
## ##
Ġstum ia
Ġistai gos
Ġteigi ama
ĠPan evez
Ġpatr io
ĠGyv ent
ĠIndividual ia
Ġpaskiep yti
Ġpom id
ĠSE B
Ġpusbr olis
Ġismes ti
ĠPuik us
eop le
Bec K
6 00
K U
P ak
b ais
c el
d az
k eln
p am
p on
â ĸ
Ġp iku
is to
al inti
Ġv ap
Ġb oks
Ġg yn
er em
Ġl ia
Ġl ako
Ġsu tiko
Ġz ib
Ġat mes
uz ika
Ġnes azin
Ġuz gr
Ġo z
eg ti
Ġc and
Ġjau t
pr ek
ciu ke
Ġmok ejo
Ġmok ausi
ĠJ U
gal iu
Ġkas met
Ġdaug eli
ĠG e
tas i
iz ik
Ġpl ay
ez iu
ĠMan es
Ġin ici
ev i
Ġprad ejom
Ġtas k
Ġpak ele
Ġziur eciau
liu ko
Ġh os
Ġisl enda
ĠH um
Ġsun ki
Ġbut ybes
Ġw ay
Ġmas inas
Ġbendr ove
Ġsapn uoji
Ġlik vid
Ġnormal ia
Ġkeis to
Ġdeklar acijas
Ġpriklaus omybe
Ġlais valaik
omas is
Ġplan u
Ġplan et
Ġ:) )
Ġvers tis
Ġismok au
Ġvadin am
Ġtrump am
Ġreg is
Ġneat l
Ġnepam at
Ġplat forma
Ġvez ti
Ġatskir as
Ġpasiek e
Ġdzin su
Ġmis tikos
Ġmilij ono
Ġpazist amas
Ġkiau l
Ġpraeit ais
Ġveidrod zio
Ġkud ik
Ġdizain as
Ġcharakter is
aaa abai
Ġnetr ukus
Ġpasibaig e
ĠPasku tinis
ĠAngl ijoje
ĠKlaip edos
Ġbegal e
ĠMerg ina
ĠSE O
Ġbruoz ai
Ġdziaugs mo
Ġdangu je
ĠPaul ius
Ġsriu ba
Ġevoliu cijos
ĠRegistr u
Ġatsibud au
pleks uoju
Ġpaveiks la
âĸ ª
3 2
6 5
7 7
> >
D O
K okie
L E
T uo
c inis
c he
k n
l en
p op
s avo
w s
Ġ ðŁ
Ġk encia
Ġd eze
Ġb isk
ik li
at r
Ġis tar
Ġz yg
Ġpas kaiciau
Ġvis ata
Ġbu tin
Ġbu tas
Ġman ija
il tu
ĠT uoj
Ġnes it
ĠS tar
ius ios
aus kaite
ĠJ oo
ĠV ie
ĠV AL
Ġvien aip
to fobija
Ġkit oki
ul ius
Ġnu gr
dz iant
aid as
Ġak ivai
Ġprie tais
Ġpro por
Ġkr imin
Ġ3 4
isk iu
Ġvar s
Ġtau t
Ġkam po
Ġnezin om
Ġan oreks
Ġsen us
Ġpirk ciau
nes s
ĠNor i
Ġkv ie
Ġa ff
Ġpaziur i
Ġpardav iau
ĠNe eiline
Ġkain omis
Ġse imai
Ġdem onstr
Ġdem okrati
Ġatsir asti
Ġplan us
Ġnusipirk us
Ġzv ej
Ġzv yr
Ġaug inti
Ġrez erv
Ġrud os
Tik iuosi
Ġbuhalter ine
raz u
Pas kui
Ġkvai li
20 12
Ġpasteb ejimas
Ġorganiz acija
Ġgriz tu
Ġveiks mus
Ġapras ymas
Ġrib ose
Ġgaletum e
Ġgaletum et
ĠSt al
Ġpranes imu
Ġeksper tai
Ġissir inkti
Ġekonom ine
Ġhor m
Ġverk t
Ġteleviz oriu
ĠEr vinas
Ġatsarg iai
Ġoptim iz
Ġneties a
Ġgelt ona
Ġsteigi ant
Ġnetol er
. ***
I P
K uo
M oter
S itas
a aip
d i
k oki
n g
n az
u tin
u tr
Ġk auliu
Ġs ekl
Ġs ovie
ar ch
Ġm ut
Ġm ug
Ġv am
Ġv nt
Ġb ep
ad us
et ini
Ġr aidziu
Ġl ele
Ġz ema
ais a
Ġuz fiks
ĠA kr
Ġf abr
Ġtur inciu
ed ant
Ġper ras
Ġgr yz
ĠG avau
Ġpir am
Ġgyv i
Ġlai vas
Ġveik sn
Ġkr yz
inu te
Ġaps kr
Ġjo o
Ġsiu le
Ġvai va
irs i
irs tu
uot ojas
Ġko voti
Ġgau ciau
eid us
Ġ5 5
Ġan ek
ĠVis iems
Ġplau ti
vis ka
Ġkuri omis
Ġais kus
Ġatsak yt
Ġatsak ymai
val dyti
Ġvyr us
Ġkoki oje
Ġpirm oje
ans berg
Ġfak tai
Ġpatik ek
Ġreal iz
Ġjaus ti
Ġtais ykl
Ġ[ /
Ġpig us
Ġpapild omas
aliu ku
Ġav ans
Ġbuhalter i
Ġraud onas
20 10
Ġdraud ziama
Ġsusij usiu
Ġkonkur entai
ĠVien u
Ġparduod amas
Ġsku nd
Ġdy ka
Ġsnek et
ĠKazk okia
Ġaisk inti
Ġivyk ius
Ġateit is
Ġprinc ipo
Ġapmokestin amas
Ġpsicholog ija
Ġjurid iniu
ely dzio
ĠBl ond
Ġvert etu
Ġperskait yt
Ġly ja
Ġnevis ada
Ġuzsisak yti
Ġnepasteb ejau
Ġraumen ys
Ġsmag iau
ĠPan ele
Ġaukstakuln iai
Ġcitr inos
ĠCar rey
Ġwh en
Ġissisk yr
Ġcigar ete
Ġscenar ijus
Ġinv ent
Ġpajam oms
Ġnesum ok
Ġatmos fera
4 9
M ess
N elabai
T eis
d om
Ġ }
Ġk inas
Ġn iur
in cia
ar st
Ġne iz
Ġd edu
Ġd uotu
Ġb ene
er tas
im db
.. )
Ġl angu
Ġl iber
Ġis gr
it au
ek torius
od i
ĠN OR
Ġap ykai
ĠS ie
ĠS kai
og e
ĠM yliu
Ġc j
Ġc ov
Ġper z
ĠI N
ĠV ies
Ġkar ma
Ġnet vark
Ġsus p
Ġmaz eja
yr u
Ġpak l
Ġprek emis
ĠIr gi
Ġklaus ytis
Ġbl emba
liu i
eb o
Ġnaud ingas
Ġsen oves
Ġpasir eiskia
Ġpirk ima
Ġsun ys
Ġkv al
Ġnek enkia
ejus iu
ers ti
Ġse imas
Ġuzd av
Ġpirm iau
ĠY RA
Ġgim sta
Ġban alus
Ġpatar t
Ġem iau
Ġivair ios
Ġrud en
Ġkart s
Ġvadov a
Ġneap sis
Ġklasiok u
Ġpasteb eti
Ġnuol atos
Ġtus cias
Ġist ek
Ġnul io
Ġpran ese
Ġpasit eis
ĠX DD
Ġgaus ite
Ġkep imo
Ġskol os
Ġskirting us
Ġleid ima
Ġpasiziur et
ĠLab iau
Ġautor iui
Ġnez mon
Ġpik t
Ġatg aiv
Ġup es
Ġsport uot
Ġprezid ento
Ġbelek iek
Ġzied a
Ġprir eiks
Ġleg alu
Ġporeik ius
Ġraumen u
Ġnusiper ki
Ġnesamon em
Ġins truk
Ġapskaiciu oti
Ġbalz ama
ĠItal ija
Ġanaliz e
Ġdirektor iaus
ĠSimps onai
eic ar
Ġkoleg os
ĠIspan ija
ĠIdom iai
ĠEV RK
D e
K iti
T au
V aik
h er
m p
n uose
n otiz
t avo
u ksta
Ġ $
Ġ ed
Ġt yci
Ġk iema
Ġne val
Ġj in
uo les
Ġl atv
ak r
ak tiskai
it os
Ġat vaizd
ais to
ĠP la
ĠP enk
Ġap dr
ĠS avai
aus e
Ġpat yl
ĠM hm
Ġger is
and z
bu tis
Ġvien s
Ġdaug maz
ĠG od
ĠG um
ina cija
Ġpl ev
Ġpl aciai
uoj anciu
Ġtr yl
Ġant st
Ġneb endr
Ġpav id
Ġner im
Ġner ib
ĠE bay
Ġdaz us
liu kai
liu kus
ĠU p
Ġpal aiko
Ġpasir yz
Ġasmen iniu
Ġgalv ojo
Ġreikal ais
Ġ? ??
Ġpil nu
Ġbendr uomen
Ġneg ausi
Ġmed i
Ġfak ta
esti val
Ġnemok amas
Ġad s
aliu ka
Ġjaun imo
Ġbuhalter ines
Ġpasteb ejo
Ġautomobil ius
Ġgyd ymo
Ġuzdirb i
ĠSk vern
Ġvez ys
Ġsusij usios
Ġlak as
Ġkosm aras
Ġpri pras
Ġapg aud
Ġivyk io
Ġnesveik as
Ġeil ine
Ġsutik imo
aziur ejau
Nor ejau
Ġdaktar ai
Ġpatenk inti
Ġsugal vos
Ġzvilgsn i
Ġliek na
Ġketvir ta
Ġatsiliep imu
ĠSaul es
Ġjautr i
Ġpaskelb e
ĠIndividual ios
Ġbruoz u
Ġabor ta
Ġples tis
Ġsid abr
Ġpraras ti
Ġmik ro
Ġskyl es
Ġbobu te
ĠSlaid as
cep tion
Ġkval ifik
E I
V Z
V asara
c l
d au
d es
i ok
k nis
m eg
n eis
r eal
v imo
w ays
Ġt yla
is skyrus
Ġs ans
Ġs aw
Ġd us
Ġg od
er ry
en us
el ems
Ġr un
Ġis il
Ġpas ed
Ġi gal
Ġman dar
Ġtik isi
ĠT im
ĠT okio
ĠT OK
aug os
Ġnes t
Ġnes ip
Ġkur sus
Ġap ima
Ġap ple
ĠK A
ĠK ie
ĠK eli
ĠD eklar
Ġtur inys
Ġas aros
Ġpar k
ĠL ife
Ġkok tei
yk is
tas is
auk it
ink us
Ġsv aist
Ġver kiu
Ġnus izud
Ġsp inta
Ġpak eiti
Ġ3 2
Ġ3 7
Ġmat et
Ġklaus yt
Ġau ra
Ġpus ant
cius i
Ġh ol
Ġpal aukti
ĠF in
Ġnetur ite
Ġnesu vok
adin au
Ġor anzin
Ġdirb antys
Ġneis mok
Ġned uos
Ġsuk l
Ġsuk tis
Ġuzd uotis
Ġpab u
ĠKai na
Ġnenor ejo
Ġsukur ia
Ġnuos ava
Ġvirs k
Ġlais ku
Ġeur us
ier iaus
ru e
Ġsvarb iausias
Ġisras a
Ġneuz dirb
Ġprit aikyti
Ġmokyt oju
Ġpasiul ymus
Ġraud onu
Ġuzsak ymus
ĠAp ple
Vis ada
Ġpaband ziau
ĠNem atau
Ġirod ymas
Ġnusis tat
Ġpral eidau
Ġatsidar e
Ġprogram ine
Ġaisk ino
vie cia
Ġypat ingas
Ġpazist ami
Ġnepris ir
Ġvalstyb eje
Ġnedid eles
Ġnesk aud
Ġnot ara
Ġskyr iaus
Ġsumaz inti
Ġtruku mu
Ġneber eikia
Ġprar anda
Zm og
Ġuzmig ti
Ġsmul kus
Ġaukstakul niu
ĠSm y
ĠIm ones
Ġgatv ej
Ġpaved imu
Ġsanaud os
Ġatsiti ks
Ġaukstakuln iais
Ġmilzin iska
Ġklub as
Ġatnes a
emj era
Ġgraud u
ĠHa BecK
Ġsmird a
Ġisspr esti
Ġdzins ais
Gyven imas
ĠPs ich
Ġbibliot ek
Ġprievar ta
5 1
6 8
D eja
M usu
P ers
S R
c ines
c ijomis
e a
i anciu
l ietuv
o ch
Ġt d
Ġt oms
Ġk iet
in yje
Ġm iskas
es me
Ġg ig
at ui
er iui
Ġr eit
Ġr ied
Ġl auksiu
Ġsu jung
ak ai
oj aus
ĠP ur
Ġap v
ĠS ios
ĠS kr
Ġnor ai
ĠM ind
Ġper m
ĠI M
ing esne
ĠV ik
Ġpar eikal
yk t
Ġpo il
Ġver ciasi
Ġim k
Ġgraz iausi
Ġneb ijo
ĠR eiskia
ĠR yte
Ġprad esi
Ġuzs tat
men ybe
ĠAs meniskai
ĠC ol
Ġatrod ai
Ġdid zia
Ġkal edas
Ġpasak yciau
Ġmen ulio
Ġatv ejus
ĠH el
Ġbr end
Ġskir tos
Ġteis mas
ild o
Ġkol on
Ġmin er
ytu met
Ġkv iet
ĠPas iziur
Ġpil ieciu
Ġpil vas
yp at
Ġsutar tys
tum em
Ġtiksl us
Ġch emija
Ġprog noz
ins ite
Ġsitu ac
Ġjaus mai
Ġatsis ako
Ġpaklaus iu
Ġtams a
Ġskaiciu ot
Ġaug int
Ġneblog u
Ġzenk lai
Ġx D
aun asi
Ġnev ien
Ġrus as
ilg ai
Ġeks tr
Ġbel enk
Ġnul ak
Ġkirp ykla
Ġsub ti
Ġvamp yrus
Ġapras yta
ĠVer sl
Ġde im
Ġprik ol
Ġfinans iniu
Ġpatvirtin o
Ġprofes ijos
Ġkiau le
Ġvaiduok liai
Ġvirsu je
Ġlang us
Ġnemal onus
Ġuzmig au
Ġatsiskait yti
Ġliek n
Ġkonserv atoriu
Ġteleviz ija
Ġlip d
Ġsex y
Ġgasd ina
Ġistik ro
Ġmedic inos
Ġteritor ijoje
ĠSum mer
Ġspren dzia
Ġsuprat ot
Ġvaliu ta
veng iau
Ġapt emp
Ġauditor ija
Ġsaldum ynu
Ġpriemon emis
Ġkariu om
izab eth
M ir
N E
T o
p ed
t eko
ai lu
Ġt w
Ġt omis
in ori
ir a
ir ado
Ġne e
Ġv eis
Ġv yn
ti ma
Ġd aba
Ġg iv
Ġg ele
Ġg ood
er gi
im ena
Ġl ietu
Ġis anks
it acija
oj antis
om ino
eik ejo
Ġat om
il ai
Ġnes cia
Ġnes idar
Ġnes kaitant
ant us
ĠS iu
ĠS tat
Ġnor im
ĠM ieg
ed ijos
ks i
ĠB raz
and os
ing r
Ġdaug ia
ent ams
ĠG an
Ġkl im
uoj antys
Ġnu kop
un dziu
Ġnus ivil
Ġzin iomis
Ġveik ejai
Ġsav i
ĠE il
Ġiss ib
Ġprie jo
Ġkr ei
esi ojau
ĠC ovid
yn os
ist es
uot ojai
Ġst ad
Ġnetur int
Ġpadar as
aj am
Ġnuom ai
Ġ4 000
Ġbud ai
Ġbendr am
Ġatl eisti
pas ku
Ġsur ezis
Ġmoter ims
Ġgreit o
re ak
Ġch emijos
Ġsiek ti
Ġpac ien
Ġisg eriu
Ġsr aig
esio t
jau ta
Ġmel ynas
Ġsul ej
Ġte ciu
Ġbaig ia
Ġprojek tus
Ġod ai
Ġpaaisk ejo
Ġjaun os
IN K
Ġnag ais
Ġplat ina
Ġlak st
Ġkosm ara
Ġperk elti
Ġsilp na
Ġaisk intis
Ġivyk is
Ġeil ini
Ġzud ikas
Ġinternet iniu
Ġnesig ailiu
Ġbals a
Ġskl yp
Ġdez utes
Ġkis enes
Ġnereikal ingas
Ġtarn yba
Ġmot oc
Ġeik it
Ġpriziur et
Ġapsilank yti
Ġerd v
Ġeurop os
Ġkamuoliu ka
ĠRe quiem
Ġpasi ilg
Ġmuit ines
iuz etas
Ġlast eles
ĠPetr iukas
ĠAV ON
3 8
6 7
D z
v nt
w u
Ġ ank
Ġp yra
Ġn om
Ġne traukia
al umas
Ġv ejo
Ġd oze
at om
at ve
ad y
iau ja
Ġr ic
ia va
Ġpr idur
on av
Ġz id
Ġpas ekm
ij i
od es
uz s
ĠN am
Ġap m
ĠS aule
Ġo ho
Ġf ui
Ġtur inio
Ġc iul
Ġgr yb
Ġmok intis
ĠB E
ing e
Ġats itr
ĠL og
Ġsk orpi
ĠG l
ĠO b
int ai
ras o
un ga
Ġpad etis
ĠR ad
ĠR uta
zin au
Ġtas ku
Ġe u
ĠC itr
Ġziur ekit
isk am
Ġmat ematikos
Ġatv aziavo
Ġpal iek
ĠF e
ĠH ip
Ġnetur es
Ġnauj aus
Ġpadar au
nes a
adin ciau
akar toj
Ġvaik ystej
Ġw alk
Ġkn ow
Ġjus t
iklaus omai
Ġspal io
Ġneg irdejau
Ġsek esi
oz is
Ġistor ijoje
Ġgim d
Ġpagr ob
Ġeur oviz
Ġnar iams
Ġatsis ake
inc ios
Ġbeg t
art am
Ġauks tos
Ġnurod ytas
Ġsam one
Ġnaudoj ami
Ġegz orc
Ġpasteb i
Ġvakc inas
Ġpatog iai
ĠDaug elis
Ġpenk is
Ġsaug o
Ġkoment ar
Ġfin ansu
Ġai r
iez a
Ġsez on
Ġkaim ynai
Ġrezultat a
Ġrezultat o
Ġvidur yje
Ġivyk iai
ĠRus ijoje
Ġuzsis pyr
Ġsaras o
Ġapr angos
Ġinternet ini
ĠReik tu
bol o
Ġgydyt ojas
Ġnez adu
200 9
Ġdras os
ĠAmer ikoje
Ġpasil ik
Ġlegal iz
Ġnepaz istu
Ġbir za
Ġpoziur i
Ġistr igo
Ġbul viu
Ġtvir tina
Ġtinklap i
Ġtechnolog iju
Ġpabeg o
Ġistai ga
Ġaktyv iai
Ġsmag iai
Ġregistra cija
Ġnuvaziu oti
Ġbiudz eto
Ġpriev oles
Ġskat ina
Ġatim ti
ĠSiaub as
Ġmeta for
Ġklu ba
Ġnufot k
iuj or
Ġmand ag
Ġnekain uoja
Ġinici atyv
, .
; -
E r
R e
T okia
V al
g us
h i
k ilo
t he
Ġk ub
Ġk aun
Ġk ede
is tis
Ġs ir
in ot
Ġv aziavo
Ġd ailes
Ġb au
Ġg aid
Ġj uolab
ok inezes
im anoma
iau t
Ġr y
Ġr ytas
Ġl ot
Ġis mano
Ġpas ieme
il ia
ĠT el
Ġuz uom
Ġpa yp
ĠS eniai
ĠS ocial
ĠD ream
ol ia
Ġc ir
Ġ( (:
ĠB ite
ĠJ um
ĠJ ung
ios iu
ĠV old
ĠL ed
Ġsk ra
iur p
ĠG o
imas is
yb ines
iv ar
Ġnus l
Ġnus lep
Ġsak inys
Ġim u
Ġpan eliu
ev en
Ġid ejau
Ġties inu
ĠE v
Ġzmog zud
Ġgyven s
Ġsal es
Ġsal tinis
Ġnel eido
Ġsiu ksl
Ġkon tor
uot oju
bet a
eid omu
Ġpadar ytas
Ġbal tus
irk ti
Ġreikal auj
Ġ4 2
Ġ4 7
ĠNor ris
ĠIs ivaizd
Ġw ho
Ġblog is
Ġblog os
Ġbendr avimo
Ġbendr auju
Ġsavai m
ejus ios
Ġneg aus
ci ate
Ġkoki om
kait yti
Gal v
Ġpatik t
Ġpatik im
ĠSu tinku
Ġproduk cijos
Ġdarbuot ojams
Ġsiun tos
Ġdain avo
Ġaus is
Ġuzp il
Ġkil s
Vis iskai
Ġvez i
Ġinf ek
Ġklaid os
Ġbern u
Ġpasiek ia
are ciu
Ġpies tuku
Ġsilp ni
Ġatsil enk
Ġatvej i
Ġantr am
Ġpamirs tu
Ġ^ _^
Ġmegstam iausi
ĠMar ija
Ġkompleks as
Ġgydyt ojai
Ġkov os
Ġatsib osta
Ġgamint oju
AD A
Ġbend ras
Ġtarn ybos
Ġzuv ies
Ġleg enda
Ġuzpak ali
ĠOr iflame
Ġparsis iusti
Ġjap on
Ġerd ve
Ġprisig alv
ĠIst at
Ġnumat yta
Ġbiz nis
Ġlektuv as
ĠBan iuka
Ġnas ta
Ġsiuks liu
Ġistis ai
Ġgrind u
Ġpusval andi
, ...
b t
s veik
t az
Ġt on
is us
Ġs ode
in antys
an na
Ġv u
Ġd egal
Ġb ek
Ġg eju
ok yb
el imin
uo gos
Ġl if
ĠT es
ĠT itanika
Ġnes iskiep
ies tar
ĠK e
ĠA N
Ġf estival
Ġtur edamas
ĠM i
ĠM m
Ġgr ud
Ġmok ejimas
Ġras tas
bu tinai
Ġkar stu
aud yti
uk is
ul s
un sk
ĠR adau
Ġak tus
Ġpav aro
Ġpak est
Ġgyven ame
Ġbe b
Ġpris ip
ib rez
Ġkam pu
ĠU k
Ġnaud ojau
Ġidom iausia
ĠPr ekes
Ġpadar ei
Ġpadar ysiu
Ġreikal auti
ties a
Ġw a
Ġw tf
Ġsl oga
Ġa w
Ġind v
Ġsud o
ci oja
Ġnepat ar
ĠW alk
Ġgreit as
Ġch illy
Ġbij ai
Pr ek
Ġisp az
Ġpasidar iau
Ġplan etu
Ġatsis veik
Ġvykd ai
Ġskaiciu ojasi
Ġauks tai
Ġmil tu
Ġsok ir
Ġisk ep
Ġkos met
Ġstat usa
Ġtel pa
Ġsod yba
ĠCh r
dav osi
Ġzal os
Ġram ybe
Ġbel en
sk is
Ġstor as
eliau ja
Ġkonkur entus
elia vo
Ġkaim ynas
Ġles as
Ġles iais
Ġvidu tinio
Ġnedid elis
Ġbals o
Ġmodel io
ĠPl anuoju
Ġped kelnes
Ġlek st
Ġprisid eda
Ġkaup ti
Ġsugal vot
Ġleidz iama
Ġatitink ama
Kar ta
Ġantak iu
Ġapsis pr
Ġhum an
Ġpalyg inti
Ġparsis iust
Ġataskai tas
Ġnud az
Ġvyriaus ybes
aur iai
zm ones
Ġapsiver kiau
Ġcitr ina
Ġbiudz eta
pren dziau
Ġstrazd anu
Ġpros titu
Ġpirst us
Ġslams tas
Ġsubsid ija
Ġvaidmen i
ĠMoter ys
Ġakivaizd u
ĠKlaiped oje
3 7
9 2
A d
L ai
N ei
N egaliu
P atinka
b eveik
j ektu
Ġk zn
Ġs arg
Ġv eter
ti tle
en n
en tin
or y
or is
Ġis val
Ġis iver
Ġis kaitant
Ġis galvo
oj ame
Ġpas ines
Ġpas iima
Ġpas amone
Ġi P
ij aud
Ġgal ai
Ġgal ejai
ĠT ap
ĠN emaciau
... ___
ĠP L
ĠD EL
Ġf ar
tin ese
Ġtur ting
Ġc ol
Ġmok o
Ġmok ate
Ġats iver
bu ti
yk os
Ġsk ers
ĠG im
ip t
Ġnu bl
Ġnu eini
aid os
Ġsp aus
ĠE ks
Ġprie ina
one y
ud is
Ġpak ilo
Ġpasak ojimas
Ġvar au
Ġskai tai
Ġnen atur
Ġh omos
Ġpal ap
Ġpal yd
Ġsupr atai
ind ami
Ġdirb s
Ġpil vu
Ġbais ios
Ġvyr ukas
Ġlauk iau
Ġpab uti
Ġkeis tu
Ġei ciau
ĠDar k
Ġpriklaus ys
Ġlais vo
Ġlais vos
Ġnum esti
Ġpatar ima
Ġnar ko
Ġzv ake
Ġte ciui
Ġrus iskai
Ġskiep ai
Ġvisok iom
Ġfiz iniams
Pas ir
Ġses ei
Ġorganiz ma
Ġlaim ingai
Ġnatur alios
Ġzaid imus
Ġpasit aik
Ġfoto apar
Ġmast ymo
Ġlaid os
Ġdet al
Ġtaik omi
Ġpaskol u
Ġfinans ines
Ġrad ija
Ġrekomend uoti
Ġsutik ti
Ġelektron ines
Ġdidziu lis
Ġpalik t
Ġsamd omas
IA US
Ġkud a
Ġsport uoti
Ġnusidaz iau
Ġproces a
Ġcig areciu
Ġuzpak aliukas
Ġpaskamb ino
Ġkaul ai
ijuok iau
Ġzad i
Ġmakia zas
Ġsruog elem
Ġpaci oj
Ġnesul aukiu
ĠJap onija
Ġmedic ina
ĠNegal ima
ĠIsl and
Ġapku n
Ġautob usu
Ġsugalvo ta
ĠHot Mess
Ġatspind i
ĠTiksl iau
ĠMich ael
Ġkonkret aus
4 00
= "
D azniausiai
I esk
J ai
P U
c ijoje
d f
m inga
n iau
t eli
v imas
Ġ uog
Ġk iem
Ġk enksm
Ġm af
ti c
Ġb em
Ġg pm
Ġr engiasi
Ġpr ez
Ġpr iskaiciu
tu kst
or us
Ġis einu
Ġpas tos
uz au
ĠT oki
Ġnes v
id omu
em o
ĠP it
ĠP use
ĠS iun
ĠD Bet
Ġf er
eg s
Ġtur inti
ol s
vo ciau
Ġreik iama
Ġats isk
ĠL iud
aud ino
uk ams
yb ej
Ġzin ome
Ġim i
ĠR eg
ĠAs tr
Ġpard uotu
ĠC ek
Ġpak alb
Ġkal no
Ġdarb ov
Ġnegal esi
kur iuos
eid es
Ġsen o
Ġsen elio
ut omobil
Ġskir tinga
iaur u
Ġkv itus
Ġpardav ima
siu o
Ġbais iausia
Ġneg auna
Ġlik us
Ġnepat og
elio ti
Ġkartu i
Ġpag arba
ĠKaz ka
ĠGr iz
DD DD
Ġsug ebu
Ġpamat es
Ġsitu aciju
Ġstraipsn iai
Ġskaiciu ok
Ġskaiciu ojamas
Ġsok ius
Ġsuzin o
Ġtvark oj
Ġtvark yt
Ġjaun i
Ġbuhalter io
Ġpasis eks
Ġisig yj
Ġkap iniu
Ġaus ines
Vis os
Ġgars ai
Ġkoment ara
Ġisd uoda
Ġsnek u
Ġdidz iausiu
Ġde fek
Ġvidur io
Ġbes palv
Ġapsaug oti
Ġpapasak osiu
Ġelg esys
Ġdev yn
Ġsand eliu
Ġdarz oviu
Kaz kada
Ġsik sn
Ġperd uoti
rr r
Ġpavad ino
Ġekonom ines
ĠPet ras
ili ate
Ġamerik ieciu
Ġlaip tu
Ġobjek tas
Ġobjek tyv
Ġjautr us
Ġkaul u
Ġpom eg
Ġvaiksci ojau
Ġdep artam
Ġatskl eisti
Ġ:- )
prie vart
Ġhig ienos
Ġgelton i
okr at
parduotuv e
Ġpon ia
Ġatsto vai
ĠBaig te
obl ema
Ġpusses ere
3 6
6 9
I C
Y M
Y T
g mail
k las
n ing
v aid
w ord
Ġ um
Ġk eit
is ai
Ġs aukia
in elis
Ġne il
Ġne kur
Ġb arb
Ġb ado
Ġg ot
Ġg ailiu
Ġr atas
uo tum
Ġsu ver
it vark
ej amas
ej imais
Ġz o
Ġz io
Ġpas tab
Ġvis atoje
Ġbu it
ien ds
Ġar gi
ĠP ic
ĠK UR
ĠS magu
ĠD V
Ġnor ma
Ġas ocia
ĠM ums
ĠM eile
Ġc esn
Ġc yp
ĠB uk
ĠJ onas
ĠJ ack
ĠV ol
Ġkaz i
Ġras ot
yv a
Ġpl ast
auk iai
Ġtr ansl
Ġten d
esn iems
Ġin es
Ġzin ant
Ġim oka
Ġpan ika
Ġgraz ias
Ġveik ejas
Ġes a
ic s
men as
Ġnem atai
Ġtiek ejais
Ġpak ank
Ġpak elti
Ġziur im
Ġpaz ad
Ġdid esnio
ang l
Ġpus ej
ist ams
yd avom
irs k
Ġnezin ojo
Ġpal a
Ġpal aikyti
Ġpirk damas
Ġnetur esi
Ġdazn as
Ġais tr
Ġdv iese
Ġjog ur
idar e
Ġband zius
Ġsud alyv
Ġsek as
Ġmir usi
Ġlik imas
Ġvyr ams
oc a
Ġsumok u
Ġmoter iske
AI K
iej o
Ġfak tus
Ġnetik eta
Ġpateik e
Ġmies tuose
Ġpasik eisti
Ġatsis iusti
Ġmoksl ai
Ġav ansu
Ġpasis av
Ġparod ys
Ġstud entai
ĠDr ama
ĠSk orpi
Ġkoment aras
Ġvariant us
Ġek olog
Ġkor ona
Ġpild yt
Ġdurn ai
Ġgryn as
Ġapsaug o
Ġpastat yti
Ġautor it
Ġinternet ines
Ġnesig auna
Ġrug pjucio
Ġabs urdas
Ġdizain o
Ġmax ima
Ġparsis iun
ĠLenk ijoje
Ġpavyd i
Ġprag yven
ĠSte phen
ĠPad ar
Ġbalt ymu
AAAA AAAA
Ġsusisiek ti
ĠIev a
Ġpavai zd
Ġbaus me
Ġastuo n
% ?
P agrind
V O
d is
k okie
m y
m ama
n ele
p ra
v aziu
z iam
Ġp es
Ġp uole
in imais
ie ina
Ġv aziavau
Ġb ak
Ġg imus
Ġg ailes
Ġg inek
.. :
Ġl ukas
Ġl eist
Ġpr ates
il ija
ĠN ak
ĠP oter
ĠP ER
Ġap end
Ġap mast
ĠK vep
ĠS MS
Ġo l
ĠD ulk
ku mas
Ġtur ini
ks to
Ġgr oja
ĠB eg
ĠJ e
and ziu
Ġras ykit
tr o
Ġpar am
Ġkas a
Ġsk yd
Ġta aaip
yb iniu
Ġsus iti
auk iau
Ġzmon ija
ov er
Ġlai met
Ġneb eis
Ġneb usi
Ġes t
Ġval sti
Ġkr ist
Ġpard uosi
ĠC ha
Ġtiek eja
Ġziur ejom
Ġpap as
isk ol
Ġmat oma
Ġpasak ykit
Ġmokes ciams
ĠGal etu
Ġpris iaug
Ġsen umo
ĠF as
Ġpasir inko
Ġbr ok
Ġskir ia
Ġbal du
arb os
Ġmeg sti
Ġkv itas
Ġnek oks
asar io
Ġind us
Ġsud a
Ġsek undziu
lo ck
Ġ9 5
Ġ9 00
Ġistor ijas
Ġpag eid
Ġch ebra
ome o
zi oje
Ġtams ia
Ġvid us
Ġsok o
Ġismok os
Ġ.. ,
Ġsiun tu
Ġreg lament
Ġ200 6
.: }
Ġpagalv ojo
Ġvaziu osiu
Ġplat us
Ġisr ink
Ġpenk ias
Ġbern iuko
Ġ18 0
Ġrem iantis
Ġmis le
Ġjud ejimo
)) ))
Ġsusimok i
ĠKazk odel
Ġsh it
Ġprik ib
Ġsugeb ejimu
Ġligon inej
Ġrad ijo
Ġnepa galv
Ġnesk anu
IM O
Ġruk yt
Ġruk yti
Ġpur us
Ġskl eidzia
Ġnuorod u
Ġdiz aina
Ġlaikrod zio
Ġauk os
Kiek vienas
Ġdez in
Ġsoliariu me
Ġgamint ojas
Ġkrem as
Ġped sak
Ġpavasar io
Ġrand i
Ġciu ju
Ġpasisk amb
Ġdarbdav io
Ġneper ku
Ġnusidaz yt
Ġpriziur eti
ĠAngl ija
Ġapklaus os
Ġdiskut uoti
Ġnusk amb
Ġrelig ija
Ġsiuks les
OOOO OOOO
Ġsest adieni
Ġhar mon
Ġstebuk lu
ĠPanas u
Ġklin ik
Ġpasek oje
Ġjuodapl aukes
Ed it
enec a
Ġmiestel yje
! )
4 1
I sl
K n
S od
Y TI
l aik
o und
t okia
w n
Ġs ei
Ġs end
Ġs uoliu
in ancios
al umo
Ġm ore
Ġv yno
ik liai
er iau
et ur
ur ks
Ġr el
Ġr enka
Ġr aA
Ġl ok
Ġl ook
om at
Ġpas tor
il io
ĠT okius
ĠT arkime
Ġnes nek
id r
id er
ĠD irbu
abai ga
Ġas or
ĠM oteris
Ġper trauka
Ġger ulis
Ġnuo ga
ing sta
Ġats iaug
ĠO K
int eres
Ġsus itu
Ġtr im
Ġtr ak
un ete
Ġner egistr
Ġbus to
end u
Ġtas kas
ĠE li
Ġpro tingi
ĠC RM
Ġgyven imus
Ġpaz inti
Ġbe pr
isk es
ĠZ v
Ġdaz au
Ġkom b
Ġnen up
Ġsupr asi
Ġpirk tu
Ġsun aud
aj us
Ġw orld
man as
ug io
Ġlaik inai
Ġatl ygi
Ġvad inu
Ġdem es
Ġ7 7
Ġdu b
tom as
forma cija
Ġzem ai
ĠKaz in
Ġnetik ra
jau na
Ġreal ybeje
Ġgaun amas
Ġivair iai
Ġivair iausiu
Ġiskar p
Ġrus iska
Ġvisok io
Ġuzk alb
Pas ak
20 11
Ġskaud et
Ġteks tas
Ġdiev u
Ġsaug oti
ĠKr is
Ġskelb ima
Ġrys kus
AU K
Ġpral inksm
Ġles omis
vies t
Ġsilp nas
ĠSp eju
Ġkompl ek
Ġrib as
juok inai
Ġpic as
Ġuk ines
Ġnuolat ine
Ġabej oniu
IM A
Ġproting ai
Ġatsib os
Ġzvaig zdziu
Ġves tuv
Ġvirtuv eje
Ġsep et
Ġcharakter i
Ġverk ti
Ġsuaug e
Ġsuaug es
Ġtinklap is
Ġpenktadien is
Ġskraid o
Ġsusitar ti
Ġfunk cija
ive a
Ġstab il
zm og
Ġaliej us
Ġkonsulta cijos
Ġmuit ine
Ġtatuir uote
Ġuzim tumo
Ġgelez ies
Ġpirs tai
Ġpyrag as
Ġstruk tura
Ġstikl ines
Ġuzmokes cio
ĠPastar uoju
Ġdram bl
Ġcand ella
L aukiu
N eg
S l
b ia
c iamas
g aila
i ciau
t oji
v istiek
Ġ qu
ai A
Ġk im
ir od
an aliz
Ġm ind
Ġd ej
Ġd og
Ġd um
Ġd ial
Ġd ay
Ġd ilg
Ġb amb
us tu
Ġg oogl
et em
Ġr ysiu
id ai
ĠP or
ĠD ir
Ġnor edamas
Ġnor ejosi
ĠM a
Ġger imas
ks iu
ĠB il
ĠB ern
ios i
ĠV idur
gal but
Ġsk ep
Ġkar d
iz u
Ġdr aus
Ġver g
Ġsak ini
Ġsak ydavo
Ġveik eju
Ġsav a
Ġsav as
Ġdal intis
Ġdal imi
Ġid et
Ġid eta
Ġkel yje
Ġsp ag
Ġtas ka
Ġuzs iv
Ġmaz us
Ġmaz aja
men a
Ġpak uotes
Ġbe prasm
Ġaps ikab
ec ias
Ġkal te
Ġ3 50
Ġmat esi
Ġdaz iau
Ġbl ok
Ġpus ei
Ġpam irst
Ġnen uv
Ġpras e
eit us
Ġst ak
Ġst ogo
Ġpapras yti
Ġparas as
Ġkv ito
Ġband oma
Ġned alyv
Ġpil ietis
Ġlyg inant
Ġpor tr
Ġknyg oje
Ġproc entas
Ġjuok ingo
Ġlauk elyje
iev e
Ġpirma ji
ĠGer i
Ġpirm ieji
Ġmoter iai
Ġmus a
Ġgim ine
olog as
Ġbat ais
Ġad atu
Ġisp ard
Ġpasik onsultuoti
Ġiv yks
Ġsul ciu
Ġismok as
Ġ0 1
Ġkiekvien u
Ġpaaisk ins
Ġorganiz me
Ġstov ykla
Ġnag r
Ġsiul yti
ĠSk iep
ĠSk ype
Ġrem ember
Ġparduod ama
Ġgyvun as
Ġdy ku
Ġkep ure
Ġsnek i
Ġtyr inet
Ġsalyg a
Ġug nies
Ġatr adau
Ġatsp ausd
Ġantr oji
Ġreng tis
Ġpaim t
Ġreklam uoti
Ġdarbuotoju i
vard as
Ġrand as
Ġkras tu
Ġbuve ines
Ġcek i
Ġnuspren dzia
Ġporeik iams
Ġac co
Ġsusid eda
Ġteat ra
Ġsusipaz inti
Ġkomun ik
Ġemo cijos
ĠPaziur ejau
ĠIndividual i
Ġnumat yti
Ġinstitu cijos
Ġkomed iju
Ġfre e
Ġsuprati mo
Ġuniversit eto
Ġpirst ais
Ġkontroliu oti
Ġpanaik inti
Ġgrie tin
Ġpret enz
Ġnelegal iai
Ġkarj era
Ġbezdzi ones
Ġatsisp ausd
Ġtrik amp
ĠPuk uoc
) "
D u
G R
H A
N U
P uik
S al
T iek
Y Y
c c
f ect
m ies
n ig
r yz
t ame
u an
v ada
y vo
z iauriai
Ġp eople
Ġv ik
ti mu
Ġb le
ik lius
er ta
ur ious
Ġl ita
Ġpr aus
Ġpr imin
Ġis ir
Ġis nes
Ġis dav
Ġsu tiks
Ġz ele
ab erl
Ġpas tas
Ġi ziur
Ġbu c
Ġbu ni
Ġat ejau
il ish
ĠT ol
ĠT UR
Ġnes kaiciu
... ,
ĠS uz
Ġo ziarag
tin iame
Ġc t
yt em
Ġger ais
Ġmok etu
ĠI van
ing iausias
ĠV ald
Ġats iusti
Ġsk el
uos t
ĠO p
iz e
Ġtikr inti
Ġnep an
tuv as
ez au
Ġzin okit
Ġim per
Ġgraz esni
ĠR imtai
Ġpav yktu
Ġzmog au
Ġprie ziura
Ġpasak u
enk ite
iog raf
Ġnel b
ĠZ inai
Ġdaz osi
iniu kas
eks ual
Ġnen ukr
ĠU SD
kr ido
Ġ5 1
Ġbal l
Ġpapras ciausias
Ġmeg eja
Ġkol ektyv
Ġ? ?
ytu mete
Ġkv ieti
Ġw olfing
Ġel eg
Ġnepr ipaz
Ġnepr ival
Ġned uok
Ġmas es
Ġind u
Ġsapn uoti
Ġ:] .
Ġlik imo
Ġjuok iasi
of es
Ġpag ir
auti ful
olog a
Ġpac iais
ĠBu tinai
ru ju
Ġzenk lus
Ġvadin ami
Is s
Ġisk el
Ġkeli oniu
Ġkeli onei
Ġpasiul yt
Ġeks kurs
Ġlaim eti
Ġatidar e
ĠKr em
Ġduomen imis
Ġvariant o
Ġgarb ano
ĠMok ykloj
Ġpos tus
Ġvidu tinis
Ġisim ine
Ġiz eid
Ġtyr imai
Ġivyk i
Ġeil eras
ipirk ti
Ġkin ijos
Ġmedzia gas
Ġabej ones
Ġkontr ole
Ġeksper tas
Ġmag net
ĠReik al
kaz kada
Ġped keln
Ġres ur
Ġmad inga
Ġabs urd
Ġpaskir ties
Ġsuras yti
Ġgerb eja
Pir mas
Ġbul v
Ġalerg ija
Ġvon ios
Ġvitam inus
Ġsampun as
ivyl usios
Ġataskai tos
ĠEn ameL
Ġbaz es
Ġsutaup yti
Ġnusteb ino
ĠPard av
Ġbazn ycios
Ġzan ro
pris imenu
ĠGyven imas
Ġpazyst amu
Ġlicenz ija
Ġstrateg ija
Ġnusit eik
ĠPinig ai
Lab iausiai
Ġsaz ine
ĠVeik la
Ġliet aus
Ġpiz ama
aff eine
D A
I ki
P aras
T AI
Z iauriai
h ol
k ie
n elabai
p n
p lay
r eik
s uk
y zd
Ġt esti
Ġk isa
Ġs aj
Ġs fer
in dz
in amu
ar ta
ti g
Ġd aa
us h
am ino
Ġl ietus
ei z
Ġz ia
ab le
Ġman ia
io tu
ĠT omas
Ġnes ekm
ĠS ek
ĠS ed
ĠD az
ĠD AUG
ĠM ol
um oj
ed am
Ġmok ant
ĠB ul
ĠJ US
ĠV yras
ĠL ik
ent es
etu ose
Ġnu ejom
Ġsak ot
Ġid enti
ud r
Ġpak eis
Ġgyven au
Ġsal tu
yn giu
ĠZ od
Ġpam azu
ĠGal it
Ġpras yt
Ġh ere
Ġidom umo
Ġversl ai
Ġpapras ciausia
Ġparas ytas
Ġvaik ysteje
Ġned omina
Ġati ma
siu os
Ġsapn uoja
Ġsapn uodavau
ymas is
tur as
Ġbais iu
pas kui
Ġpriv ac
uol i
Ġpirm oj
Ġsumok ejo
Ġjuod ais
Gal iu
Ġrekl amai
Ġsusir ast
Ġsvies i
Ġdom enas
Ġbeg ioj
Ġivair iais
Ġneuz d
Ġneuz si
Ġsuzin ojo
Ġrek t
Ġstu l
Ġ200 7
Ġvaizd u
Ġspecial istas
Ġakc ininkai
Ġorganiz acijos
Ġvald ymas
Ġuzdirb t
ĠBr it
ĠBr itan
Ġdek inga
Ġuzsid eda
Ġsaug umo
eidz iami
An gel
Ġskelb ia
Ġmatyt usi
Ġvamp yras
ĠSp ir
Ġdalyv avo
Ġfinans ine
Ġprekiau t
Ġkin ezes
Ġrad us
Ġvalstybes e
Ġsudet ingas
ĠMaz daug
Ġsekm adieni
Ġartim iausiu
laid a
Ġisskir ti
Ġruos iasi
Ġpoz em
eur u
Ġatstov u
Ġkiaus inius
ĠEl izabeth
Ġpasisk ol
Ġminti m
Ġzyd u
Ġbul ves
Ġapar ata
Ġpadid inti
Ġpot vyn
Ġgaranti jos
Ġpoveik i
Ġmit ybos
ĠLinks mu
Ġisor inis
Ġkg b
Nem anau
Ġsusidom ejau
Ġnebel iko
Ġsluoksn iu
Ġturg aus
MM MM
Ġparem tas
ĠWh ite
Ġph otoshop
Ġnuost oliu
Ġuztr unka
Ġkriti ka
Ġgrandin ele
Ġreink arnacija
Ġkalej ime
Ġvap se
Ġzvyr iete
ĠAkr op
Ġapykai ta
Ġskra ju
" ).
% )
0 45
7 2
E TU
F I
G oogle
J uok
M eile
P az
P la
d ra
f os
k liu
m ir
p ap
s al
Ġ ciau
Ġ Qu
Ġt wilight
Ġk ys
Ġk enk
Ġk edu
Ġk ibir
Ġs ausi
in ausi
os h
et s
et inas
am er
Ġr engi
av ome
oj uos
ej ant
Ġi pl
ĠN etik
Ġpa juok
Ġpa emiau
ant os
Ġap yti
ĠA f
ĠS es
ĠS ep
ĠD ija
tin eti
Ġnor esiu
ĠM ig
ĠM atau
Ġc or
Ġc entu
um er
Ġper b
Ġ( ?)
ĠB ibl
ĠJ AU
and y
ing iu
ĠV o
ĠV an
ĠV ad
ĠV ykd
Ġras ta
ĠG ir
ĠG reen
uos ia
ejo ti
iv a
Ġsv eciu
Ġnu ejus
Ġdr yz
Ġnus iun
Ġim p
Ġgraz ina
Ġlai mi
Ġak ims
Ġid e
Ġkel ius
Ġties int
st os
Ġpak esti
Ġziur esim
Ġpaz inciu
Ġsal tas
Ġpasak os
Ġnel iko
Ġnel iks
ĠZ uv
Ġvel niu
ist ais
ib le
si andien
Ġsen atves
Ġisl eidau
Ġmes k
Ġpirk ta
Ġil lum
Ġpadar yciau
Ġplau ko
Ġbal dus
Ġteis ine
for n
Ġmie lu
Ġsl id
Ġneis d
Ġneis g
Ġsm elio
Ġlyg inti
Ġvad ino
Ġpirm iausiai
Ġsut eiks
Ġnur odo
Ġlais vu
Ġnum er
Ġtap au
lai te
Ġgaun amos
Ġjaus mo
ĠNiek ur
Ġstipr i
Ġuzt eko
Ġsok iai
Ġrank ine
Ġliud nas
Ġprit r
intu vo
Ġstat o
Ġstat istikos
Ġvadov ui
Ġtrump alaik
Ġpasiul ymas
Ġnaudoj imo
auks im
Ġaplink ybiu
Ġket inu
Ġtes iasi
Ġkonkur encijos
Ġnesus ip
Ġtukst anciai
Ġminim uma
ike ite
Ġsnek eti
Ġpaskol as
Ġtyr ima
Ġprav ar
Ġisn yko
uliu oti
tol iau
Ġ# ####
Ġpaaug liu
Ġstik lo
Ġmodel i
Ġsusirg imu
Ġnuzud yti
Ġzingsn i
Niek as
Ger iausia
Ġatitink amai
Ġpatrauk l
olf ina
yy y
Ġkupr ines
Ġlent ele
ĠDarb as
Ġsavivald ybe
ĠJohn ny
Ġissiv yste
Ġbuk le
Ġsmulkmen u
Ġpauks ciu
Ġnuostol ius
Ġkoncer ta
Ġmelyn os
Ġsutrik imu
Ġsazin ingai
Ġmam yte
ĠNorveg ija
Ġatitik ti
Ġpagelb eti
Ġfutbol o
IIIIIIII IIIIIIII
Vaid ina
ĠZM ON
Ġaff iliate
. ~
= <
A m
B us
G i
J aun
K eista
M el
O mg
P am
b endr
r s
t v
t ems
w au
y es
Ġ end
Ġk isti
au zd
Ġs iej
ie re
ir to
an el
al do
Ġb ax
os o
us iai
ik ais
Ġg uma
at ing
im p
en eka
Ġr ysi
Ġtai ko
Ġpr isk
Ġpr alai
Ġis iz
it ch
om ojo
ek t
ek is
Ġtik ejaus
Ġat eik
ais iu
Ġnes ib
em ia
Ġuz vakar
ĠK itu
ĠK AR
ĠD urn
Ġ- >
Ġpat ep
Ġpat ams
ys ciu
tin s
Ġgr is
ĠB aik
ĠJ ul
and ziai
ĠV eln
Ġras ote
Ġsk ar
uk tas
Ġkl aik
yb oje
uoj as
00 00
Ġnus ig
esn em
Ġties iu
Ġmaz iausia
Ġpak yla
Ġik yr
Ġkal edos
Ġbl em
Ġsi okia
Ġatv ez
Ġisl eidziu
Ġst enk
ut h
Ġpirk tis
Ġplau ciu
Ġbal a
Ġint ens
Ġnepr il
pl ius
Ġab out
Ġvyr esni
Ġsut ver
Ġskait men
Ġnum erio
ier iai
jau n
Ġsed ev
Ġrod s
Ġsvies to
Ġpasik eicia
Ġisras ineti
li on
Ġprak ai
Ġtvark inga
eiks mas
Ġisig il
Ġskr ido
Nes eniai
Ġuzsid eg
Ġprid eda
Ġtes tu
eidz iama
und u
Ġyou tu
Ġsvaj oju
Ġgul ejo
Ġag ain
Ġlank ytis
Ġkep ti
.; }
Ġkin ietis
Ġnevalg o
ber gi
Ġpristat ymas
Ġgydyt oju
Ġlaikrod ziai
Ġatm ainos
Kaz kas
Ġauskar u
Ġveget arai
ĠEl ektr
Ġaktu alus
Ġpoziur iu
Ġantak ius
Ġcek ius
Ġporeik is
iol ik
Ġnuolaid os
Ġkonsultant es
Ġhip ot
Ġtor r
ĠTIK RAI
Ġbrek etu
ĠPras au
Ġpatyr es
Ġeid ama
ĠMon ika
Ġviolet ine
ĠMokes ciai
ĠLyg iai
Ziur ejau
Ġkraup u
fak tura
inat ed
Ġpasiskait yti
Ġapip les
Ġleks te
ĠIesk au
Ġziniasklaid a
ĠArb ata
Ġkorid oriu
Ġdistr ibu
ĠJol ie
onav ir
Ġmetafor aa
Ġbelen kaip
) *
M u
R aud
S iul
T O
W h
f e
p vm
s c
s avai
t erg
u vis
v ieno
Ġ âĻ¥
Ġk cal
au zia
is au
Ġne ma
Ġb aid
Ġb ack
Ġj ej
et inis
en iu
el iam
ia p
Ġsu mu
Ġz dz
Ġz ona
Ġi ves
Ġman yti
Ġat kur
il t
ĠT eks
ĠN iujor
id eda
Ġuz truk
ĠP ietu
ĠS ar
ĠS io
ĠS ch
Ġo o
ku ciu
Ġnor eti
Ġc ik
Ġper ves
Ġnuo jauta
Ġmok ejai
ĠJ okio
tr uputi
ent is
yk ime
Ġkar alius
uoj auta
ink im
Ġsv eria
Ġver ting
ov ui
Ġpad eng
Ġsav ybe
Ġid ej
Ġkel inta
ic al
Ġbus ite
zin o
Ġtas es
st us
ud i
eng r
Ġpap us
Ġaps iz
Ġpam eciau
Ġpinig eliu
Ġkazkok iais
Ġan yway
ut te
Ġnesu tar
Ġteis i
Ġmeg au
Ġmerg ele
Ġparas ai
Ġ) ))
Ġpardav ejui
kar ai
man e
Ġmas iskai
Ġkain om
Ġvyr esne
Ġproc entus
Ġjuok ingos
Ġ6 5
Ġ8 000
Ġnepas ake
if er
Ġtiksl ais
Ġgim naz
Ġrink ciausi
Ġsusir up
etum ete
Ġvykd ymo
Ġklas ik
Ġpol inkis
Ġskan i
Ġpapild omos
Ġrud ens
Ġkiekvien ais
Tik r
Ġvadov ai
Ġreg i
Ġnaudoj ate
IN A
Ġpasteb iu
Ġstud ijas
Ġmo tin
ĠCh ris
Ġkav ines
Ġvez io
Ġtobu lai
Ġdovan oti
Ġapras ymo
ĠSp utn
Ġde ad
ĠAl l
Ġpastov us
AT O
Ġgil iau
Ġatr ad
ero inas
Ġantr i
Ġism at
Ġisn uom
Ġprofes orius
Ġseks as
Ġnesig il
Ġteig e
Ġserg anciu
ĠAmer ican
Ġpoz icija
niek as
Ġtobul eti
Ġprab ang
Ġbliz gu
ivyl iau
Ġnut yl
Ġsmag us
ĠStr eet
Ġmetod as
Ġpavirs utin
Ġapibud inti
Ġvyst yti
Ġnutik e
Ġatsim er
Ġprati mus
Ġuzdr austi
Ġnutar e
Ġcon ver
Ġpars iv
Ġnuotol iniu
Ġpabud au
Ġneisv engi
Ġasocij uojasi
Ġnedraud zia
ĠVold emor
045 7
5 2
E g
N eis
P etr
S is
S upr
T C
b an
c a
d iena
f al
g b
i ancios
l l
l ol
n ius
p elno
s ako
Ġn isa
ie cio
ar ono
Ġne for
al vo
al ams
Ġm eks
Ġm aikes
ik on
er ka
im an
ur es
ur ia
el ektu
Ġl enta
tu ju
Ġsu veik
ek v
ais o
ĠT v
Ġnes kait
em pl
Ġpa gu
ĠK ava
ĠS r
ĠS ir
Ġpat o
Ġnor m
Ġas h
Ġas aras
Ġc entus
um ais
pr ival
pr ekes
ig i
ig as
iaus e
ĠV alg
Ġpar az
gal is
Ġkar tos
iz a
Ġtikr ins
auk ite
Ġdr edai
Ġpad engti
Ġpan u
ev iciu
ĠR et
ĠR etai
Ġid ent
Ġid ejai
Ġval ymo
Ġner ado
Ġiss uk
Ġprie d
ĠC IA
ĠC affeine
Ġziur isi
isk iau
Ġdraug emis
Ġmat ot
Ġmat ome
Ġpasak oti
ist er
ĠGal ite
Ġkon fer
ob s
ĠLietuv iai
ĠAr tes
Ġ. (
Ġmes t
Ġnauj ienu
Ġskir tum
op s
Ġal p
Ġparas ykite
Ġvaik yste
Ġkv itu
Ġnek yla
Ġsl yp
Ġneis dr
Ġblog iausia
Ġilg ais
aa aip
Ġlaik omi
Ġatl iko
Ġsutar iu
Ġpab ut
Ġmed ia
Ġgaliu kai
Ġkoki omis
Ġnepas id
Ġlais kas
Ġbat eliai
ĠBu ciau
Ġpatar e
ĠSu tar
Ġregistr avimo
etum e
Ġliu ks
Ġem igr
Ġmieg us
ĠNiek aip
Ġskaiciu ojami
Ġprak eik
Ġrud u
Ġtvark os
Ġskiep us
Ġkap o
Ġvais iai
Ġkvai lu
Ġkoj omis
Ġter min
Ġtikra ja
Ġstud entu
Ġuzdirb si
Ġkav ine
Ġpenk iu
Ġkul nas
Ġlap us
An tr
Ġarb uz
Ġles os
Ġdalyk ams
Ġmilij onai
Ġkak tos
Ġskol ingas
Ġsc enu
Ġpamirs o
Ġneziur esiu
Ġspor tin
ĠKl asi
Ġautor iu
Ġseks is
ĠReik ejo
Ġsokol adu
Ġpalik au
Ġvaiduok li
Ġraudon plauk
Ġkan ala
Ġorigin alus
pir ma
Ġnetr uksta
hh h
Ġnusil ak
Ġpens ija
Ġemoc ijas
Ġideg is
Ġnesak iau
Ġnesak yk
Ġketur ias
uostab u
aziav us
Ġrizik uoti
Ġpatiek alai
Ġnuosav ybes
Ġgres me
Ġroz ine
ĠAfr ikos
anz ine
Ġuod ega
Ġuzkab ino
ĠEsti ja
Ġsimps onai
ĠNuostab us
Ġserv et
Ġreputa cija
Ġdienoras tis
Ġpasitiksl inti
Ġpropor c
Ġapend ic
aberl ic
utte ee
A P
A te
D Z
M eg
O ne
P irk
P lius
R eik
U M
V yras
d er
d ay
e A
k ams
r egistr
y kas
ai lo
Ġp uk
Ġt ingi
Ġk iaur
Ġk ancia
is l
Ġs ove
Ġne tiko
Ġd ukr
Ġb ok
Ġl aaaabai
or iskai
ab as
om ais
Ġpas iun
od or
Ġnes ilank
Ġuz uol
ĠS vaj
og ero
ĠD eg
ĠM art
ĠM ask
Ġmok iniu
ĠJ uos
ĠL au
Ġvien etai
ent s
eti ka
Ġsk irs
int ais
int elis
Ġkl avi
Ġkazk uom
ĠR usu
Ġkel t
Ġsp oks
Ġsp utn
ĠE inu
Ġpak oreg
Ġkal nu
Ġpras om
gr iz
Ġnebu ti
Ġnebu davo
Ġtokiu ose
Ġbr ied
Ġbr oliai
op as
Ġdirb anciu
per s
ĠNor isi
ver sl
oks ta
Ġilg o
Ġlaik us
ĠAn tras
Ġpask l
Ġmir ciu
Ġjuok a
Ġmoket ojais
ĠY ork
Ġimones e
Ġch to
Ġnesupr ato
Ġvard ai
Ġregistr uojant
Ġatsis iun
Ġstipr u
inej ant
Ġtvark ymo
Ġtrump u
arg o
arg ar
Ġspecial ybe
Ġaplink iniai
ĠTr ans
Ġbur tin
Ġapmok ejimo
Ġvald yt
Ġkod us
Ġig ars
Ġsuv okia
Ġsaug os
und e
ĠKr ist
Ġnepad are
Ġprival omas
Ġjud ejimas
Ġpos te
Ġisim tis
alis tai
Ġtyr imus
Ġsugeb i
Ġatsik elus
Ġypat inga
At sak
Ġefek tu
Ġpasitik ejimas
Ġpasitik ejima
Ġdev ilish
Ġspor tas
Ġitrauk iantis
Ġslap ia
Ġpok y
,, ,
Ġvaz ineja
Ġtrans port
akul a
Ġkrem ai
Ġsusirg o
Ġideal as
Ġtruku mus
Ġatsig ul
Ġpaskai cius
Mok ytoja
Ġpatrauk e
Ġnevis i
Ġnepasteb i
Ġapac ioje
Ġlent os
Ġpakab uka
Ġnebep amenu
Ġgink lu
Ġpyk cio
ĠKlaip eda
Ġpavirs iu
ĠIl g
Ġvaiksci ojo
Ġapat iniu
ĠMo on
Ġpaskaiciu oti
Ġatsiun cia
Ġvartoj imo
Ġrekviz itai
Ġsubsid ijos
ĠSit ie
Ġklu bu
Ġrev oliu
Ġvidutin iskai
Ġnebais us
Ġskun dziasi
Ġekstras ens
6 1
? (
G irl
J usu
K ada
K AS
N egal
e w
p om
t ojo
y an
Ġp eles
Ġn acion
Ġs in
Ġs ien
ie xpress
ir gi
ar eiksm
Ġne a
Ġm ovie
Ġd ega
Ġb x
Ġb ig
Ġb yla
es p
es ome
at ed
im pa
Ġr A
Ġr ato
Ġr atus
Ġl ag
av as
Ġz adin
Ġvis tos
Ġi pat
ij es
ij imas
Ġgal us
ek ia
Ġat min
od zius
... (
Ġap tik
ĠK v
ĠK AS
ĠS iaur
ĠD ziu
ĠD ragon
Ġf obija
Ġf enom
Ġas pek
ĠM ald
ĠM ont
um eris
yt ais
ks on
Ġgr auz
ĠB or
ĠV and
ĠV ER
Ġpar eng
Ġvien etu
ĠG YV
Ġsus apnavau
auk us
Ġnep akartoj
Ġsv ecius
Ġnu tiks
dz iam
ep a
Ġlai v
Ġneb ezinau
Ġdal imis
Ġak tai
Ġpav ien
Ġpav iz
Ġpav ersti
Ġkel etos
Ġmaz oji
Ġiss p
Ġprek em
Ġnel og
Ġmokes tiniu
yd as
Ġkam pan
Ġan as
ekl ama
Ġisl indo
Ġpal ai
ĠF M
ind ama
Ġpil nos
anc iomis
aa ai
ch em
Ġmokyk las
rai z
Ġindividual ioje
Ġpag yv
Ġch al
olog u
Ġisg ert
Ġmel uoti
Ġplan ai
Ġsvar us
ru ite
Ġ+ -
Ġismok eti
inej imu
Ġklasi fik
Ġlengv atos
Ġspecial iz
Ġket uriu
ĠDel fi
Ġskaud u
ĠTr ema
Ġuzm iegu
Ġsudar yta
Ġatidar o
Ġatidar yt
Ġsusig raud
Ġapras yti
Ġpos to
Ġfot kes
Ġiz eisti
ĠAl eks
Ġslyks ciai
Ġpasiziur ejau
Ġkin ieciu
Ġliep s
Ġissig as
Ġsutik ima
ĠAng lu
Ġlaikrod ziu
Ġauk ci
Ġnuotrauk ose
Ġsunk vez
ĠBl em
Ġleidz iam
Ġprar ad
Ġsmul ki
Ġgarant uotas
Ġvon ioje
Lietuv oje
Ġsavivald ybiu
Ġapsiver k
Ġilgalaik io
Ġnepamirs iu
Ġnekreip iu
Ġdep iliu
ĠJap on
Ġsustab d
Ġkomand ir
Ġmaitin tis
Ġnegyv as
Ġnusim an
ĠTev ai
Ġaptarn avimo
Ġkairiarank e
Ġkriz es
Ġremon to
Ġangel as
ĠNeblog as
Sm ile
Ġmer gu
ĠJez us
Ġtelep atija
Ġklausim elis
ĠIntern ete
Es me
Ġkilomet ru
Ġlaisk us
ĠDeiv idas
Ġnesun kiai
Ġlaikys ena
Ġpasiel g
wu utteee
. +
7 4
D ekoju
I OS
I AM
K el
K on
S c
T R
b il
b ook
n ais
n egal
t okie
v om
Ġp esim
Ġp ykti
Ġt eti
au ziau
Ġv nz
Ġd ejo
Ġd uosiu
Ġb ag
Ġb esim
Ġb ara
et ine
am anija
im ta
Ġr iek
Ġl inka
Ġis bl
Ġis iregistr
it ies
ek ime
od ai
Ġnes kaitau
Ġnes iskaito
ĠN aval
ĠN ejaugi
ĠP rod
ĠP ark
ĠK las
ĠS imas
ĠS tipr
ĠD U
ĠD ain
Ġf on
ĠM er
ĠM ak
Ġjau tiesi
Ġger e
Ġmok s
ĠV ez
Ġpar uk
ĠL ov
eis tai
yk lu
ĠG yd
int iems
Ġbuvo te
ink ime
Ġgyv u
Ġzin uciu
Ġpad iskut
ev in
Ġval dziai
Ġner izik
ine ciau
auj am
Ġsp ejo
Ġmaz ens
Ġgyven ama
-- >
Ġsal eje
Ġskai ciais
Ġpam ieg
Ġpries u
Ġpras tum
Ġsun is
vis a
Ġskir tis
Ġasmen iniams
ĠDD O
for e
Ġmeg s
Ġmin eta
Ġdirb tinai
Ġpil ieciai
ug o
Ġit r
Ġsuk ti
Ġvyr iski
Ġuzd ejo
Ġlauk i
Ġgaliu kus
Ġpriv at
Ġpag avo
Ġ15 5
Ġsr iciu
toj us
Ġnemok amu
Ġgird et
Ġgird eje
Ġisv adas
kit a
Ġisras ai
Ġsiun t
dzio v
IN E
ilg o
Ġlengv ata
Ġvaizd ai
ĠTr uputi
Ġapmok eti
ĠPa galv
ĠSi oje
Ġnul uz
Ġteik imo
Ġkirp t
Ġsusig arban
Ġnedar yti
Ġveiks mai
Ġgul iu
Ġkvap u
Ġrib ojimu
Ġok ul
Ġpasiziur i
Ġpic erija
Ġefek tai
Ġdie vo
Ġskamb inti
uliu kai
Ġnepak eisi
Ġtal enta
Ġmag n
Ġnuorod os
Ġbla ck
ĠSv eicar
Ġpaies koti
Ġideal u
Ġideal us
Ġateiv ius
ith uan
Ġviz ija
Ġpunk tu
Ġisid et
Ġep il
th er
Ġsuvalg au
Ġapar atas
Ġdvir ati
Ġbil ietus
Ġnariu i
Ġpasal inti
Ġraj ono
Ġrep eti
Ġnuolaid u
Ġpavyd as
Ġnud eg
ĠAngl ijos
Ġnesik eicia
Ġsvarst ykles
Ġkars tas
Ġskambu tis
Ġmedic in
Ġpriver cia
Ġfantas tikos
Ġfyf os
Ġmiest elio
IEN A
Ġmarskin elius
Ġbiolog ijos
ĠEg z
Ġspalv om
ĠMc D
Ġsuform ul
Ġnuotyk iu
Ġmikr ob
Ġepid emija
Ġliezuv i
Ġpasauliu i
Ġvs d
ĠVely kas
Ġiveik ti
Ġdiskr imin
Skam butis
Ġinvent oriz
Ġidenti fik
C e
D b
G A
R eikes
S ud
V iska
Z iema
d y
n ys
r aug
s itas
t eliai
x t
Ġ entu
Ġ usiu
Ġn is
is nek
Ġs ad
Ġs el
an ksciau
Ġne vart
Ġne utr
al bu
Ġm b
Ġm eciau
Ġb ac
Ġg int
Ġg ave
er iams
.. ,
el tui
Ġl eidziu
or g
Ġis prievart
Ġsu interes
it ed
eik iu
Ġpas iskai
Ġi b
Ġbu m
od ys
Ġdar ote
Ġkur sa
ant ra
ĠK IT
ĠS varst
ĠS tory
ĠD zin
ĠD ziaug
Ġf ol
Ġf uck
Ġtur ima
ed bank
Ġger imo
Ġmok amos
ĠJ uo
ing esni
Ġats imin
tr ak
ĠL NK
ĠG ar
uos iau
Ġkar oliu
aud avo
aud ziau
aud zia
ĠO oo
Ġpl ac
Ġsus kaiciu
Ġsavo tiskai
Ġsavo tiskas
tuv u
iem iau
un es
Ġver ciau
Ġgraz esne
Ġneb esu
Ġneb egaliu
Ġsp yg
Ġprie p
Ġ; >
Ġpro p
Ġe wuutteee
Ġgyven im
tor ija
ĠBet o
Ġaps ie
Ġsal ti
Ġsiu lai
Ġnen ul
Ġpras tos
Ġnezin ot
Ġpirk tas
vis ai
op uliar
ern ai
Ġdirb si
Ġkv iecia
Ġstr iuke
ers h
Ġnepat ing
Ġsur is
Ġmais tui
Ġtokios e
Ġskait ant
Ġpagr eit
rauk ia
Ġnetik tu
Ġsug adino
Ġsusir enka
Ġmel uoju
Ġliu tas
Ġpamat ys
ru ksta
ĠKas dien
Ġspr est
Ġisras e
ond er
Ġbaig iu
Ġprogr amu
Ġpaaisk ino
Ġnurod ytu
Ġneats iranda
Ġbuhalter es
Ġaplink oje
Ġsod r
Ġstov eti
sp inig
emp e
Ġiesk ok
Ġtes la
Ġgrup ei
Ġkonkur enc
Ġpasiras yt
ĠNE T
Ġrys ys
ieb al
Ġpies ia
Ġtukst ant
inam es
Ġpos tu
Ġskol as
Ġvidur am
Ġkompan iju
Ġvil kas
Ġsantyk iais
Ġpriim s
Ġkompleks a
laid os
Ġatm inties
Ġsamd oma
Ġreisk iniu
Ġpanaud os
Ġnot ar
Ġvirsu j
Ġsunk oka
Ġpoz ic
Ġkonc erv
Ġatlik ta
Ġprisid irb
Ġsusidar yti
Ġmax imos
Ġves tuviu
Ġsumaz ejo
Ġnusidaz ius
Ġdvir acio
ikl ij
Ġfant astika
Ġraumen is
Ġparsis iunciau
Ġbang uoti
Ġpameg au
Ġanti vaks
Ġdiskut uot
Ġnuvaziu ot
Ġsirg o
Ġmod ern
Ġissiskir ia
Ġplon i
oth er
Ġciviliz acija
Ġreag uoja
ĠMeg stam
Ġintelek to
Ġtreci adieni
Ġbeprot iskai
Ġismet a
Ġnesiek ia
Ġgrai b
Ġagres yv
Ġdvasi om
Ġtarpusav yje
Ġzand ik
Ġakivai zdziai
elimin ar
ĠMi y
" (
" ]
4 2
8 00
9 1
? *
D o
D aznai
G am
I JA
R ud
S ep
T F
f m
j uod
l ing
m ams
m usu
p aziur
v ad
w er
Ġ ausi
Ġk aune
is tat
Ġs antu
Ġm ain
Ġv eja
ik ams
en io
Ġr akt
uo tais
on y
Ġz ali
Ġkad aise
Ġpas ijau
ra c
ek la
Ġat kr
ais tu
ĠT w
ĠT elef
ĠN ejau
ĠN ibiru
id encial
Ġkur ima
Ġap eiti
ĠK id
ĠK auna
ĠS uom
ĠS tud
ĠD al
Ġpat yrus
tin umas
eg r
ĠM ik
avo te
Ġper ejo
pr itariu
Ġnuo var
Ġmok ymo
Ġats ines
tr ol
Ġpar vez
Ġkl o
Ġkit okius
Ġten ai
Ġdr austi
Ġsav izud
ĠR ekomenduoju
Ġkel iai
Ġner uk
Ġbus im
Ġzmog eliu
Ġiss iz
Ġ; (
Ġkr ito
yr o
yr iau
Ġbe c
Ġdraug iski
Ġskai te
Ġvai vor
ino z
Ġatv aziuoja
Ġh ard
Ġpal eido
Ġlab as
Ġasmen ini
ild yti
Ġnuom oti
ytu me
Ġbud us
Ġband ymas
Ġstr eet
ting umas
Ġsud auz
Ġvad int
Ġnormal ius
lu e
uol io
Ġam b
ĠTur etu
Ġdeklar uot
MI N
Ġrink imu
Ġjok ius
Ġjok iais
Ġvard int
Ġsil u
Pr emjera
iziur ejau
Ġpuik iausiai
Ġsim s
Ġtams i
ykit es
Ġkun u
Ġbaig e
Ġfiz ini
Ġaplink ybes
Ġvaziu ojam
Ġgar su
Ġsup yk
Ġnegraz i
Ġter or
Ġgyd o
ĠPa aisk
Ġ13 0
Ġpsich ika
Ġtes ta
ĠId omi
Ġnesus ig
Ġforum ieciai
Ġkreip kis
Ġai A
Ġrem ont
Ġcentr ui
Ġatsidar o
12 3
Ġdurn iu
Ġzud yti
Ġatr ado
Ġpaslap tinga
Ġpasitik iu
Ġsand elio
Ġprinc ip
Ġtal entu
Ġslap ta
Tr ump
200 8
ĠGraz iai
Ġpaveiksl as
Ġpasil ikti
ii i
Ġkred itu
Ġperziur eti
Ġzied as
Ġsupras tu
Ġzuv ys
Ġkonserv atoriai
Ġteleviz ijos
Ġbijo ciau
Ġked ai
Lietuv a
juk las
Ġapd or
ĠMe y
Ġfunk ciju
Ġpyk tis
Ġbez iur
ĠIst orija
ĠKaun as
Ġdiskus ijos
Ġenerget iniu
Ġrestor ana
Ġparuos ti
Ġirank iu
Ġsuprati mas
Ġparei ga
Ġkomerc ine
Ġsunaik inti
Ġnuval kio
Ġipr otis
ĠVamp ire
Ġnuosird us
Merg ina
Ġdziau giasi
Ġissid irb
ĠVely ku
Ġhoroskop ais
Ġfotos es
Ġdesini arank
Ġneprisir uosiu
Ġillum inated
! ..
" -
. âĸª
5 9
O j
R eiks
S it
S ako
T AS
b i
m oter
n zn
p atiko
r eip
r ukus
w a
Ġk ose
Ġk iln
Ġs at
iu t
iu kais
Ġv engti
Ġd uociau
Ġb aro
es ius
at yti
ok t
et iniu
en tinis
ur t
ur ti
Ġr ofl
Ġl itai
Ġl ukes
Ġis ejus
it al
ra cija
ien d
ek ai
Ġat einu
uz m
ais ta
Ġnes ake
ĠN up
ĠN ight
Ġdar om
Ġuz trauk
Ġkur as
ĠS AM
ĠD S
eg inau
Ġas ara
ĠM iss
iaus es
ot s
ot ais
tr oliu
Ġdaug eja
Ġsk erd
ip p
Ġsus iform
uoj amu
Ġsv esti
un ks
Ġin esti
Ġgraz esnis
ĠR ain
Ġval yti
Ġsp e
Ġuzs trig
Ġmaz am
tos e
Ġkal ejima
Ġpagal vos
Ġnel ieka
Ġmen uo
Ġnen esi
Ġpras ymo
Ġpal ink
ĠF ak
Ġnauj ais
Ġpadar ius
Ġbuv ome
Ġpanas ias
Ġasmen iu
Ġmerg inom
ĠNes akau
bl ok
Ġint elektu
Ġneis iu
anc ijos
Ġuzd irbu
pas ir
tov i
Ġlauk iam
Ġtev yne
Ġmed ziai
Ġpriv il
Ġpriv alu
Ġpriv aciai
ĠW orld
of t
Ġgim es
Ġrink od
Ġsvar k
ru tu
Ġvykd antys
Ġklas ika
Ġisv eng
Ġmyl et
kit aip
Ġsok t
ĠNet ur
ali forn
Ġpaaisk ina
Ġgyvent ojams
Ġsam ones
Ġbuhalter iu
Ġpriem e
Ġfiz iniai
Ġfiz iniam
Ġbrang ios
IE MS
inink es
Ġparod ija
Ġru ba
Ġnegraz ios
Ġnatur aliu
Ġtrec d
Ġteks to
Ġram iau
Ġplat inti
Ġmokykl ose
ĠNep atiko
Ġnerv us
Ġnerv uoja
ark az
Ġlap ai
por tas
Ġlak sto
Ġsez onus
Ġmast ant
Ġkonkr eciau
okit es
Ġprim ityv
Ġtyr imo
Ġpaveik e
Ġatr ak
Ġsand orius
Ġop ti
ĠKl ien
Ġreng iuosi
Ġpasidal intu
Ġtures it
Ġtal en
Ġsukn eliu
vot ed
Ġisitik inti
Ġeksper tu
Ġsiur pu
Ġbla h
Ġbaud as
Ġoficial us
Kiek viena
Ġatg auti
Ġgamint ojai
plauk ia
OM G
Ġpartn erio
Ġalkoh olis
Ġideal iai
Ġzingsn ius
Ġsusidar e
Ġveget aru
Ġdizain ere
Ġpavad int
Ger iausias
Ġatsisak yt
Ġapar atu
Ġpalaik au
Ġpaskai ciav
fil es
ĠSm ilg
Ġnevis ai
xx x
Ġipras tai
Ġatsitik tinai
Ġatskait ymus
Ġatskait ymai
ĠPasku tine
Ġnesugeb ejo
Ġsanaud u
Ġgatves e
Ġnelaim iu
Ġrytoj aus
Ġpatink i
Ġskys ciu
Ġzan ras
ĠKn ight
Ġproced uros
Ġdziaugs mas
Ġplov imo
Ġpasidaz au
Ġpriestar auja
Ġpret end
Ġissimok eti
Ġsubjek tyv
Ġisis av
Ġepid em
Ġminist erijos
ĠZem eje
Ġsian akt
Ġapgail etina
Ġkonkrec ios
ĠGreit ai
Ġty cio
ĠLais ves
Ġsimpati ja
Ġpasirup inti
Ġnesidaz au
Ġdark man
ĠNot ebook
Atr odo
Ġnesiskir ia
Ġintu icija
ĠGum inukas
Ġdidzia ja
unsk iene
! *
" ;
= =
B ijau
D U
K I
N o
P ER
S o
c ijom
d eja
f ly
k ant
m ingas
p jaut
u ch
v eln
v eliau
Ġ uo
Ġp e
Ġt alis
Ġs ho
al iais
Ġm int
Ġv yktu
ti jos
Ġg ai
Ġg los
er tu
et ei
et iniai
en tine
Ġl ub
Ġl iej
Ġl enku
oj ote
on ines
Ġpas tum
Ġat var
kai tes
ĠT egu
Ġnes irg
ies ko
id ent
Ġkur su
Ġkur ejai
ĠS V
ĠS as
ĠS vies
ĠS kaitau
ĠS ukur
ĠD v
Ġpat enta
iaus ei
Ġreik iant
ĠV okie
bu k
Ġpar an
ĠL et
ĠL ol
eti mu
Ġkar b
uk ru
Ġsus imais
ez us
ym uose
Ġak d
Ġsp arn
ĠE i
Ġmaz ina
Ġprie j
Ġpak lus
Ġsal oje
Ġik al
Ġik and
ĠZ alia
Ġsi oki
Ġpam aniau
ĠGal iausiai
bet o
ib e
ut ter
ĠF obija
Ġpasir uose
ĠPr ival
Ġnetur eciau
Ġkuri oj
Ġbuv usiu
mu it
Ġteis iskai
Ġmin ia
Ġdirb ate
Ġneis sim
anc iom
Ġstr eso
Ġpers im
Ġlietuv iams
ats ak
Ġgam iniu
oz es
ĠW indows
ĠDar ko
Ġdeklar uoji
Ġsveik iau
Ġpra eitu
Ġisg erti
ki ti
Ġreal iu
Ġpateik t
Ġpavadin ime
Ġatsis pir
ado w
Ġpaklaus k
Ġklas ei
Ġod ont
yst em
Ġstat usas
Ġnaudoj amos
Ġvaizd elis
erv ina
Ġsup jaust
ator e
Ġtes iog
Ġvanden is
Ġkul no
Ġkep sn
Ġisim ti
Ġslyks t
Ġrekomend uociau
Ġantr adieni
Ġsaras e
Ġzai dziau
Ġnevalg yt
Ġpranes imo
Ġskl eisti
ĠAnt anas
jpg http
ĠGraz i
Ġup e
ĠFr an
Ġvisuomen eje
Ġneper ka
Ġlas iniai
Ġnereikal inga
Ġsupras tum
Ġbil ieta
Ġtechnolog ijas
Ġpenktadien io
Ġatsiliep imai
Ġobjek ta
ĠAb s
CI JA
Ġisor es
Ġbirz oje
zm ogus
Ġnebel ieka
Ġtat oo
Ġteritor ija
Ġsupl an
Ġlit ais
Ġnuosav ybe
ĠNegal i
Ġkrov iniu
Ġmedit acija
Ġpropag anda
Ġciviliz acijos
Ġskub iai
Ġmenk niek
Ġsekund e
Ġavar ija
Ġvas ko
..; }
Ġbras kes
ĠDia bolo
ĠChuc ko
Ġcip su
ĠCitr inute
Ġpato bul
, ..
6 2
: >
? ".
D ie
H e
L inksmas
M aciau
N ed
S L
T am
T ipo
T uri
V eliau
Y ou
] ]
d eg
e ag
k ep
n ia
s tai
v ed
z os
Ġp ist
Ġp eciai
is im
Ġs ome
in st
ie ja
ir z
ar ais
iu kui
Ġv aziavom
Ġv ulg
es ciau
ik al
Ġg ad
Ġg ym
at ar
.. "
or io
it s
on i
on em
Ġz h
Ġz ny
Ġz arn
om an
Ġman u
ien ce
ek imes
Ġtik ite
Ġtik ejimo
Ġat ejes
ta cija
ĠT O
ĠT or
Ġnes m
Ġnes ate
ĠN zn
ĠP iln
Ġkur e
ant ama
ĠK ub
ĠS ituacija
ĠD as
Ġpat virtina
tin ei
ol kas
Ġc ento
Ġger anor
pr od
ks liai
Ġgr ipa
Ġmok yti
Ġmok ejimu
ĠB le
ĠJ A
ĠL ig
Ġkas nors
ĠG B
ip au
Ġtikr oji
Ġtikr ove
Ġsv est
Ġnu eisiu
Ġdr amos
Ġin zin
Ġgraz in
Ġlai vo
ĠR ag
ĠR ofl
Ġ; ?
Ġkr ik
Ġdid esnius
yn iau
Ġpasak ymas
ang o
ang el
Ġdaz ysiu
Ġmokes ite
Ġpus ke
Ġmen u
Ġnegal im
Ġsit oje
Ġnen uk
Ġnaud ingos
Ġan apus
Ġsen eliai
ĠH mmm
Ġpasir enk
Ġpirk imai
ird o
Ġjuos ta
Ġ4 3
Ġnek okia
Ġnek elia
Ġnek encia
Ġati dav
Ġpil v
Ġit al
Ġlietuv ai
Ġmir usiu
Ġkomp u
Ġam az
Ġdeklar avimo
Ġgim iniu
Ġisvis o
Ġpatik ekit
Ġreal i
Ġpateik iau
Ġmel s
Ġgaun ate
Ġaug ina
Ġsul et
Ġisras as
Ġmal d
Ġkons truk
Ġmoksl ininkas
Ġprojek tai
Ġstat ul
ĠJo a
Ġzurn alus
Ġsiaub inga
Ġvaizd uotes
Ġpagalv okit
iar ies
Ġorganiz uoti
Ġsup irk
Ġdraud zia
trau kas
Ġtrec io
Ġkrauj u
ĠLT D
Ġkul niu
Ġlup daz
Ġnustat ytas
Ġkosm aru
Ġarb at
alg ir
Ġtaik omos
ĠVer ta
uog iu
Ġprik lij
Ġeil eje
Ġu ba
Ġgil intis
Ġpic u
Ġrag anos
IT E
Ġpastat ytas
Ġzai bas
Ġtikras is
Ġsistem u
Ġdantis te
ĠReik etu
Ġpur v
ĠPrad ziai
Ġuzdarb i
Ġsavait ei
Ġapmokestin amos
Ġreklam uoja
Ġvienod a
Ġuzsiim t
Ġsik art
Ġsik nos
ĠPl at
Ġpripaz ist
Ġteor ijos
Ġvisuomen ei
Ġpunk ta
Ġzvilgsn iu
tikr iausiai
Ġduk ter
Ġatliek ama
Ġapac ios
Ġkelios e
Ġnusiper ka
Ġfunk cion
Ġsutap o
Ġtarif a
ml n
Ver slo
Ġvag is
Ġargum entu
Ġneaisk us
Ġnegalv ojau
Ġstudij uoti
Ġlektuv u
Ġekr ano
Ġnust ojo
Ġgeb ejimas
Ġdirektor iui
Ġdanti mis
Ġpareig os
Ġatsikrat yt
EE EE
Ġsaip osi
Ġsmur to
Ġkonv encijos
Ġagent ura
Ġslams to
Ġgres ia
ĠNebu tinai
Ġnusivyl iau
Ġatspalv iu
kub ek
Ġdav iau
Ġbalans a
Ġdia g
Ġapsimok etu
Ġpubl ik
ĠAte ina
Ġtrupu tuka
ĠAle x
Ġtreciu ju
ĠNaus eda
Ġtrumpareg yste
Ġplay er
evi ciaus
Ġhol iv
Ġintens yv
Ġzny pl
5 8
E Z
K okios
R em
R ob
a ai
c iame
e ep
e ah
i oju
j s
n ot
p anas
s er
s ell
t okiu
z mo
Ġ !!
ai ks
an n
Ġne te
al ui
Ġm yz
Ġd as
Ġd inoz
es ime
Ġir odo
Ġg auja
ur ys
el usi
Ġl ektu
tu kais
Ġis tais
Ġsu valdyti
on ems
ei lo
Ġz odel
il y
ais ykite
ĠN ATO
id edu
Ġkur yba
Ġpa emus
ĠS in
ĠS ub
ĠS kait
ius k
aus k
ĠD a
Ġpat aik
Ġnor et
Ġas tu
ĠJ ames
Ġras ykite
tr y
Ġpar anormal
ĠL u
Ġkas kart
eti mas
Ġ: \
aud ina
Ġnet eks
ĠO s
Ġpl as
Ġzmon ai
ov ak
Ġnus iras
Ġdel spinig
Ġsak ytu
Ġgraz inimo
ĠR C
Ġsp ejau
Ġbus iness
Ġnem yli
st er
Ġpard uota
ĠC lub
Ġpak eicia
Ġmet o
ag a
ec iais
isk io
Ġklaus yti
Ġnel ogiska
Ġsi oj
Ġsi and
Ġnegal ite
Ġpries ai
Ġkam pa
eit ai
Ġsen atv
Ġst engi
Ġpirk ejams
Ġlab dar
Ġnesu tinku
ĠVis ko
Ġbr ik
Ġbal to
op os
Ġor anzine
ĠNes veik
Ġdirb tu
Ġdirb antiems
Ġnuom ot
Ġw ant
ĠPas idal
ver slo
Ġnek okyb
Ġva je
Ġpil ka
ch a
Ġpor as
Ġneg ana
Ġse ime
Ġlik siu
Ġtarp a
ĠGer b
Ġapl ik
inks i
Ġbij ojo
Ġsn iega
ĠGr aik
Ġreal izuoti
Ġsil t
lai ko
Ġsvies iu
Ġatsis iust
Ġpasid ziaug
Ġgrei ti
Ġistat inis
aliu kai
pu te
ĠKa tik
Ġfiz ikos
Ġdain uoti
Ġbrang esni
Ġspecial iste
Ġsudar oma
Ġgyd yti
Ġplat form
Ġiesk ojo
Ġtes tas
Ġtes tus
Ġteik iama
ĠNem oku
ĠLT L
ĠKur i
AV O
Ġlup a
An tras
Ġskelb ti
Ġnesus idur
Ġmu ita
Ġkor onavir
Ġsteig ima
Ġlank yti
Ġisivaizd uoji
Ġob jektu
Ġiz valg
ĠVer kiau
Ġtyr imas
Ġprik olas
Ġsrit yse
sh ine
Ġatid irb
ĠNer ealus
Ġblond in
At siprasau
Ġdie tu
Ġvarg as
Ġvart oja
Ġjurid ini
Ġgalu tinai
Ġpaskait yk
Ġsusirg ti
Ġslep ti
Ġtrag iska
Ġneteis inga
Ġep iz
Ġpoziur io
Ġpasidom et
Ġuzpak alio
Ġduo be
Ġpens ijos
Ġnej ud
Ġgink las
Ġport alas
Ġapsilank yt
Ġries o
iuk ams
Ġmakia za
Ġbjau ru
Ġins tink
Ġpapl ud
ĠPers kaiciau
Ġkomis ija
ĠSiul yciau
Ġispu dzio
ĠSw an
Ġpaju tau
Ġgail etis
Ġnuveik ti
198 6
Ġiteis inti
Ġpakom entuoti
ĠKons titu
Ġbrol iui
Ġpails eti
Ġplatfor mos
Ġisimin tin
Ġsimb olis
Ġposak is
Ġpasizym i
Ġuzsinor ejau
Ġvam zd
Ġanek d
Ġads ense
; /
= '
D ragon
E B
P aj
R ezis
S iuzetas
T okie
T eko
U N
g en
j ove
l ad
s ed
t oms
x D
Ġ eig
Ġp en
Ġp onas
Ġt ym
Ġt itanika
Ġn ice
Ġs ec
ar ys
Ġm ake
Ġd uod
Ġg as
am ok
el ydi
Ġr a
Ġl ep
Ġpr imok
or iai
Ġis te
az i
it ter
ab i
ij on
Ġbu tus
Ġat ei
ĠT yl
Ġnes aug
ĠN ezin
Ġuz imti
ĠP ot
ĠS ug
ĠD ay
ĠM ad
ĠM ur
ĠM eks
ĠM atai
Ġc he
Ġper eina
Ġgr ot
Ġgr ob
Ġgr uodi
Ġgr iov
Ġmok ejima
ĠB ang
ĠB urg
ĠJ ega
ing am
Ġras ciau
Ġpar aA
ĠL ast
ĠG ana
ĠG ood
Ġkar ves
aud yt
Ġnet aupau
uk me
iz uoja
Ġpl inta
yb inis
Ġka j
Ġsv eriu
Ġdr ek
Ġpad edu
ĠR os
Ġes ama
Ġdabar tines
ĠE h
up a
st ant
ĠC V
Ġsal cio
Ġkal nai
Ġmat ysi
enk t
ĠZ urn
Ġskai dr
yd r
Ġtar pas
uot oja
Ġpras il
ĠU g
Ġgau tum
Ġh el
Ġidom esnio
Ġsen is
Ġnetur eti
Ġnetur esiu
Ġplau n
Ġdv id
Ġasmen inio
Ġtam pi
bl og
ĠIs kart
Ġw o
Ġbud avau
Ġmas tai
Ġbendr iju
Ġlaik ina
Ġmokyk lu
idual ia
Ġsutar timi
Ġlik usius
Ġuzd raud
Ġjuok auju
Ġparduotuv ei
Ġtarp ininkas
Ġmed u
vir ks
Ġdu ju
Ġdu okit
Ġsur ast
Ġsukur iau
Ġpeln inga
Ġlais ko
Ġeur ais
ins im
Ġban alu
Ġrod oma
Ġnesi oji
ĠNiek am
Ġfilmu ka
Ġskaiciu ojant
Ġstipr ios
Ġprak ait
Ġrud ai
Ġbaig tis
Ġzino tu
Ġvadov auti
Ġav al
Ġvisok iausiu
Ġzurn alu
arg e
Ġkab inej
Ġuzsak ymas
Ġiesko tis
Ġuzsid et
ĠNep amirs
ĠKur is
Ġfin ala
eliau ti
Ġlap e
Ġkonkur sas
Ġskelb iu
Ġdes ines
Ġkreip iasi
Ġnedar b
Ġperk ama
Ġkor eg
Ġmast yt
damas is
Ġnuostab iu
Ġlink me
Ġsaus ainiu
Ġdalyv iu
Ġbank us
Ġpatvirtin imo
Ġissig elb
Ġissig alv
Ġprofes iju
Ġtep u
Ġkonsult antu
Ġapsim et
Ġvaikinu kas
Ġslap taz
Ġez ere
itor ius
ĠMat osi
Ġapmokestin amuju
Ġled us
ĠPl an
ĠSe ima
ĠPris imenu
Ġnesp ejau
Ġknygu te
Ġciu pakab
Ġspaud a
Ġkis ene
Ġbliz ga
Ġzied u
Ġkank ina
Ġsmul kiai
ĠNauj ieji
Ġsiuz eto
Ġmegz tinis
Ġatliek u
Ġpokalb io
Ġviln iuje
Ġglob os
Ġilgalaik i
Ġisgird o
Ġher ojus
Ġuzsiregistr uoti
Ġaptarn avimas
Ġbankr oto
ĠMokes ciu
Ġdanti m
Ġnukreip ti
Ġlauz o
Ġmarskin eliu
Ġkonf idencial
Ġissiim t
Ġzurnalis tai
ĠUzd arb
Ġsiunciu os
Ġsiunciu osi
ĠPaj amos
Ġsch ema
Ind ividual
Ġsol id
iper ku
Ġpasiskaiciu oti
Ġgrub iai
Ġneapyk anta
Ġkatastrof a
ĠGabr ie
akr auj
SR S
Ġsurezis uota
Ġpyra ga
Ġpasekm iu
Ġparam et
Ġ##### #
Ġnema cius
Ġslyp i
Ġprivil eg
ĠFran Ce
, "
. ]
5 4
6 3
7 9
A us
B log
E n
H L
M o
O TI
P an
P anas
P aziur
S iek
f um
n egu
n egaliu
s I
s kir
s iaub
t gal
z ias
Ġ ........
Ġp ez
Ġn av
Ġs one
in auj
ie la
Ġne to
Ġne iesk
Ġv yg
Ġv edama
ik lio
at iniu
ad ai
Ġr ight
Ġl yti
Ġpr ist
Ġpr idar
tu k
ak y
ej ama
Ġz valg
eik as
Ġpas in
io fobija
od u
ĠN ez
id ejo
em iai
ĠP O
Ġap eti
Ġap kr
ĠS kaiciu
og l
ĠD usk
tin iams
Ġtur ejom
Ġc eliu
ed ziai
Ġger am
Ġ( ;
Ġgr av
Ġmok iniai
and as
ĠV algau
ĠL ap
gal voti
etu i
ĠG ed
gu ns
Ġnet ap
Ġpl eisk
yb em
ink iu
Ġtr il
ac ijai
Ġgyv una
Ġkiek ius
Ġtu p
ym iai
Ġpad ejau
Ġsav us
ĠR ez
Ġkel n
Ġner anda
Ġprad eciau
Ġties ia
up o
amas is
Ġpak il
Ġkal tes
Ġpagal b
ui tu
Ġdarb ais
Ġvar le
Ġmen ulis
Ġnegal ime
Ġkon tra
Ġpris iv
kur ia
Ġpras ti
Ġh is
Ġpal aipsn
ĠH ow
Ġpirk eja
Ġbal i
Ġfor mal
Ġparas ys
idar iau
val st
Ġpaziur esim
Ġpardav us
Ġmas k
Ġpor tal
Ġvakar ui
Ġbev er
Ġsumok esi
ĠY our
Ġzem as
Ġsukur tu
ins it
Ġrekl amas
Ġvard an
Ġbat elius
Ġfilm ais
etum et
Ġpatir tas
Ġpasik eiti
iziur i
Ġaug inu
Ġisv aziavo
Ġpagrind a
Ġsuzin os
Ġpapild u
Ġbaig ti
Ġprojek tui
Ġjaun imui
Ġtrump iau
Ġorgan u
Ġskr iau
Ġskr uos
abuz iai
Ġmuz ikai
Ġses eliu
Ġsup apras
ĠDr usk
Ġbel eka
Ġfain iai
ĠId eja
Ġgriz us
Ġgrup iu
azia ves
Ġisd yg
Ġdovan ot
Ġpral eidziu
Ġjud esiu
Ġlank osi
Ġth ink
Ġkak las
Ġlink iu
Ġaisk int
Ġapg av
Ġatlyg is
Ġpastat o
Ġneziur i
Ġrasyt ojas
Ġvampyr e
Ġmalon umo
Ġkie ti
Ġreng iniu
Ġpranes a
Ġsistem as
Ġ25 00
ĠMaz iau
Ġuzdarb ieciai
Ġangl iska
Ġpsicholog inis
Ġatm inti
Ġsusitik t
Ġvaz ineti
Ġneiss ip
Ġpartn eris
Ġnesp ejo
Be ar
rr rr
Gr iz
Ġpopuliar u
Ġneber odo
Ġsuz av
Pa tik
Ġliek nos
Tur ejau
Ġsutr ump
Ġmegz tini
Ġked us
Ġnej aukiai
ĠPaziur ek
Ġapib endr
Ġnepamirs k
Ġnegalv oju
Ġskil ti
Ġnemieg ojau
Ġpatalp ose
Ġekr ana
Ġge ograf
Ġsamon ingai
Ġtot al
ĠLatv ija
graz us
noz es
ĠPap asak
Ġgro ziu
Ġmaxim oj
Ġvan il
Saul elydis
Ġspek tak
Ġparaisk os
Ġkrap stu
Ġnukop ij
Ġgailiu osi
. '
7 8
8 2
; &
; }
? ,
A G
H aris
J ums
M egstu
P s
T ams
Y y
^ ^
b s
k okios
n esi
s ud
v asara
Ġt oji
Ġk yl
Ġn ow
Ġs he
Ġs irdziai
ir tu
an aus
al voti
Ġm isk
Ġm aj
Ġd ejau
ik am
Ġir a
Ġr ie
Ġr oju
Ġr ojus
Ġpr apl
or asti
Ġis min
av ime
ak iau
oj antys
ei ciu
Ġz avus
ap rio
ĠT A
ĠT ok
ĠT ame
aug s
Ġnes iul
ĠN ik
ĠN ob
Ġuz hip
ĠK arb
ĠK eistas
ĠS ok
ĠS ald
ĠS ekm
Ġo ver
ĠD alyv
ĠD eive
abai g
eg as
eg alu
Ġc l
ed avom
ĠI v
ĠV eid
ot t
ĠL os
ĠL aim
eis e
eis tos
ĠG el
ĠG eda
Ġkar u
Ġkar ve
Ġpl onas
Ġsus kai
Ġsus toj
tik iuosi
Ġsv yr
Ġzin anciu
Ġgraz esnes
ĠR u
Ġuzs ikab
Ġiss aus
Ġprie inama
Ġpak vies
Ġziur es
ank i
ines is
Ġdid esn
Ġdid vyr
Ġsal ona
Ġik elti
Ġkon tur
kur io
aul is
Ġan o
ĠPr iv
Ġplau ka
vis ada
Ġteis me
Ġteis ingi
Ġal yv
Ġ4 9
Ġmie gi
Ġw is
ĠPas idom
Ġpardav imui
tur e
Ġsud ejus
Ġlik es
ars is
Ġtev a
Ġpaslaug oms
Ġvakar iene
ĠW ild
Ġapl anko
Ġistor ikai
Ġies kos
Ġnur ode
Ġpatik ima
Ġpatik davo
Ġnum eciau
ĠGr eiciausiai
Ġban kui
Ġlig as
Ġpavadin imai
Ġisp an
Ġvaid inti
Ġpasidar ysiu
Ġtink amo
Ġpasik art
Ġsul auz
yven o
Ġisras yt
Ġsuzin osi
Ġx p
Ġpapild omi
Ġprojek t
Ġzino ciau
Ġneats ako
Ġantra ja
Ġbrang iu
Ġlinks mi
Ġskaud ziai
Ġzal iai
Ġbel iko
Ġprid er
Ġkelias desimt
Ġlog istikos
Ġpasit enk
Ġtobu li
Ġpasiras e
Ġpasiras o
Ġsub ine
ĠX X
iet eje
Ġnebe buvo
Ġisivaizd uoja
Ġplius a
uog es
Ġdalyv iai
Ġug g
Ġefek to
Ġsuteik ta
Ġsuteik tas
Ġneziur eciau
Ġism eg
Ġneras o
eigi ama
Ġbo but
Ġgen ai
ĠPrad zia
Ġsiur pas
Ġisskir tine
Ġsocial iniu
Nor int
Ġvienod os
Ġled as
Ġting inys
Ġsuprant at
niek ada
Ġnupirk t
mat yt
Ġpunk to
Ġpram og
Ġinter j
Ġpasidom ek
erk el
Ġnesim at
Ġissit ep
xx f
Ġatsipras ant
Ġpabeg ti
Ġpasibaig s
Ġsukuos enos
Ġneati dar
Ġapsireng us
Ġpana A
Ġklub e
Ġdang us
Ġsiaur ej
Ġkonsulta cija
Ġnedirb i
pren dziu
Ġirank ius
Ġstrazd an
Ġdziaugs ma
Ġpraejus ius
ĠPuik iai
Ġtual eta
Ġreak cijos
Ġlicenz ijos
Ġspalv omis
Ġissilav inimo
Ġnebegal i
ĠPanas iai
Ġkaciu kas
Ġperoks id
Ġalternatyv a
ĠIz ra
Ġnepasik eis
ĠBlo od
Ġmyg tuka
ĠAtsak ymas
Ġpadev etu
Ġnuper ka
Ġriesu tu
Ġdul kes
aju dzio
Ġtrol ei
ĠNorris as
Ġsavaim inio
Ġepil iatoriu
Ġvaivor yks
E ina
M y
N aud
N etikiu
O h
S avo
S te
b A
c ijoms
s iai
s askai
Ġt yngiu
Ġk anc
Ġs arkaz
in iesi
ir kai
Ġb iograf
er pa
im k
Ġr ate
Ġpr ai
Ġis j
Ġsu eina
az inti
it ler
oj oj
on ia
on yte
Ġz iu
ap st
Ġi f
Ġtik ejo
Ġnes ti
Ġnes kl
Ġnes ekmes
Ġdar em
em ta
ĠK ate
ĠS an
Ġo h
Ġo gi
Ġo oo
ĠD okum
Ġf ob
Ġtur ejus
ol ius
Ġc emp
Ġc ukru
Ġger imus
ig ans
Ġgr uz
Ġgr eta
ciu kas
and in
tr um
Ġpar v
ĠL iep
Ġkas tai
Ġkok iame
Ġ: (
Ġkar tai
int er
Ġkl ipas
ip se
Ġpl onu
Ġpl onos
Ġsus tor
Ġnep aziur
Ġnu imti
Ġant ru
Ġdel no
Ġsav ig
Ġsav ininkui
ĠR EIK
Ġval ymas
Ġties inimo
Ġdabar tinis
Ġmaz ais
Ġiss iver
Ġiss augoti
up u
Ġnem aniau
st ama
yr es
ĠC om
Ġpak enkti
var ka
Ġpaz ista
Ġaps vies
Ġaps vaig
tos ios
isk art
Ġmokes tini
Ġbl aiv
Ġtau tai
ĠGal eciau
Ġvai ro
Ġnen urod
ekl amos
Ġh ow
Ġsen iausiai
Ġisl eido
Ġpal ei
Ġpal ang
Ġpasir enka
Ġpaj us
Ġdazn okai
Ġais tra
Ġteis iniu
Ġasmen imis
Ġal ku
Ġdirb damas
Ġparas ytu
Ġneis tik
Ġned a
Ġned ras
Ġati dziai
Ġlyg ia
Ġilg iausiai
Ġstr iu
ch as
Ġsapn uose
Ġit emp
Ġtoki oj
Ġneg aunu
Ġsek ancia
Ġse imu
lo ok
Ġmed ikai
Ġvalg e
tim ui
Ġsumok es
if y
Ġzem ej
Ġsukur es
Ġvirs une
Ġpag el
Ġveid ui
Ġeur a
ail go
Ġpatik et
lap tis
Ġrod ytu
Ġsug adinti
Ġpateik iama
Ġran ksl
Ġregistr uot
Ġnar i
Ġproduk tais
Ġmieg ojo
Ġgalim i
Ġgrei cio
Ġskaiciu os
Ġauks ti
Ġisv yst
ĠUz sis
Ġskan iau
Ġskan iausias
ps ciai
ĠNet work
Ġisk il
Ġprit ruko
aliu ko
ied u
Ġkeli oms
Ġskiep as
Ġnemaz as
Ġpuslap iuose
raz y
Ġskr andi
Ġparod yk
Ġsird yje
Ġapmok a
Ġnatur alia
Ġelektr okineze
ĠNep as
ĠLT V
asak yciau
Ġbern iuka
Ġirod yta
azia ve
Ġkor ek
Ġnuostab iai
Ġgyvun ais
Ġdurn i
Ġet atu
Ġisivaizd uok
Ġoper aciju
Ġdalyv auja
tel iais
Ġbank ro
Ġsuteik e
Ġveln iai
Ġmalon uma
Ġon ly
Ġkiau ra
Ġserg am
Ġartim ieji
Tr ukme
ĠInd ijos
Ġsocial ines
Ġisband ziau
Ġtul pos
ĠAmer ikoj
Ġsoliariu mo
ĠVal entino
Ġkonc entr
Ġrand asi
Ġpartn eriai
Ġzingsn iu
ĠDe im
Ġpraded am
ĠPam at
Ġtvir ta
iskaiciu oja
Ġuzsisak iau
Ġgaranti ju
Ġterm inai
Ġbar zda
Ġziem ai
Ġhe ad
ĠAb yto
Ġnepag ail
Ġso und
Ġpokalb i
Ġviln iaus
Ġbegal es
Ġglob ejas
Ġargum ent
Pav yzdziui
Ġnusisnek u
Ġspind ul
ĠSal ly
Ġistik ruju
Ġmaitin imo
Ġmod ifik
Ġpavalg yti
Ġrecep ta
Ġavat aras
Ġissipild ytu
Ġnetink amas
Ġspar ciai
Ġprisipaz ino
Ġintelek tas
Ġbalk ona
Ġfoti ka
Ġiman omas
Ġapsid ziaug
Ġkunig as
ĠSOD RA
ĠPrek iu
Ġtrail eri
Ġpiev as
Ġimunit etas
Ġpareisk e
ĠKons erv
Ġtiesintuv a
ĠED S
Sim ps
Ġpriez astys
Ġpagim de
ĠVyriaus ybe
Darb o
Ġhob is
Ġneatsi tiko
Ġpasivaikscio ti
Ġkondicion ieriu
Ġatp alaid
Ġjaut esi
Ġnesidar yciau
Ġerdv eje
Ġlektu vo
2 000
B B
B ay
B ER
G era
J U
M mm
S askai
U zd
V ar
b ar
b ier
c iami
k au
k alb
p art
s ald
t elius
| |
Ġ _
Ġ ukr
Ġp ukuse
Ġt ekti
Ġk ums
Ġne men
al au
Ġm ul
Ġm ulti
Ġd var
Ġd uso
Ġb i
es es
ik ta
Ġg et
Ġg az
er z
er us
er pu
en ko
Ġr ati
Ġr ytu
or p
Ġsu tuok
on uose
on iskas
Ġpas en
Ġpas vaj
Ġi gr
Ġat eitu
ĠT NT
ĠT itanikas
ies iu
Ġdar omas
Ġap tem
ĠK albant
ĠS ul
ĠS ara
Ġpat ap
tin et
Ġtok iame
ĠM ast
ol u
Ġjau ciausi
yt ei
yt hing
pr ez
ciu te
ĠB M
ĠJ uoda
ing umu
ĠV ers
ĠV anden
Ġats iskai
Ġats kr
yk iu
Ġkar am
aip o
Ġsus ting
Ġnep amaciau
ez Yy
Ġant sv
Ġzin osi
Ġak ta
Ġes antys
Ġsp rag
Ġprad eta
Ġkr es
Ġkr at
Ġe inama
Ġpak ent
Ġpak elt
Ġgyven ciau
Ġaps in
oma tiz
Ġmat ysis
iniu ka
Ġpus fin
Ġtar tis
Ġkon teks
Ġkon vert
Ġsit iek
Ġsit ame
Ġst ala
ut eje
ĠPr inc
nes varbu
nes upr
Ġdaly kui
arb iai
Ġteis ybes
but ent
adin si
Ġal k
Ġnuom otis
Ġparas es
met es
Ġw ord
Ġnepr iestar
Ġtol o
Ġband ys
Ġna fik
man ai
ting os
Ġsuk t
Ġsud r
amp as
amp os
Ġpask os
Ġpasaul inio
Ġjuok iausi
Ġnenor es
Ġtev ui
Ġei ga
Ġkalb asi
Ġpirm ojo
Ġkomp e
ĠW oo
Ġvirs ta
aup u
Ġlais kai
Ġsn arg
Ġsug ener
Ġgaun ama
Ġpamat yciau
Ġtink amu
Ġvykd antis
Ġbeg au
Ġfilmu ku
Ġzenk l
Ġismok u
Ġisras yta
Ġkvep uoti
Ġprogr amas
Ġvadov auja
Ġreg uliu
Ġrus ys
Ġlt l
Ġsiaub ia
ĠPer ku
Ġraud onus
Ġpuses ere
Ġmenes iniu
Ġses eliai
Ġuzp uole
US T
Ġatidar yta
Ġnup iesti
ator iams
ĠBr ius
Ġsusidur t
Ġkoment uoti
Ġdeg rad
Ġskelb imai
Ġsij onais
Ġseim yn
Ġnusis pjaut
Ġkonkr etus
vel gi
Ġlaid as
Ġvidu j
Ġisivaizd uot
Ġdidz iausi
Ġdidz iosios
ĠVer slas
Ġde voted
ĠPav asaris
Ġsaus a
ĠDz e
Ġug n
Ġrad ai
Ġelg esio
Ġinternet inio
Ġnevalg yti
Ġmai kutes
Ġder inys
Ġform atu
Ġpasirod yt
ĠFil mo
ĠPar anormal
Ġdez es
Ġdez odor
Ġauskar a
Ġpoz ityv
Ġlang ai
Ġprisim int
Ġprisim ena
Ġpaies kot
Ġateiv iais
Ġantras is
Ġkeliau t
Ġslep ia
Ġgerb iu
Ġdarbdav iu
ĠKin ijoje
Ġpram ogu
In ter
Ġzied ai
Ġatsiskait ymo
Ġketvir tadieni
ĠSm ith
Ġtinklap io
Ġitik inti
Ġsampun ai
Ġkalbet is
Ġpameg inti
ĠTo bu
Ġnusteb au
ĠDie va
Ġsruog om
Ġbrek etai
Ġkars cio
Ġskambu cio
Pat ar
Ġstrazd anos
Ġnaik ina
Ġissisk yre
elk ti
ĠTev as
ĠDom ina
Ġkalend oriu
Ġsust oja
Ġmarskin eliai
Ġagent uros
Ġsriu bos
Ġneben oriu
ĠEg le
Ġspuog ai
Ġnepirk au
ĠNeis ivaizduoju
ĠPrezid entas
Ġneatsis akau
Aps kritai
Ġsof os
Ġkritik os
Ġprov ok
Ġnufot ograf
ĠPil na
Ġpraver stu
Ġuzkliu vo
Ġpermok a
osp arn
Ġdant ies
Ġpaneig ti
Ġpsichiat r
Ġsmals umo
Ġbic as
knis a
Re quiem
Ġprop og
ĠMey er
ezYy Y
! ?
7 1
B ern
C H
D B
F F
J uod
b ijau
d ytu
j oo
k em
m ingai
w ood
ai u
as s
is es
in ojau
in uke
ie ciais
ar iai
iu x
Ġne ima
Ġne ilgai
Ġm c
Ġm iau
ti ja
Ġb a
us n
Ġg ariu
et ines
ur us
.. -
el siu
Ġsu ka
Ġsu ves
av en
ak us
on centr
ei A
ij ama
ij onas
ien t
Ġnes apnuoju
Ġar om
em ti
ĠP ora
Ġpa gul
ĠK L
ĠK ep
ĠA ur
ĠS ims
ĠS ong
ĠS ajungos
ĠD iena
Ġf ac
tin em
tin emis
Ġc re
Ġc inam
ed is
ed ziau
Ġger iausius
pr ogram
ig iai
Ġnuo p
Ġgr oti
ĠB ob
and ras
Ġreik edavo
ĠV in
ĠV IR
ĠV engr
bu ciu
ĠL GB
Ġvien iems
Ġvien eto
Ġdaug ybes
ĠO land
Ġpl ati
ink i
Ġsv ars
Ġpir menybe
Ġgyv uliu
ev is
Ġsav os
ĠR im
ĠR eal
Ġid ek
Ġid ieg
Ġkel iuosi
Ġner vai
Ġner ekomend
ĠE z
Ġuzs ig
Ġiss ius
Ġiss iusti
men ys
Ġkr is
Ġpard uos
ĠC entr
Ġpak art
ank e
Ġsal otos
Ġdarb ams
Ġpasak ysi
Ġmokes tine
Ġkom pr
Ġmen iu
mok es
Ġsit ai
Ġvie tom
Ġnezin ant
eit ais
ame ciu
Ġisl eidzia
Ġst adi
ĠF ruite
Ġpasir eisk
vis u
Ġbuv usios
Ġbal tais
nes amone
op y
ind i
Ġatsak ysiu
Ġnek antr
Ġsl enka
Ġpasl epti
pl o
Ġpardav ineji
ĠNe buvo
ci at
ĠGer iausiai
uol ius
ĠW ow
Ġsumok etas
Ġmus e
Ġtiksl ams
ĠY outube
Ġdeklar aciju
Ġpag arbos
Ġskait yk
Ġnesupr asi
Ġplauk ia
Ġsug edo
ĠAt v
Ġpasidar ai
Ġiv yksta
Ġpasid id
Ġistat ymais
Ġmil teliu
Ġklas ese
ĠUz tat
Ġvid urn
kit as
Ġpagrind o
Ġrud as
Ġuzdar yt
Ġnurod ytos
Ġtrump esni
Ġreg a
Ġav inas
Ġneats p
Ġneats iras
Ġnaudoj at
Ġfiz ine
Ġfiz ika
Ġdain uot
Ġskr enda
Ġskr andzio
Ġautomobil iai
Ġjur u
Ġsudar e
Ġkav amanija
ĠNep amenu
Ġkonkur uoti
Ġforum uose
Ġkreip kites
Ġperk ate
Ġnuostab ios
Ġsteig ejas
Ġlink es
ĠVer yga
Ġapg auti
Ġnenus im
Ġniekad os
Ġvertin ciau
isu ka
aliz acija
Ġligon inese
Ġuzsis p
---------------- --------
Ġnesk anus
ĠNus ivylusios
Uz s
Ġnuobod okas
ĠMaz osios
Ġartim uosius
Ġskl inda
Ġpraeit ies
Ġsoliariu mus
Ġnot aro
Ġpaskait au
iel d
ĠDid zi
ĠBl emba
Ġsport uoju
Ġalkoh oli
ĠFr anc
Ġgales it
Ġpaskir tis
ĠDraug as
Ġissil aiko
Ġekonom ikos
Ġmar za
Daug uma
Ġorigin al
paud e
ĠAk ys
ĠDe ad
ĠPam irs
Ġcek iu
Ġsiunti ma
Ġbas utes
ĠMe ezYyY
Ġkokyb iska
Ġpaved imo
Jo hn
Ġhip noze
Ġanti ku
par eig
ĠSte p
Ġnebet uri
Nem egstu
Ġperson alo
Ġpuod eli
Ġpasi pries
Ġtemper aturos
Ġinvestuot oju
Ġkonsulta ciju
Ġsukr ec
Ġrecep tu
ĠKn yga
Ġserver iu
Ġpatiek alu
Ġplet ra
Ġaprib ojimu
Ġsauks tai
Ġuzdr aus
Ġkebab u
Ġchem ik
Ġatsiz velg
Ġcit ata
ĠNeblog ai
Ġkontein eriu
ĠUzs ien
ĠRem ember
Ġkarj eros
Nesu prantu
Ġsavanor iskai
Ġuzmokes tis
Ġrupes ciu
ĠAB C
Ġsaz ines
Ġneab ejoju
Ġlaido tuves
islaid u
Ġmol ek
Ġvist iena
Ġpasikar tosiu
Ġkvies tis
Ġatsibund u
Ġiskir p
prog d
Ġtyci ojasi
Ġbespalv iu
Ġkiaur ai
Ġmoks la
ĠBurg ess
Ġpalaipsn iui
" ),
/ -
3 000
A uks
E V
F acebook
G yventi
J u
K alb
M en
M on
N uostab
P us
P ol
P enk
P inig
S U
S kai
S uper
V amp
V IS
Z alioji
a ha
d urn
f g
i ana
i ancia
k or
l ete
p uik
r ieb
y oss
Ġ ingr
Ġp iena
Ġk d
Ġs ach
ir u
iu vo
Ġm amu
Ġb aba
os as
us tas
us te
er ina
ur io
iau j
Ġr ai
Ġr omeo
Ġl o
Ġis iu
Ġis dziu
Ġis ijau
av iau
av usiu
Ġpas iaisk
Ġpas port
Ġtik ejimas
Ġnes magu
ĠN ic
ĠN uolat
em imo
em atika
ĠP izza
Ġpa au
ĠK uc
ĠA maz
ĠS aus
ĠS orry
ys o
Ġjau ciau
pr ing
ciu op
ĠI f
ĠV EL
ot k
Ġras ei
Ġ1 10
Ġpar ink
ĠL ukas
eti mo
yk las
Ġsk al
ĠG inc
ina cijos
Ġkl ai
Ġpl yt
Ġpl ec
tik tu
un ta
sl ap
Ġpad ed
ĠR ic
ĠR ec
Ġpav eikia
Ġes antis
Ġes ancia
Ġner ys
Ġbus it
Ġbutu me
Ġuzs ako
Ġmaz esniu
Ġiss aug
Ġiss ikr
Ġkr os
le c
Ġatrod ziau
Ġpap uola
Ġjo a
Ġpagal ve
Ġmat om
Ġmat omas
Ġpasak es
enk iau
Ġnel auk
Ġdaz ausi
yd yti
Ġnegal ia
Ġpris ipirk
Ġpris iregistr
eks per
Ġatv es
ĠH u
Ġpaj au
yl ika
ĠVis ad
Ġteis ines
Ġteis mu
op a
Ġpanas iais
antis kas
Ġvaik eli
met a
ĠIs mok
Ġsm th
Ġpardav ineju
man oma
Ġ20 21
Ġbendr os
Ġit ariu
Ġlietuv iskos
Ġsud ejimo
Ġmir usiuju
Ġse e
As meniskai
lo ud
Ġgam toje
Ġvakar eli
ub e
Ġnum est
ĠGr eiciau
Ġban al
Ġban anu
Ġlig omis
Ġmies tus
Ġsvies u
Ġbeg o
Ġbeg ioti
Ġaug alu
Ġsul auks
Ġisras au
Ġpagrind ini
Ġpig iausia
Ġ0 5
Ġneuz teks
Ġrek ti
Ġkun e
Ġpaaisk inimas
.: >
Ġaus yse
Ġmenes iais
Ġvaziu os
ĠTr ecia
Ġist emp
Ġnag o
Ġpsich ikos
Ġimon emis
Ġtrec ios
ĠSi an
ĠSk amb
Ġiesk ant
Ġpenk ta
eidz iamas
und s
Ġisd irb
Ġsusig alv
Ġparduod ami
Ġkor onos
Ġmast yma
enc iju
ĠX XX
Ġminim ali
ĠMok ytoja
Ġlaid u
Ġet ap
ĠAts ik
Ġnepav adinciau
Ġdalyv avau
pat ar
vaig zd
Ġrad es
Ġtv oros
Ġmedzia g
Ġzai dziu
Ġop timis
Ġissig im
Ġreng inys
Ġisitik inusi
Ġkontr ak
Ġuzdarb ieciu
Ġnuorod as
Tr ecia
Ġapmokestin ti
Ġoficial u
Ġgab al
ĠPar od
inkit es
plauk es
Ġkamuol ius
Ġiskr enta
ĠSe ime
Ġkred itus
ciav imo
Ġpavad ina
Ġaktu ali
ĠHar io
Ġleidz iamus
Ġex c
Net uriu
ĠAd olfina
Ġfig ur
Ġaud ra
Ġzied us
erk ti
Ġzuv ele
Ġvitam inai
Ġturetum ete
Ġstar tup
Ġterm ina
Ġnej augi
Ġakmen s
Ġsusipaz ino
Ġistrauk ei
Ġkokyb iskai
Ġvairuot oju
Ġskraid yti
Ġpoliti ku
Ġjeg as
Ġiseit ies
ĠIl gai
ĠPard uotuv
Ġsirg au
ĠVai kai
Ġzan ra
Ġlit tle
ĠJuok inga
Ġturgu j
ĠLatv ijoje
Ġatsipalaid uoti
Ġinform uoti
Ġparem ta
Ġdelf is
Ġvys tosi
Ġnutar iau
Ġpadirb eti
Ġvizu aliai
Ġatsiz velgiant
Ġvaliu tos
Ġpirmu ju
ĠNorveg ijoje
Ġstebuk las
Ġnekom pleksuoju
Ġnusir am
Ġskyriu je
ĠPatar imas
Ġfan ati
Ġpasijuok t
ĠRud uo
Ġsandor io
Ġnepapras tai
ĠLen inas
Ġivaizd i
Ġivaizd is
99999999 99999999
Viln iaus
Ġsubr end
ĠNenor eciau
Ġkomentar uose
Ġlekst es
ĠKris tina
Tikr iausiai
ĠSiaur es
Ġtycio tis
1 50
A j
E A
K or
K okiu
O U
R AS
R adau
T IK
c s
c ebo
d ir
d amos
d onald
e inant
h an
l p
l inksmas
m onai
m egstu
r am
r ais
r ink
t eja
t okios
w h
Ġ !!!!
Ġp ip
Ġp yks
Ġp inc
Ġp yksta
Ġk es
Ġk ogero
Ġs toti
in imosi
ir m
ar yti
Ġne ypat
Ġm yk
Ġv ol
Ġv eng
Ġd avai
at ta
er vai
et iskai
el pa
Ġr ung
Ġl ito
Ġl anko
tu al
tu mu
Ġis kaiciu
Ġis mus
Ġsu mal
oj ot
Ġz ar
ab e
Ġkai kur
Ġkai kuriu
Ġpas merk
Ġi ver
ij imo
ij onu
Ġgal inciu
Ġtik ybos
ĠT ak
ĠN esi
ĠN uot
Ġdar ome
Ġuz ejo
Ġkur inys
ĠK ON
ĠK ainos
ĠS ti
ĠS apn
ĠS of
ĠD Tai
ĠD HL
ĠM r
Ġc all
ed er
ig ur
Ġmok ejimus
ĠI P
Ġras it
Ġras ant
Ġras to
Ġats inauj
ĠL at
ĠL ansberg
Ġvien adien
Ġdaug elyje
ĠG en
ĠG old
to tu
uk tu
Ġkl aip
ul ig
uoj uosi
Ġpo elg
Ġsv yt
Ġver z
ijos i
Ġzmon ijos
Ġgraz a
Ġgraz iausios
Ġlai z
Ġsav anaud
ĠR od
ĠR ink
Ġid emiai
Ġpav ojus
st ra
Ġpard uotas
Ġgyven siu
Ġmet am
tat yta
Ġsal y
Ġsal ig
ec iams
ec tion
Ġik ai
Ġkal na
isk amb
Ġdraug iskai
Ġklaus o
Ġvar tus
Ġdaz o
Ġpus iu
Ġnegal esiu
Ġpras ciau
ib o
Ġatv yk
Ġatv iras
Ġnaud ojo
Ġisl ikti
Ġil s
Ġnauj ienos
Ġbal tarus
eal u
Ġal gas
Ġal iexpress
Ġdirb es
Ġdirb ama
Ġ4 1
ĠPas ik
Ġband a
Ġned ave
Ġna f
Ġsm ekl
Ġind iv
Ġab udu
Ġsek toriu
Ġse o
Ġvyr ais
Ġpab aisa
Ġnenor mal
Ġkeis tus
Ġmoket ina
aziu oti
Ġkalb as
Ġsur ado
Ġmus es
iej us
Ġpag yven
Ġvard us
ĠGr avel
Ġrod omas
Ġrim tos
Ġpateik imas
Ġsil umos
Ġpatar tina
Ġpasik eit
ĠIn ception
Ġtams iu
Ġtams aus
Ġskaiciu oji
Ġsul yg
Ġisv ed
Ġzenk liai
Ġps e
Ġ0 7
Ġnegr iz
Ġuzdar e
Ġpaaisk eja
Ġnurod oma
ĠKar ant
Ġpasirink t
alai ka
Ġaus ies
Ġaus ys
ons ul
Ġparod yta
Ġakc ent
Ġkab ina
Ġneat ras
Ġneat paz
Vis gi
Ġsie l
ĠSk elb
Ġteik iamos
eidz iam
Ġbern iukai
Ġstor y
Ġlap as
Ġirod yt
ĠVien o
Ġnuv yle
Ġpopier izmo
Ġpral eid
Ġun i
Ġvirus ai
Ġnever kiau
Ġnenus p
ĠDz onas
ĠVakar e
Ġnepa galvojau
Ġdev eti
AM A
Ġvarg s
Ġdarz eli
Ġpristat yma
Ġitrauk ia
Ġamz ina
Ġkontr oles
Ġ25 7
ĠMaz as
Ġvaiduok lius
Ġmirs iu
Ġkontak tai
Ġarti ma
ii ii
Ġiskr ito
Ġlegal izuoti
Ġorigin alu
ĠNeg razu
Ġhor iz
Ġhum oras
Ġnekal tas
Ġprir eike
Ġtechnolog ija
OJ A
nem anau
Ġprofesion alus
Ġpavyd o
Ġpraktik uoti
Ġvairuot ojo
Ġport ala
ĠPaziur ekit
Ġlankyt ojai
Ver sl
Ġnutik ti
Ġskambu ciu
Ġtim pes
Ġnesil aiko
Ġbruoz us
omet hing
Ġkategor ija
Ġmiest eli
ĠMokes cius
Ġtot alus
ĠPirk au
Ġspren dz
Ġbiolog ija
Ġprogramuot ojas
Ġscenar iju
Ġanal og
Ġbaj eris
Ġpasiruos es
Ġjung tis
Ġaf ter
Ġaf eris
Ġpj aus
Ġmeil uz
Ġlegend os
EM AIL
Ġisijung iu
Ġimunit eta
ĠBer ods
ĠVL C
fiz er
Ġpolitik os
ĠSAV O
ĠUkr ain
RRRR RRRR
Ġnesijau cia
Ġpazas tis
ĠStal inas
Ġpiram ides
Ġsituac ijoj
Petr iukas
Ġdinoz au
8 8
: :)
? :)
D ir
D on
D aktar
E x
K oki
L ais
O B
O o
R ealiai
S K
S varbu
U I
U L
V o
W hat
b y
g era
k eli
s os
s ur
s unku
t w
t ektu
v usi
au tos
Ġn ibiru
ar es
al it
Ġm itas
Ġd yz
Ġd isko
us iam
ik it
Ġg enu
Ġg urks
el and
el ho
Ġr eis
Ġpr ijung
or n
or inis
Ġis kreip
Ġis auga
az ind
ak is
it ais
oj anciu
oj imais
on ams
ien ei
ek iau
il la
il ion
ta cijos
ĠT etis
... [
ĠP ica
Ġpa ak
Ġpa ysera
ĠK ap
ĠK yb
ĠS S
aus o
ĠD Nu
ku mo
Ġf as
Ġtur k
ĠM ile
ĠM OK
Ġc ak
ĠB reak
and zi
ĠV irs
Ġras es
ĠL o
Ġkas ton
etu kas
int ern
ip ed
Ġbuvo t
Ġpl ika
Ġkit ka
uoj ancios
tik i
Ġsv eciai
Ġnu ima
Ġnu pasak
ov ei
Ġnus iz
Ġdel nu
aid e
Ġsak nis
Ġzin osiu
Ġneb usiu
Ġdal inai
Ġkel iems
Ġval io
Ġtas kus
Ġiss pres
Ġpak viete
ank us
Ġaps ip
Ġsal one
Ġkal nus
yn i
Ġmat yta
Ġpasak ojimu
.... .....
Ġau tos
Ġskai tes
Ġsi oks
Ġkam pe
ĠU oga
Ġgau tus
Ġh ate
ĠH arb
ĠPr ojek
Ġnetur ejimo
he ad
Ġbal tai
Ġpapras o
Ġpapras iau
for min
Ġor ai
Ġmerg eles
Ġmin ejai
Ġvaik is
ver ti
Ġnek az
Ġnek iltu
Ġnepr it
iep yti
Ġsm ekla
ĠNe ap
Ġneg auni
Ġnusip eln
Ġjuok ais
Ġmed ienos
Ġvalg ant
Ġvalg yk
uol ia
Ġpirm osios
ĠIV P
Ġnemok ejau
Ġad idas
Ġsil tu
Ġpavadin imus
mm mm
Ġregistr e
Ġmel a
Ġgaun ant
Ġnesi ojo
Ġzv ak
Ġauks ine
Ġstipr esnis
Ġpig iu
Ġ0 4
Ġte ir
Ġsiun tas
isti an
Ġtvark ingi
Ġpaaisk inima
Ġav is
Ġpasiul ymai
Ġ200 00
Ġsusit inka
Ġkap inese
Ġlengv atu
IE P
Ġvaizd us
Ġspecial us
Ġmenes iams
Ġkab iu
Ġuzsak yti
Ġstud ija
Ġatidar ymo
ĠCh ina
ĠSk ambu
Ġsusij ung
Ġatskir os
Ġgars a
eidz iau
ĠKr istus
ĠEur oviz
Ġseim ininkas
Ġparduod ate
Ġsez onu
Ġnuspr esti
Ġkaim ynus
Ġmis ija
Ġsprend imai
Ġlank om
Ġpos tas
Ġneim an
Ġliudij imus
Ġiz velg
Ġvienint eli
Ġsugeb ejau
Ġzud iko
ĠRus h
Ġpaslap ti
Ġpasitik i
Ġantr us
Ġveln iskai
Ġmalon umu
Ġzai b
Ġdie vai
Ġapsir ib
Ġisitik inau
Ġpriim tin
Ġartim iesiems
Ġapmokestin imo
Ġapmokestin ama
Ġpsicholog iskai
Ġvaz inej
nor ejau
rati mas
Ġgalu tinis
Ġrom anti
Ġvisad os
Ġkonc entra
Ġkop ijos
tyn iu
Ġprisid eti
Ġtak si
Ġkras tus
Ġleidz iami
Ġker zus
Ġded uosi
Ġproces o
Ġprar ado
Ġlem pa
Ġapsis augoti
Ġnub rauk
ĠNen us
ĠSak ykim
Ġuzpak alis
Ġteleviz oriaus
.( :
Ġnuolaid as
Ġsuvok imas
Ġipras tas
Ġac tivity
Ġaktyv us
Ġpaskamb inti
Ġteat ro
Ġakmen u
Ġpadovan oti
Ġistrauk e
Ġlav onu
ĠPasku tini
Ġpaved ima
Ġbed ug
Nep atinka
Ġmetod a
Ġnepadar ys
Ġzad ejo
Ġpasiu lo
Ġklub ai
ool igans
Ġbjau rus
ĠKom piuter
ĠVyr ai
Ġgalvoj at
Ġkomed ijas
Ġnepatik tu
Ġpadet ies
Ġuzsikr esti
ĠItal ijoje
Ġkreps inio
Ner eikia
Ġvys n
Ġmelyn i
Ġrekviz itus
ĠVienint ele
Ġbob os
Ġatsiz velgti
Ġsvaig sta
Ġisipareig ojimu
ĠMax ima
eklam uoti
Ġisjung iau
Ġzir ga
Ġsabl ona
Ġgaiv us
Ġzurnal istu
Ġanima cija
Ġpasijuok ti
ĠJur id
Ġpozym iu
ĠLond one
ĠAustr alija
ĠTiksl iai
Nek enciu
Ġkosmos o
Sveik i
Ġnedr aug
Ġtarpinink avimo
Ġnuskr iaus
ĠTurk ija
Ġnesidom ejau
Mokes ciai
Ġnepanas us
ĠKiekvien am
Ġblius kute
Moter ys
Ġekstr em
Ġmotoc ik
enn ifer
Ġsiksn osparn
Ġgarbano tu
areiksm iskai
Ġlieps na
ĠMcD onald
ĠMiy uki
Ġpilv ukas
ĠLGB T
( -
2 50
N ori
R yt
T IS
V eik
^ _^
d v
d on
g ail
l ed
l iz
l yte
p use
v ys
Ġ @
Ġ eda
Ġ eisi
Ġp ele
Ġp ian
Ġt ipas
Ġk inis
au tus
Ġn i
Ġn ight
Ġs et
Ġs ame
Ġs ay
Ġs ajung
in ia
in ez
in love
ir ta
al ino
Ġm uitu
Ġd an
Ġd ekl
Ġd edi
Ġd amn
Ġb eja
Ġb ail
ik v
ik ui
Ġg ejai
at ies
en iausiai
Ġl aaaa
Ġpr eliminar
tu gal
or ijos
Ġis auk
ej am
on iniu
Ġz onos
om ieji
Ġi pareig
ek im
Ġat ak
Ġat mete
Ġat eivis
uz as
uz ikai
ĠT inka
ĠT rue
aug es
Ġnes tor
Ġnes erga
ĠN ejuok
id ers
Ġuz kar
Ġuz auga
ĠP elno
ĠP VZ
Ġkur s
ant az
ĠK OK
ĠK AZ
ĠK evin
Ġpat entu
Ġtok iem
Ġnor veg
Ġtur ek
Ġc erem
Ġ( ~
ig il
ĠB ig
ĠB ack
ĠJ ar
and ra
ing er
ing iausiu
Ġats k
Ġpar os
yv ena
Ġsk oniu
ĠG il
Ġkar ai
aud amas
to ves
ĠO per
int ojas
Ġta aip
Ġpl esti
Ġpl iti
Ġsus i
auk A
Ġtr eti
Ġtr ug
iv es
Ġten ais
Ġnus ival
Ġsak ykit
Ġim ant
Ġneb eidomu
Ġsav ijau
Ġak iai
Ġsp eli
ic t
ĠE t
ĠE vel
Ġiss ival
Ġprie laida
Ġnem yl
Ġkr anto
st yle
ud ra
Ġpak eta
Ġmet al
Ġaps vie
Ġdid mies
Ġsal ims
Ġkal dra
uod ant
Ġklaus t
ĠZ algir
ain is
Ġbl ask
Ġsiu v
Ġvai kst
uot ojo
Ġkam eros
Ġvie tiniu
Ġnaud ingiau
Ġh ausas
Ġidom ia
Ġsen elius
Ġtiesiog ine
ĠF ui
inis tras
ĠPr ofes
Ġpaj usti
Ġnauj okas
Ġpadar es
yl iau
Ġkol d
Ġreikal avimas
Ġdirb siu
Ġ4 4
Ġvaik iskas
ĠNor mal
ĠNor malus
Ġnek etinu
isku ti
isku mu
Ġnepr iima
Ġneis r
Ġband ymu
iim t
Ġpor ai
Ġpers idaz
Ġpers ireng
Ġkain uoti
Ġsek antis
Ġmir us
Ġse ans
Ġlik usiu
Ġlik usia
Ġknyg ele
Ġpirm adienio
ĠW inamp
iej au
Ġpra juok
Ġplauk am
atur al
Ġrod ydavo
Ġnemok ami
Ġreal ia
Ġnegali oja
Ġfilm ams
Ġsusir adau
Ġpatar ia
Ġvaid int
Ġpasidar au
Ġplan e
Ġliu x
iziur iu
Ġdarbuot ojais
ĠNiek s
Ġthe y
Ġistat inio
Ġmyl imu
ĠUz sak
Ġvid ini
Ġvers ijos
Ġpop ulia
Ġrank oj
Ġpagrind inius
Ġ0 6
Ġliud n
Ġpapild us
Ġpapild yti
Ġkvep uot
aliu kus
Ġnev yksta
Ġpaaisk intu
Ġvadov e
Ġkeli om
Ġmokyt ojo
Ġisig yt
Ġtel iko
Ġlengv at
Ġprof il
Ġparod ysiu
Ġteks tu
Ġfain u
Ġisr aiska
Ġsusij usius
ĠNep av
Ġvanden yje
Ġsij ono
ĠNE RA
Ġfaktur oje
Ġforum ieciu
Ġkor ta
iras yti
Ġlank ausi
Ġdet aliai
Ġth an
Ġkak la
Ġiras a
Ġiz olia
Ġsugeb etu
Ġatid uot
Ġskaicius i
Ġpaveik ti
Ġpapasak ok
Ġpatvirtin ta
Ġskamb inau
Ġnepak eis
Ġpatikr ina
Ġpatikr ins
Ġpranes imus
Ġpriek yje
ĠPrad zioje
Ġuzdarb yje
Ġform ule
Ġsoli ar
Ġvaiduok liais
Ġiregistr avimo
Ġnemat ei
Ġuzras yta
Ġdaktar a
Ġveidrod is
Ġruos iuosi
Ġnejau cia
Ġgavo te
Ġnepaz yst
Ġkiaus iniai
Ġnupirk tu
Ġitak oja
Ġtruku mo
Ġker am
ĠVokieti joj
ĠHe h
Ġpadid ejo
ĠSak yciau
Ġbil ietu
Ġvartot ojas
Ġisteig ta
Ġitik inamai
ĠVIS I
Ġneaps imok
Ġsuo r
Ġuzaug s
Ġapsireng usi
Ġatskait ymu
Ġatskait ymams
Ġpraktik oje
ĠPasku tiniu
Ġfunk cijas
Ġtor rent
Ġfotograf ija
Ġmetod u
Ġstab do
Ġuzg es
Ġaliej um
Ġnebet ur
Ġpoliti kai
Ġatnes e
Ġissigand o
Ġgalvoj ate
Ġtoler ancija
Neb log
Vien intelis
Ġbiz ni
Ġskil tyje
____________ _
Ġpavalg yt
Ġavat ara
Ġsmulkmen a
Ġuzsiem imas
Ġbrand uol
Ġkebab us
Ġpert ekl
Ġissiskir ti
ĠLai kas
Ġleks tu
ĠLandsberg io
Ġapsipirk ti
Ġaksesu aru
Ġnuost olis
Ġnupies ta
Ġveiksm inga
Ġivard inti
Ġuod eg
Ġsubjek to
ĠPinig u
Ġneatsis ak
Ġfilosof ija
Ġprisit aikyti
Ġalternatyv u
Ġissipl aunu
198 7
Ġneuzm ig
Ġpasimok yti
ĠQ Q
Ġkalor iju
Ġpusl eline
Ġpaskat ino
Ġkartoj asi
Ġkek viena
ĠHitl eris
andz berg
Ġdeim antu
Ġkariuom ene
Ġhomos eksu
Ġpapas ako
Ġdezin fek
ĠKrem liaus
ĠMig le
Ġamb ic
Ġuzhip notiz
! ,
* ,
5 6
5 7
? ).
B ais
E C
G alu
H E
M P
N ev
P izza
R OS
S ituacija
d ymo
d aznai
g oogle
l eidzia
m oje
s um
s aul
s ut
t elis
z dzio
{ :
Ġ iaip
ai tis
Ġp ienas
Ġp edos
Ġt ig
Ġt yliu
Ġn ik
Ġs f
in ancia
in ancio
ar iau
al ta
al yg
al vis
Ġv engiu
Ġd eal
Ġd uodi
Ġb ard
ik au
Ġir ode
Ġg edos
ok od
ur iai
el u
el ap
el ina
el si
Ġr unk
Ġpr es
or es
Ġsu c
Ġsu tink
Ġsu vald
av or
av ejas
oj imui
on ez
ab il
ab ejo
eik st
ij ok
ies ta
Ġdar yta
em imas
Ġuz b
Ġuz blok
Ġkur imu
ĠK ill
ĠA M
ĠA utomobil
ĠS P
ĠS ito
ĠS okol
ĠD J
Ġf ura
vo tu
Ġgr amu
ĠJ ooo
ĠV ais
ĠV IEN
ot yv
Ġpar inkti
ĠL ee
ĠL OL
Ġdaug eliu
Ġkok os
ĠG eilo
aud as
aud os
Ġnet enka
ĠO m
Ġniek uomet
Ġkl yk
iz as
iz velgiant
ul en
Ġsv en
Ġsv ieti
ov s
Ġin st
Ġin tike
Ġim tu
ev a
Ġdal eles
ĠR ev
Ġak tas
Ġak lai
Ġid irb
auj ant
Ġsp intos
Ġdabar tiniai
Ġuzs ald
Ġiss imti
Ġe asy
Ġtiek ejui
Ġpak uote
Ġmet inis
ank iai
Ġmat ys
Ġnel aikau
ĠZ alioji
Ġpus mecio
me ciui
Ġko vot
ib aba
Ġatv ykti
Ġidom esnis
Ġisl ind
Ġisl aiko
Ġpal eis
ut au
ut em
ĠF ar
ĠF antas
ĠH al
Ġpirk imus
Ġpirk davau
Ġnesu br
Ġnauj asis
Ġpadar yk
Ġbuv usio
Ġfor ever
ĠTik ra
Ġpapras ciaus
aj ame
Ġreikal e
Ġatsak iau
Ġdirb tinis
Ġparas iu
Ġdien oms
Ġvaik am
ĠPas aulio
Ġkn isa
Ġsau na
Ġsau nus
Ġel gi
Ġblog io
Ġpardav ei
Ġilg is
Ġbendr u
ug s
Ġsapn uot
Ġsti ch
Ġpask iau
Ġlik usios
Ġvyr esnis
Ġvyr iskis
tov e
Ġlauk eli
Ġgam iniai
Ġpab odo
Ġpab rang
Ġtarp ininku
Ġvakar us
Ġ7 000
Ġnepas ikeite
Ġnepat ink
Ġsur iu
Ġmoter iska
Ġjuod o
if t
ĠTur ite
Ġnak ciai
Ġveid e
Ġsn inga
Ġof iso
ins kas
Ġnetik ejau
Ġtap t
Ġpateik tu
Ġpateik tas
itu al
Ġplan uojama
Ġtink la
Ġpasik ab
Ġatsis uku
Ġatsis edau
inc iais
Ġtams ios
Ġstipr iu
Ġ0 3
Ġuzsien ietis
Ġmoksl eivis
Ġkvep avimo
Ġisk vep
Ġstu b
Ġuzdar o
Ġuzdar yta
Ġnurod yt
Ġvaiks cios
Ġklasiok ei
Ġklasiok ais
ĠKar ol
auks l
Ġisig ali
Ġkat ina
Ġses elis
ĠTr ys
Ġsup ak
iver kiau
Ġnepam irsti
Ġisr egistr
Ġvez im
Ġtrauk t
Ġlog o
ĠNem al
ĠNem ok
Ġsusidur iau
ĠKr eip
Ġsub til
Ġmu itas
Ġpies iu
Ġkor por
Ġgir ia
Ġgul eti
Ġmegst ama
Ġgyvun o
Ġpazym ejimas
Ġatsidar yt
Ġkompl im
Ġisivaizd uokite
Ġdidz iausios
Ġiras u
vie ciau
pat inka
Ġatid ave
Ġatid uoda
ĠDz ekas
Ġ> <
Ġrag an
Ġtv ora
Ġrekomend avo
Ġsugalv oja
Ġneig al
Ġelektron ikos
Ġder etu
Ġder inti
Ġez iukas
Ġpasirod ymas
Ġryz as
Ġdokumentu ose
Ġjurid iniai
Ġuzsiim i
Ġnemat oma
Ġpik tas
rus ti
Ġrieb alai
Ġastr on
ĠDid elis
Ġres publ
apl aukes
Ġraudon ais
Ġprisid ejo
Ġsusil aukti
Ġsyps otis
Ġspaud os
Ġspaud zia
Ġprab anga
Ġker zai
Ġsavaitgal io
Ġauksciau s
Ġlem ta
Ġnereikal auja
ph an
Ġpastar uosius
Ġcek io
Ġpatrauk lus
Ġ.... ..
Ġtinklap yje
Ġnepal iko
Ġsampun o
Ġatsiliep imus
Ġprofesion aliai
Ġpriziur i
Ġstamb i
Ġataskai tu
Ġkeb abai
Ġapsireng es
Ġgaud o
Ġnesugeb i
Ġapyrank iu
Ġjeg omis
ĠKom edija
Ġbazn yci
Ġpatais yti
Ġneitik etinai
Ġfraz es
Ġpusbr oliu
Ġnepl an
Ġpauks ciai
Ġuzdr austa
Ġliz ingo
Graz u
Ġdelf io
Ġhig iena
Ġgelez ink
Ġneties iog
Ġspausd intuv
Ġpirs tines
ĠSiaub o
Ġrekviz itu
Ġdziu g
Ġuztikr inti
lay er
Ġzurnalis te
Ġred ak
Ġnetol iese
ĠMir ties
Ġmarsk iniai
Ġpaluk anas
Ġetik etes
Ġnevykd o
Ġvog ti
Ġvazel ina
ĠPaj amu
ĠCo elho
Ġantkai nis
Ġissiem es
Ġkosmos as
Ġneipras ta
Ġstal ciu
Ġnetikr ov
ĠZmog aus
ĠApl ink
ĠTrump ai
Ġpriez asti
ĠAstra Z
Ġliter aturos
ĠAti dar
ĠSand ra
Ġneapyk antos
ĠVid eo
Ġkruo psciai
Ġnuplaun amais
Ġnepriv alo
Ġarm ija
Ġho use
Ġiliuz ija
Ġnarko tikus
Ġsuoliu ko
tig ma
Ġnepril yg
ithuan ia
Ġceliu l
" :
2 70
8 9
? .
I F
J os
J AV
M il
N Y
S um
S avai
T e
h ost
l umas
p ic
r adau
s ita
w art
x as
Ġ ul
Ġp ikti
Ġk ut
is iek
ar ti
ar yk
Ġne aktu
al ti
Ġm irk
Ġm ulk
Ġm hm
Ġd i
Ġb ars
es ter
Ġg ina
Ġg olf
Ġj A
et inga
am iems
im at
en eles
Ġr eta
Ġl ytis
or ia
Ġis muit
Ġsu lt
oj osi
Ġz on
Ġz yzuole
ap h
eik us
Ġpas m
Ġpas n
Ġpas ok
Ġpas ijus
io ve
ĠT al
ĠT ink
aug e
Ġnes ikab
Ġnes isteng
ĠN iu
ĠP ink
ĠP ov
ĠP unk
ĠP IR
Ġkur so
Ġap iform
ĠK elis
ĠK okio
ĠA CIU
ĠD N
ĠD vi
ĠD vyn
Ġkaip tik
tin us
tin ki
ĠM US
Ġc s
ed amos
Ġjau tis
Ġgr ybu
Ġmok at
ĠB lue
Ġreik stu
ĠV sI
Ġras ymo
Ġras tum
bu nie
Ġpar ad
Ġpar fum
ĠL ost
Ġ: ?
Ġkar us
uk iu
iz acija
Ġpl ia
Ġnu eis
iam es
Ġant kl
ac ines
Ġdr oz
Ġdr edus
Ġkiek iu
Ġkiek iai
Ġzin omi
Ġpad ain
Ġim ciau
Ġdal iai
Ġkel eto
Ġkel nai
Ġprad ingo
ĠE ff
ĠE asy
Ġiss amu
ud au
Ġpak albeti
Ġziur it
le ciu
Ġpaz v
Ġpaz em
eng es
Ġpap ro
Ġprek ei
Ġdid inti
Ġmat omai
ĠZ yzuole
ain e
Ġbl iuz
Ġpus iaus
yd e
Ġnegal voti
Ġpras isk
ĠU r
Ġnaud ai
ĠAr gi
Ġan s
Ġan om
Ġh app
ĠF un
Ġmes lo
ĠPr iklausomai
Ġnauj ok
Ġskir iu
Ġdv igu
Ġal ways
ĠTik ras
Ġnuom onei
Ġparas au
Ġ4 6
Ġdien orasti
nu te
Ġnek eicia
Ġnek arta
Ġnepr ir
Ġned ris
Ġned aznai
Ġblog iausiu
Ġsm ak
ch o
Ġsapn avo
ĠAn dz
Ġsek ret
Ġislaid omis
ĠGer ulis
vark e
Ġnepat ariu
re w
Ġsveik u
Ġsed im
Ġsed int
Ġrim ti
ĠSu pras
Ġpasidar ius
Ġplan uoja
Ġpamat ytu
Ġgird ejo
Ġpatir ia
Ġpasik l
Ġem aila
Ġkazkur i
Ġpuik ia
Ġsim t
Ġzv engia
Ġtams ta
Ġskaiciu ojama
Ġsvarb iu
eriu kas
Ġmyl ejau
Ġpol terg
ha w
inej imai
Ġuzdar ytos
Ġstat yt
Ġstat ybu
Tik sl
Ġpaaisk es
Ġtrump os
Ġneats kl
Ġpasiul ymo
Ġnaudoj uosi
Ġpasirink ta
Ġlengv iausia
ost alg
Ġaplink iniams
Ġses ele
Ġeks ped
Ġkab o
Ġsup azind
Ġmo tinos
ĠBr i
ĠBr r
Ġisr eiksti
virtin ti
Ġteik iant
Ġkirp tis
Ġskelb imo
ĠKal bu
Ġgir tis
Ġer o
Ġer zin
ho ut
ĠMok sl
Ġdet ale
Ġnever tas
Ġnukr enta
Ġnenus ivyliau
Ġatlyg io
At l
Ġpasig irdo
Ġsuteik tu
AM S
Ġsteb isi
Ġisn yksta
Ġtep ti
Ġdarz ov
Ġpranes imas
Ġnesig avo
Ġruk ymas
Ġpriim ta
Ġpriim tina
Ġez eras
Tr ys
Ġperv ede
Ġisskir tinis
Ġoficial iu
ĠSus ir
ĠSv ed
Ġvienod as
Ġpanaud ot
Ġkov oja
Ġpaaug liai
Ġzingsn iai
Ġding s
Ġciu zin
Ġtruku mai
Ġsavaitgal is
Ġnesir up
Ġbuve ine
Ġnenu tu
Ġcharakter iu
ĠPapras ta
Ġtinklap iu
Ġgarant uotai
Ġpasip ik
Ġatliek amas
ands bergi
Ġnusikal timas
Ġmarket ing
Ġmarket inga
ĠAb ejoju
Ġtarif u
ĠAngl ijoj
ss s
Ġnores ite
Ġpokalb iai
Ġsvarst au
Ġsruog eles
Ġilgalaik is
Ġsiaur es
Ġapval us
Ġinstitu ciju
Ġparuos ta
Ġperskai tes
Ġirank iai
Ġserver i
Ġneitik etina
Ġsuprati ma
Ġuzsiregistr avau
Ġpripr atus
Ġnust ojau
Ġkairiarank iai
Ġsituacijos e
Ġbab kes
Ġisaug o
mag ed
Ġhig h
Ġbendradarb iavimo
Ġnarkoti kai
Ġobuol ys
Ġevoliu cija
Ġparag aut
Ġfoti ko
Ġmarsk inius
Ġpremj era
Ġpaluk anu
Ġpaluk anos
ISK AI
Ġpavyz dzio
ĠBlog ai
Ġisgelb eti
ĠSOD RAI
Ġmanip ul
Ġpavog e
Ġissim ieg
ĠBab y
Ġbaik it
Ġtrosk imas
Ġlan kst
Ġdiskr im
Ġketuri om
ĠVyriaus ybes
Ġson k
Ġkot l
Str aipsnis
Dirb tinis
Ġsportba ciai
ĠGyvent oju
ĠVie toj
Ġvars kes
Ġkrei vai
Ġzio pl
Ġplast mas
ĠDulk ys
Ġiskarp yti
Ġdryz uota
esp ond
Ġpadiskut uoti
ĠSmilg ius
tgal iais
! .
? ",
A ti
H itler
J okiu
O ho
P ab
V eln
V ienu
W e
b iu
b it
f eld
k okio
m inu
n ak
p p
p ens
r yn
t ant
u e
y ing
y Bear
Ġp onai
Ġn at
Ġs aik
Ġs esiu
Ġs ong
in ekit
ar io
an ui
Ġne trauk
Ġv en
ti kas
ti ons
Ġd os
Ġd uom
Ġb aras
Ġg y
at ina
er ver
ok al
et c
im tas
im yl
Ġl at
Ġis tes
Ġis iesk
oj ome
on im
on ine
on ika
eik a
eik ite
eik alo
Ġvis atos
ij onai
Ġman oma
Ġat bu
ĠT us
ĠT ema
Ġnes ist
Ġnes tumo
Ġnes kub
Ġnes ijaud
ĠN ike
Ġdar esi
ĠP art
ĠP abaiga
ĠK en
ĠA L
ĠA aa
ĠS tor
ĠS enas
Ġo ur
ĠD ov
ĠD As
tin tas
tin imas
Ġnor edami
Ġas fal
ĠM ic
um elis
um bl
um uose
Ġger aja
Ġgr een
Ġreik iamus
ĠV as
Ġats ipirk
Ġats tuma
Ġpar eina
gal e
gi c
Ġsk ysti
na j
gu y
Ġpl ep
aik ysiu
ink am
la g
Ġnu al
un ti
Ġnus v
Ġnus kaiciu
ep si
aid o
Ġin c
Ġpan ik
Ġpan iskai
Ġpan ikos
Ġgraz int
Ġgraz ins
Ġsav an
Ġid eda
Ġid etas
Ġner am
auj o
end er
Ġmaz uma
Ġmaz uju
men is
men ine
Ġ; -
Ġ; |
Ġe Bay
ĠC S
ĠC or
ud es
Ġaps tu
Ġaps ikr
Ġdid ieji
Ġsal tini
Ġkal n
isk esni
Ġdraug ystes
Ġpasak ojama
ang ai
Ġmokes tinio
Ġpam inet
Ġmen uli
Ġsit ais
Ġpinig ines
bet as
Ġnen uti
Ġpras is
Ġpras iman
Ġgau to
Ġatv yksta
Ġan aip
Ġh aliu
Ġidom esne
Ġversl ininko
Ġvisa galis
ĠPr al
ĠPr unskiene
Ġdazn iausia
Ġplau na
Ġbr udo
ĠNu ejau
met ai
Ġw ar
Ġbud ami
Ġband ei
Ġband ymus
Ġned eklar
Ġpaziur ejo
anc ioms
les ti
Ġpor ele
Ġbais oka
Ġpask yr
Ġmir timi
Ġuzd uot
Ġgam inu
Ġ6 000
Ġpirm ame
Ġdu j
ĠW in
Ġsur anda
Ġjuod aja
if obija
Ġsveik o
Ġsveik inu
ĠGr r
Ġbat ams
ke y
Ġatsis tat
daug uma
Ġfilmu ko
Ġskaiciu oju
Ġistat uose
Ġstipr iau
Ġuzsien y
Ġneuz dar
Ġkiekvien oje
Ġstat uso
Ġgyvent ojus
Ġskiep a
Ġnaudoj imas
Ġsusit aikyti
Ġpasirink imu
Ġskr andis
Ġspecial iu
Ġket ver
Ġses ta
Ġgar aze
Ġkab lu
ĠTr ileris
raf t
Ġsudar ytas
Ġkod ai
Ġuzdirb ai
ĠBr ang
eidz iant
Ġdeg uo
Ġirod ineti
por ta
Ġsvaj ojau
Ġgel s
Ġre fer
Ġre prez
Ġprival au
Ġlak uoju
ĠKal ba
Ġnedar iau
Ġnedar yk
ĠNeb us
enc ijas
ĠZin ok
Ġgav ejas
Ġpral eist
Ġminim alu
Ġminim alia
Ġsusimok esi
iskait yk
Ġkep tuve
Ġvidu tines
Ġkak tus
Ġiras ai
Ġiz oliu
Ġber eikal
Ġeil utes
Ġvertin t
Ġfinans avimo
Ġkompan ijoje
Ġpic er
Ġpastat u
Ġpastat as
Ġpasig irti
Ġvil kol
ĠVakar u
Ġdev i
Ġkie c
Ġreng ini
Ġbo y
Ġlaikotarp iui
Ġpatikr int
Ġnesk elb
Ġvart oju
Ġisitik ine
Ġpolic ijai
Ġisskir tin
Ġsamd omu
Ġvaz inet
Ġdras us
Ġarti mas
ĠPl aukai
Ġkonc ep
Ġprisim ine
Ġkort eliu
Jau ciu
Ġnepriklaus omybe
Ġlas iniu
Ġistr ig
Ġsuz lug
Zm ona
Ġtruk me
Ġpalaik yt
Ġnereikal ingi
ojam ojo
ĠSak es
Ġcek is
Ġnepal yg
Ġac c
Ġpens iju
Ġteat r
Ġbendra am
ĠTh is
Ġmobil iu
Ġnebet uriu
Ġargum entas
egz ti
Ġdeb il
Ġnusisnek i
Ġskambu ti
Ġskys tis
Ġrezis ieriaus
Ġuzim tas
Ġins trum
Ġnaik inti
Ġpasiskiep ijo
Ġuniversit ete
ĠHo umeris
Ġkairiarank is
Ġsiurp uliukai
Ġremon tas
Ġgraud us
Ġpasidaz ius
Ġsaip ytis
Ġsmur ta
Ġpazyst ama
Ġsust ojo
Ġnusp eti
Ġsmu gio
Ġsusapn uoju
ĠPaz istu
Ġatspalv i
Ġaksesu arai
Ġisnaud oti
Ġuzsidar e
Ġikr ito
ĠLe on
Ġarkl io
Ġperoks idu
Ġpamin etas
Ġzurnal istika
Ġnepasis eke
Ġnepriim tina
Ġtemp ia
Ġpie tum
Ġpakom ent
Ġneab ej
Ġkirpciu kus
Mm yBear
Ġnusipl auna
Ġikel siu
Ġdvasi omis
ĠSkir tumas
Ġisgasd ino
Ġparekomend uoti
ĠDidz iausia
Ġspak liaus
Ġpabendr auti
Ġzliumb iau
ĠSiauliu ose
Ġnesugalv oju
Ġpabrez ti
Ġdemokrati ja
Ġpasiilg au
Ġbeb op
Ġapsispr esti
Ġveter inar
ĠDEL FI
yzd ys
ĠZMON ES
Ate ina
ĠProd uc
ĠKarb aus
Ġnekaz ka
" ....
A ug
D om
M yl
N el
P aul
P amenu
T E
T itanikas
V P
Y N
c ada
f uck
j okiu
l ight
p et
p ur
p ab
r om
r il
s ek
v ej
v iet
z mas
Ġt et
Ġk z
Ġk ist
au kst
Ġn yks
Ġs a
Ġs ka
in eli
Ġne iver
al ba
Ġb are
us tom
Ġg ied
et t
el tu
uo lu
Ġl iev
or igin
Ġis kas
Ġsu vart
ak os
it acijos
om en
om asi
Ġkai liu
ij uoti
Ġgal inga
ien tu
io ps
Ġat kas
ta cius
ais kas
Ġnes varb
ĠN uos
Ġuz pl
ĠP AD
Ġkur or
Ġkur ini
Ġpa auk
ĠA pras
ĠD R
ku l
Ġf ej
Ġf one
Ġpat inku
ys ciau
eg imas
ĠM P
ĠM IR
Ġc em
ed ag
avo t
Ġgr an
Ġmok eciau
ĠV aj
Ġats iimti
Ġpar t
ĠL as
ĠL eg
ĠL auksiu
Ġvien tis
ĠG R
ĠG uoga
Ġ: [
ip es
yb el
Ġnep aband
Ġnep anaud
Ġsv il
tai n
Ġnu im
Ġgyv os
Ġver ksl
ov i
ov ok
ov ams
Ġnus if
Ġnus kus
Ġpad r
Ġim db
Ġgraz uole
Ġneb r
Ġpav oju
Ġes ti
Ġes ancius
Ġprad ini
Ġprad ejai
men ta
Ġprie A
Ġprie tar
Ġprie du
Ġ; [
erg iska
ĠC an
ĠC ivil
Ġpak eliui
Ġkal e
isk it
isk oje
Ġdraug aut
enk tu
Ġnel iktu
Ġvar om
Ġvar ysiu
Ġmokes iu
Ġau ros
Ġvel ym
Ġpam ink
ob o
Ġnaud ingu
Ġnezin ote
Ġan st
Ġsen eli
ĠF re
ĠH ell
Ġgalv ok
Ġmerg yte
ĠIs ras
ĠPas tebejau
Ġsl enks
---- -
asar i
Ġneis eitu
Ġband es
Ġmas ciau
Ġziaur iau
Ġpor no
Ġspal voti
ĠTaip ogi
Ġit ampos
Ġgam ybai
Ġ9 3
Ġpriv aciu
Ġleng vo
oz io
tim osi
tom e
Ġsur io
Ġsumok ejai
Ġatsir ib
Ġjuod oji
Ġpriklaus oma
Ġplauk eliai
Ġisg irst
Ġsr autas
esio ciau
Ġnetik et
Ġnetik eti
Ġreal ybej
Ġfilm avimo
Ġnereik sm
Ġprod ius
Ġpasik liau
zi oj
Ġkazkur ia
Ġfilmu kai
________ _
art h
Ġaug in
Ġaug ima
Ġvers ti
oliu ciai
ieg as
Ġrank ines
Ġisras us
Ġisras oma
Ġ0 9
Ġnegr aziu
yst ei
Ġnev aziu
Ġtvark oje
Ġsam do
IN ES
uc ko
Ġmenes ine
Ġses er
Ġvaziu oji
Ġtus ai
Ġstov iu
Ġsudar ys
ĠCh emi
Ġnag ams
Ġsuv oki
Ġpenk i
Ġsusidur ia
Ġgrup eje
Ġlap eli
Ġdvas iskai
ĠVien os
Ġfir st
Ġsvetain ese
Ġdes er
Ġdovan ele
Ġkosm arai
Ġpies t
Ġnedar yciau
ĠZiur ek
ĠZm ona
Ġnuv aziavau
Ġsaul elydis
ĠZin ot
Ġpral eis
Ġpatal pa
Ġkarant inu
Ġkak avos
Ġprogram avimas
Ġiz velgti
alis tas
Ġbes is
Ġnenus teb
Ġrib ojimai
Ġegzist uoti
ck et
Ġvertin imas
Ġantr oj
Ġlin iju
Ġneig iamas
Ġpatikr inimo
Ġtal entas
our s
ach iko
Ġproting esni
Ġbaud u
Ġiregistr uota
maz daug
Ġnemat yti
Ġgarban ojasi
Ġatg im
Ġsoliariu mas
Ġvair avimo
Ġped of
ĠSe x
Ġpartn er
Ġnuzud o
iav ima
ivers ti
Ġamer ikos
Ġspaud imas
Ġsumaz eja
Ġisid eti
Ġnusidaz yti
Ġatsip erka
Ġnepasak ys
Ġsupras ciau
Ġmom entas
Ġprir eikia
Ġvartot ojai
Ġneid omi
Ġgarant uoti
Ġmegz tuka
Ġitik ino
Ġstamb us
Ġsap ali
Ġlent eles
ĠSaul elydis
Ġteigi amas
Ġemo cion
Ġtab leciu
Ġapibud ina
Ġdep ilia
Ġpuod elio
Ġrestor ane
Ġeid amas
Ġeid avau
Ġatsarg us
Ġrecep tas
Ġsupl on
Ġgrif kos
ych o
Ġabor tus
Ġnesut ampa
Ġsuprati mu
Ġunik alus
Ġbalz amu
Ġfacebook e
Ġissipild o
Ġtot ali
ĠKon kr
Ġfiks uota
Ġturg us
Ġsveti ma
Ġpriras yta
Ġpapuos alus
Graz us
Ġnuostol iai
Ġkryp ti
Mat yt
Ġroz es
Ġataug s
Ġsusim oka
Ġstruk tur
Ġgrind is
Ġvienkar tinis
Ġpador iai
ĠPagrind inis
IJ OS
06 00
Ġpie va
Ġbibliot eka
Ġkolek cija
ĠGu MmyBear
Ġpraver cia
ĠMie las
Ġisgyv ena
Ġos kar
ĠPaband yk
Ġpails et
ĠPaskai t
ĠVyt au
Ġbilie tas
Ġkredit ine
Ġnesuv okia
199 3
Ġkodeks o
igand au
Ġzirg as
Ġnebrang iai
Ġkomplik aciju
Tev as
ĠSteng iuosi
ĠWr ath
Ġkiem o
Ġkard in
Ġsfer oje
Ġapyti ksliai
Ġpralai m
Ġnefor mal
Ġatsispir ti
ĠPot ter
Ġsound tra
Ġkompr omis
ĠAdolfina Hitler
Ġsalig atv
ĠGrr rusti
4 6
A US
B ur
G e
J oo
K eli
K AI
M et
O s
P P
S C
S ioje
V istiek
Y B
f ic
j auti
k ti
k ino
m ulk
p tu
r ius
t uoti
t fu
v iau
y a
Ġ eng
Ġp i
Ġp it
Ġp juk
Ġt an
Ġn iez
OS T
Ġs s
Ġs iz
in ates
in amuju
ir tas
ar yt
an iai
al vot
Ġv ib
Ġv ps
Ġv ykst
Ġd uz
Ġg inti
at al
at si
am dyti
im ba
im ybes
el o
Ġl u
Ġl ygu
tu osi
or ge
Ġsu les
Ġsu pu
ak i
it el
it ine
it ines
on na
on iska
Ġz irk
ab ear
eik it
Ġi pus
Ġi pak
Ġgal esim
ek us
Ġtik it
kai tos
ĠT R
Ġnes usi
Ġdar ausi
ĠP ild
ĠK aliforn
ĠS ant
ĠS ol
ĠS eks
ĠS US
aus a
Ġo ther
ĠD ek
ĠD own
ĠD NR
eg us
Ġtur tingas
Ġc enti
Ġper ejau
Ġger imai
Ġnuo gas
ĠB ro
ĠJ oje
ĠJ okios
ĠJ OK
and er
ĠI KI
Ġras osi
ĠL G
ĠL aiko
uos it
uk io
yb iskai
aik inti
Ġnep yk
Ġnep erg
Ġtr enke
un us
ac ine
ac ijoms
dz ios
aid u
Ġpad esiu
Ġim siu
Ġlai va
Ġlai vu
Ġveik tu
Ġsav itar
ĠR ich
ĠR ock
Ġak ir
Ġak imi
Ġes ancios
Ġval au
Ġprad ine
Ġmaz ytes
Ġmaz akrauj
Ġmetu ose
Ġ; \
Ġkr iauk
ĠC he
Ġziur etu
ag ys
Ġpasak ojima
osi omis
Ġkom it
oti ka
ĠGal e
Ġtar e
Ġnen uo
ib osta
Ġnaud ingo
ĠAr tim
Ġh ell
Ġh appy
Ġsen ais
Ġisl iko
Ġisl aisv
ĠH appy
Ġpasir enki
Ġnetur ime
Ġnesu tik
Ġnauj ien
yl io
Ġbr e
ate ina
Ġkuri om
____ ___
Ġal is
Ġreikal ingu
sn iu
Ġint elig
Ġband et
Ġband eles
Ġati trauk
Ġpaziur u
Ġsm aug
Ġsm ail
ĠNe ats
ĠAn ti
?? ???
Ġgam inius
Ġpab uciu
Ġpirm uosius
Ġnepas iras
Ġam ul
Ġjuod osios
if as
ĠTur int
Ġtiksl aus
Ġzem elap
Ġmais ai
Ġnak ty
Ġpriklaus omas
Ġprog ai
Ġveid ai
Ġban anai
Ġban anus
Ġrod iklis
Ġbat er
Ġpatar imais
Ġpatar tumete
Pr inc
Ġpamat ysiu
Ġpamat ysim
Ġsunku mu
Ġatsis uko
Ġpaklaus ia
Ġproblem omis
Ġstipr esni
Ġzenk lais
ĠNet rukus
Ġ0 2
Is vis
Ġpapild omus
inej om
Ġstu bur
Ġkos es
Ġprogr es
Ġjaun uolis
galv oju
Ġneap g
Ġnaudoj imui
Ġklasiok em
Ġsiaub e
inink yste
Ġbai miu
Ġskaud eti
ĠTr um
Ġneat kreip
Ġuzsak ovas
Ġvald yma
ĠPa ysera
Ġnup irks
Ġuzdirb tu
ikr eip
." "
Ġisr aisk
lis h
Ġtes tai
virtin o
Ġteik i
Ġklaid inga
Ġkul nu
Ġserial ai
Ġpasiek s
Ġpasiras yta
Ġnesus it
Ġprival omai
Ġmu ch
Ġrem iasi
Ġgarb anu
Ġkor up
Ġsez one
Ġkonkr ecia
Ġpild ant
Ġpild osi
Ġkaim yno
Ġpazym oje
Ġpazym ejimu
Ġdalyk eliu
Ġlank au
Ġdet ek
Ġaukst esne
Ġnenus il
Ġsrit y
ĠNer eik
tel ejau
isu ko
Ġleid imus
Ġfinans iskai
Ġkin ez
Ġpaslap ciu
Ġrekomend uojama
Ġpapasak os
Ġuzsim an
Ġneig alus
Ġneig iamu
Ġskamb ino
Ġisn yks
Ġneras ysiu
Ġvalstyb ines
Ġvalstyb inio
Ġpatikr inima
Ġsutik tu
Ġisitik inus
Ġpabaig ti
Ġpolic ininkas
Ġsugr audino
EL E
atyv us
lys ti
Ġdidziu ojuosi
Ġsocial ine
kaz kur
ĠPar istu
Ġgalu tine
Ġblakst ien
Ġrug st
Ġsunk aus
Ġsunk iausia
Ġkamuol io
Ġkop ijas
Ġsusirg t
ĠPris im
Ġpaskir st
Ġsuras yta
Ġaptar ti
Ġprisimin imai
Ġkras tas
Ġvirtuv ej
Ġprezid ente
Ġsulauk iau
Ġivertin imas
aw r
Ġnub ego
Ġissiaisk inau
ĠNauj as
Ġnemeg au
ĠPapras ciausiai
Ġporeik io
ĠPirm oji
Ġmon op
Ġnusil akuoju
Ġprot est
Ġobjek tai
Ġbar zd
Ġuzaug o
Ġsusipaz inau
Ġpadovan ot
pati ja
Ġkokyb iskas
ner eikia
Ġso ciai
Ġpokalb is
Ġlyd eris
vil le
ĠEd vardas
Ġnepras o
Ġkamuoliu kas
lia cija
ĠUS B
Ġsudeg e
Ġnesud er
Ġpriaug ti
Ġnuostat os
Ġnesitik i
ĠPay P
Ġkategor iskai
Ġatskl eidzia
Ġismes t
Ġsusirink imas
ĠLatv ijos
Ġlaz da
Ġbuteliu ka
Ġnetink ama
Ġsmur t
Ġpapuos alai
Ġmotyv acija
Ġliez uvis
okr atai
Ġtun eliu
top ic
ĠTe oriskai
oss ip
ĠPetr iuk
Ġred ag
band ziau
Ġpajam omis
Diev e
Ġpavyz dziai
Ġpatiksl inti
Ġlunatik e
Ġkeiti mas
Ġpersiv alg
Ġnebais u
ĠDog ma
ĠOz olas
ĠSaun uolis
Ġsimb oliu
Ġaut omatiz
Ġdzemper is
ĠPur ple
ĠJum is
Ġuzpil dziau
Ġpedsak u
Ġpedkeln iu
Ġdaa aug
ĠSpir itual
Ġklavi atura
adow Of
Ġuzdraud e
Ġranksl uos
ĠBM W
Bern iukas
Ġpinc etu
' ?
8 5
> .
? ),
A bu
C K
K O
M ax
N egi
O i
S iu
S kait
S unku
S varbiausia
U Z
Z alia
c ol
l eris
n iukas
p sl
ai gi
Ġp eda
Ġp oter
Ġt irs
Ġk ams
Ġs onus
Ġs top
in aus
in oti
in vest
ar ko
ar ege
an ais
Ġne ju
Ġm art
Ġd ad
Ġb io
Ġir onija
Ġj av
er ku
ok iai
im oj
ur ta
ur to
el as
Ġr is
Ġl esi
Ġl eisk
or ganiz
Ġis ij
Ġis iskol
av aus
ab ejoju
Ġpas yv
Ġvis tik
Ġvis uma
Ġi vald
Ġbu kas
Ġbu tai
Ġbu kit
Ġbu wau
Ġman ek
Ġtik ejau
Ġat pr
ĠT vark
ĠN ivea
Ġdar ykit
Ġdar ykite
em b
em at
ĠP ala
Ġkur imui
Ġap tiko
ĠA iv
ĠS el
ĠS or
ĠS ab
ĠS ec
ĠS mag
ĠD is
ĠD oll
Ġf ane
tin ejau
Ġtur tinga
ĠM ies
ĠM ark
ĠM ike
ĠM iegu
ĠM ovie
Ġ( )
vo i
Ġnuo vir
ĠB arb
ĠJ K
ĠJ ame
ĠJ uolab
ing esnes
ĠV aziu
Ġras yta
Ġras lia
Ġats it
Ġats iminiau
Ġvien atves
Ġkas tus
Ġ: |
ĠO gi
Ġniek u
Ġpl unks
yb ems
aik ytu
auk i
auk t
tik iu
Ġsv iez
Ġdr amb
Ġgyv ul
ep ar
aid a
Ġpad ej
Ġpad iel
Ġim bier
Ġneb eziuriu
Ġveik imo
Ġval k
Ġner ysk
Ġprad iniu
Ġties i
Ġdabar tiniu
ĠE MO
Ġuzs iema
Ġmaz esnius
Ġ; ]
Ġnem an
Ġnem iegu
Ġkr yziu
Ġe c
amas i
ĠC it
Ġpak onsult
Ġpak albet
Ġgyven anti
Ġatrod yciau
Ġaps kait
Ġsal tis
Ġsal tinio
Ġnel egalu
Ġvar tu
Ġbl ynu
Ġskai tos
Ġsi ti
Ġtar ak
Ġpris iver
veik la
dar bo
Ġpras ymu
mo z
Ġatv yko
gr azu
Ġtoks ai
Ġ5 6
Ġh ibr
Ġsun iui
ter is
ĠPr id
ĠPr ada
Ġbr un
Ġbal ina
Ġal g
Ġor kait
Ġgalv u
Ġmeg o
asar os
Ġneis n
Ġneis ras
Ġband ele
Ġati dziau
Ġlyg men
anc er
Ġind ivid
Ġilg okai
Ġser ij
ting umo
Ġatl iks
Ġatl eido
ĠAn tak
Ġsti lio
Ġknyg ose
Ġuzd eti
Ġproc ese
tov as
Ġlauk elis
Ġpab log
Ġmed is
Ġmed iena
Ġpriv atus
Ġ8 5
ĠW ar
ĠW TF
Ġmoter isku
Ġsut varko
Ġmus ul
ykd avo
Ġch ron
Ġch ulig
Ġskait ymo
Ġpagr in
Ġsn uki
Ġsr uoga
Ġbat ukus
Pr o
ĠAt ejo
Ġplan uoti
Ġdom enu
Ġvykd yt
Ġvykd omos
ivaizd u
Ġtais yti
ĠIn gr
Ġpuik ios
Ġaug tu
Ġisv ad
Ġvid ine
Ġstipr ina
Ġismok o
Ġpagrind inio
Ġvadin davo
Ġneuz ilgo
Ġmoksl iskai
Ġx x
Ġkvep alais
inej at
Ġkiekvien ame
Ġbaig ta
Ġkart oja
Ġvadov autis
Ġtrump us
Ġorgan us
tadien io
Ġtelef onui
Ġsiaub eku
Ġskr y
Ġbrang ius
Ġsum ai
Ġlinks mu
Ġegz ot
Ġautomobil iais
Ġbur tu
Ġvald ybos
Ġkod eksas
Ġig auna
Ġsuv en
emp ti
Ġisr eisk
Ġsusij usio
ĠPat r
Ġteik iu
Ġsaug otis
Ġprasid eti
Ġbern iuku
Ġpasit aike
Ġsvaj onei
Ġnesus ik
Ġrys ki
Ġsez onai
Ġsaul eje
Ġpild au
Ġcentr u
Ġcentr uose
Ġnuspr es
Ġkompiuter ius
Ġfot ke
ĠSp ecial
Ġkak ta
Ġkvap us
Ġrub as
Ġakim irk
ff le
vie tes
Ġivyk ti
Ġnesveik i
Ġnesveik o
Ġegzist avo
Ġvertin imo
Ġblond iniu
ĠSt one
nd a
Ġpamirs ta
Ġsaras us
Ġneig iamai
Ġsand eli
Ġprinc as
Ġvarg sas
Ġsudet ingiau
Ġvalstyb ine
Ġnuolat inis
Ġsutik au
Ġsutik ciau
Ġsutik imas
Ġpriim tas
Ġgen ial
Ġbals ai
Ġsamp ano
Su tinku
Ġangl isku
ĠSus ik
ĠSv edija
Ġsamd yt
Ġdesim tis
Ġjurid iniams
Ġdras k
Ġdaktar us
Ġpaveiksl iuko
Ġveidrod ziu
Ġveidrod yje
Ġkrem us
Ġskyr ius
Ġsunk ios
Ġnesin or
Ġlek ia
apl auke
Ġabs trak
Ġkiaus ini
Ġikur e
Ġsyps osi
Ġtak u
Ġneteis us
ĠPet rai
Ġprisimin imus
Ġisid edu
ĠHar i
Ġex per
Ġsulauk e
nep amenu
Ġapsis prend
ĠKlaus yk
Ġzuv i
Ġpriskir iamas
Ġnetr adic
ĠAv inas
ĠPR IES
Ġmarket ingas
Ġgink la
Ġprisijung us
Ġpaved imus
Ġkaul us
Ġhip nozes
Ġisik un
Ġpavoj ingas
Ġpaskelb ti
Ġpyk ina
Ġeurop a
Ġatk ak
Ġgasd inti
ĠSl ykstu
uuuu uuuu
Ġnemieg ojus
Ġnegyv a
Ġprat esti
oooo oooo
Ġverti mas
Ġprisis tat
ĠSum ok
itrauk ti
Pagal iau
Ġisimyl ejau
Ġissipild e
Tar p
Ġisvard intu
Ġrysk ios
ĠRam inta
ĠParas yk
ĠAg ne
Ġlim on
Ġslams ta
Ġbild ukai
Ġkompens acija
parduotuv es
ĠNebu tina
ĠMen ulio
Ġrutu li
Ġburbu las
Ġissilav inima
paslaug os
Ġsuder inti
ĠBU VO
gyven ciau
Diev inu
Bl ond
ĠMAN O
Ġsch ool
ĠPap ild
Ġpriemon em
Ġkent eti
ĠAc tivity
Ġapsimok es
ĠAT S
Ġuzsidirb t
Ġbedarb is
Ġment alit
Ġsusib ur
Ġsusib endr
Kom piuter
Ġbevil tiska
Ġsaldytuv a
Ġmazmen ine
Ġdividend us
Ġipro ciu
Ġaiski areg
Ġtapat ybes
ĠRyt oj
Ġpasitikr inti
ĠDelf is
Ġvars ke
Ġsvaist ymas
Ġneskaud ejo
Ġciul p
Ġindus tr
Ġgrietin ele
Ġproporc ingai
Ġnevart oju
Ġgym io
Rezis ierius
Ġbankro ta
ĠAmaz on
ĠSkambu tis
adowOf Dragon
9 7
: .
B una
D ev
F u
G I
G y
G od
H O
H a
I t
P u
P IE
R us
S uk
S iun
S vaj
S tud
V il
V yr
b ern
d et
f iti
h l
h mm
k ap
m uose
p ig
r or
s iek
t ok
v anden
w as
Ġ imasi
Ġp ump
Ġp ff
Ġp ecius
Ġt ers
Ġt etos
au ka
Ġn ais
Ġ< ...>
Ġs ind
Ġs ajungos
in eta
ar ke
ar tosiu
Ġne ee
al nio
Ġm adu
Ġm inistras
Ġv in
Ġv aj
Ġv ede
Ġb iskuti
es to
am ones
im ino
en at
el op
Ġr ais
Ġr inks
av imais
it hout
Ġz a
Ġpas o
Ġi formin
iek ais
Ġat e
Ġat z
ĠT ais
Ġnes ku
Ġnes ed
Ġnes mer
ĠN akti
Ġdar ot
Ġuz te
Ġuz ver
ĠP ff
ĠP aim
ĠP fizer
Ġkur si
ĠK er
ĠK se
ĠS end
ĠD Man
ĠD uok
Ġpat eks
Ġpat aike
ĠM A
ĠM aik
ĠM erc
ĠM aisto
Ġc ome
Ġper daug
Ġ( <
ig os
Ġmok e
Ġmok ymu
Ġmok iausi
ĠB it
ĠB ru
ĠB US
ĠJ AR
Ġpar sid
Ġvien atve
ĠG ra
Ġkar sto
aud au
aud ama
Ġniek uom
int am
Ġto oo
ip op
Ġpl eis
Ġsus progd
uoj ancia
Ġtr ank
Ġsv entas
Ġnu ims
Ġnu vertin
Ġgyv ate
Ġver ki
Ġnus m
Ġnus tos
Ġdel ei
Ġin jek
Ġsak ysi
Ġpad azu
Ġsav am
ĠR ytu
Ġkel iolika
Ġner eg
ic kas
zin as
Ġties inti
Ġmaz inti
Ġprie iti
up e
Ġnem ates
Ġe yes
Ġpak ras
Ġpak eli
var a
eng us
eng iuosi
ank iu
inu kais
Ġsal iai
Ġjo oo
isk omis
Ġklaus k
ĠZ adu
Ġpris ij
Ġpris eg
Ġnen ur
ĠU h
Ġan y
si im
Ġh as
Ġsen ute
Ġisl eist
Ġst yg
Ġst omat
ĠH ard
Ġsun aus
ild ys
Ġpapras tais
Ġmeg autis
Ġatsak ai
Ġnek ils
Ġtol yn
Ġsm ile
Ġpardav imais
Ġilg esnius
Ġbendr auji
Ġziaur iu
Ġser gi
yz ius
Ġpasaul inis
Ġvyr iskas
Ġproc entais
Ġjuok u
Ġislaid om
lo od
ci ates
las s
Ġkalb oje
ĠW W
Ġsumok etu
Ġdeklar uoja
Ġch r
Ġfak toriu
Ġnum irs
Ġnum erius
Ġof isa
ĠGr eta
Pr ancuz
Ġvaid muo
Ġmel od
Ġgaun ame
Ġgird ejas
Ġpatir tim
Ġpasik r
iziur ejo
ĠIn s
Ġbeg imas
Ġbeg liai
Ġzv ejoti
Ġsvarb iausiu
Ġklas iu
Ġisv yk
Ġmyl imas
Ġneblog os
Ġivair iomis
Ġklasi oka
Ġrud us
Ġprojek te
Ġjaun am
Ġnurod ziau
Ġreg ejima
Ġreg ion
Ġfiz ines
Ġ200 5
Ġkvai los
Ġspecial ios
Ġegz empl
Ġses eli
Ġakc iz
Ġeks port
Ġkab lais
ĠBr ad
Ġtes is
Ġsusij usia
Ġpaband e
ĠNep at
und a
Ġstor u
Ġkoment atoriai
Ġkirp ejas
Ġkirp ejos
Ġlap to
Ġkonkur so
Ġkonkur sa
An d
Ġsij on
ĠNE M
Ġnesus ij
Ġprival umai
Ġmu ilo
Ġnedar e
Ġparduod amos
Ġpild ai
Ġjud ejima
Ġet apas
Ġob uoliai
Ġnukr is
Ġapg aule
Ġvienint eliai
Ġprik ab
pat ys
Ġatsil yg
Ġrib ojimus
ĠDz o
Ġzym iu
Ġfinans inius
Ġpasiziur ek
Ġrag eli
nd e
Ġantr oje
Ġrasyt ojo
Ġautor e
Ġneras ta
Ġpasidal inkite
Ġsutik t
Ġmag ijos
Ġ17 0
Ġsiur b
Ġpalik tu
ĠSv ent
Ġsusitik imo
Ġste p
Ġvair uoti
Ġrom an
Ġruos tis
iel ektr
Ġatlik tas
OM A
Ġalkoh oliu
ĠFr ank
Ġzingsn io
Ġkiaus inis
Ġneaisku mu
Ġkeliau j
ĠZiaur us
ĠSh op
Ġprisimin us
Ġperziur et
Ġpu tu
Ġpu cia
Ġsuvalg yti
Ġzyd ai
ĠPal ang
Ġnenu veik
Ġnereikal ingu
fil mas
ĠSak iau
Ġ45 000
Ġuzsisak yt
Ġsaldain ius
Ġamerik ieciai
Ġmon ciuke
Ġ35 00
ĠSaul elydzio
Ġamziu j
Ġapsireng t
ĠStr aipsnis
nam is
CI AU
Ġbirz os
Ġda ys
ĠPra eita
Ġsruog as
Ġstiliu mi
Ġatnes ti
Ġsex u
Ġbiudz etas
Ġprancuz iskas
Ġtoler ancijos
ĠSl ovak
ĠNesupr atau
Ġskat inti
Ġinspek cijos
Ġankst yv
Ġplov imas
Ġplokst eles
Ġviolet ines
Ġislaik yt
Ġlaz eriu
Ġkraup us
fak tur
Ġburn oj
Ġnesuprant ama
Ġsmal su
Ġakimir ku
Ġorg anas
Ġskiepij asi
Ġpj aust
ĠAfr ika
Ġataug o
Ġmilijon ierius
Ġspint eles
Ġetik ete
Ġut eles
Ġbezdzi oniu
Ġminist erija
Ġviesbu cio
Ġruz ava
Ġatsto vo
Kl asi
Ġvab alu
Ġsov iet
Ġnaiv us
Ġdipl oma
Im one
Im ones
Ġisvaziu oti
Ġgrandin eles
Ġseksu alu
Ġapels inu
iop tr
Ġkisen eje
Ġliter atura
ĠPatik ek
Ġeti kos
ĠLiu tas
ĠRom ant
iskom for
Ġatbaid o
Ġdiktat ura
Ġsenam ies
Ġmikro auto
Ġsaw o
Ġgaid ys
Ġaw esome
Ġispaz intis
ĠiP h
Ġasor tim
Ġresur su
ĠBrit ney
Eg z
ĠSvarst ykles
ĠVokie ciu
ĠNob ody
Ġparv eze
ĠTNT guy
Ġcenti met
. ___________
7 00
> ,
B ab
B endr
B eveik
B lack
D eiv
E m
G im
H eroinas
J ap
L M
N A
P ac
R eal
S es
S kaiciau
V id
d aziu
d uok
g ie
k eliu
n uom
r ak
r eg
s ik
s up
s kr
s ake
v irk
y ciai
Ġ uoj
Ġ odel
Ġp esi
Ġt eiks
is p
Ġs om
in eliu
in ome
ie gi
ir te
iu g
Ġne jo
Ġm aik
Ġb iul
Ġb austi
ad er
am at
en oje
Ġr az
Ġr inko
Ġl eciau
Ġl ist
Ġl ipa
Ġpr ote
tu vo
tu ke
Ġis ves
Ġis analiz
ej anti
on io
ap t
om omis
om anti
eik siu
Ġpas a
Ġpas tr
Ġbu ka
Ġman dr
Ġat eini
uz tenka
ĠT urn
ĠT echn
Ġnes tab
Ġar che
ies a
ies el
id ay
em t
ĠP P
ĠP op
Ġkur ejas
ĠK U
ĠK ed
ĠK ul
ĠK emp
ĠK etvir
ĠA NT
ĠS aj
aus tu
ĠD b
ĠD amn
Ġpat y
Ġas tigma
Ġper p
Ġper pild
Ġper traukos
Ġper traukas
yt ai
pr iklauso
ciu ku
ĠB ei
ĠB atai
Ġreik ai
Ġreik iamu
ing v
ĠV eg
ot am
Ġras ymas
Ġras ydamas
ĠL id
ĠL itu
eis os
Ġ" ]
Ġkas n
ĠG or
ĠG ars
ĠG ied
Ġ: "
uos is
aud avau
Ġpl asti
Ġpl ota
yb ose
ama ji
ul a
Ġnep irks
un try
ez iau
Ġver ke
Ġim pl
Ġim antr
Ġveik eja
Ġdal inasi
ĠR eive
Ġpav ies
Ġpav art
Ġsp er
ic tion
Ġbus ima
Ġbus enos
Ġprie vart
st anti
ĠC K
Ġpak ait
Ġgyven si
Ġziur k
Ġmet ro
Ġkal nas
Ġpagal ves
Ġvel ykas
ĠGal ejo
Ġpinig elius
Ġpris iskai
ino fobija
Ġnen es
Ġatv eze
Ġnaud ota
Ġpal ep
Ġst ogas
Ġnebu t
ut ese
ĠF AK
ĠF ainas
ĠH om
ter ds
ĠPr anes
Ġnetur im
vis as
Ġbuv ima
Ġasmen inems
ern atural
Ġjuos teles
Ġreikal ingus
Ġparas ius
Ġ4 50
Ġkv iete
Ġkv iesti
Ġsau ksta
Ġnepr ik
Ġblog us
Ġsm il
Ġpardav es
Ġpil st
Ġpil ni
Ġpor n
ejus ia
yz iaus
Ġtoki oms
Ġsuk on
Ġlietuv iskus
Ġneg ail
eig iu
Ġsek anti
Ġmir tina
Ġvyr esn
Ġvyr esniu
Ġgam ykla
Ġkeis tos
Ġ6 66
Ġnepas ig
Ġsur ad
Ġsur uk
Ġsur enk
adien iu
of esion
Ġtiksl ai
Ġdeklar avau
Ġvirs ij
kir st
Ġnesupr atai
Ġeur ai
ins ime
Ġsr uogos
ĠGr yb
Ġvir to
Ġreal aus
Ġsug adina
Ġpateik s
Ġsusir inko
Ġmel uot
Ġmel ynu
Ġpamat ysit
Ġvykd omas
Ġem esi
Ġspr ogo
Ġzv elg
Ġsvarb iausi
Ġeg lute
Ġsok i
ps ich
Ġkons titu
Ġprak eiks
Ġ0 8
Ġsuzin otu
Ġmoksl eiv
Ġ12 00
Ġpapild omo
Ġisk elti
Ġklasi okiu
aliu kais
Tik iu
Ġnurod ai
Ġtrump ais
Ġpasis eka
Ġskr andziu
Ġkvai lys
Ġkil tu
Ġbur eja
Ġsird imi
Ġpatog i
Ġuzsid eti
Ġkrauj yje
Ġatskir i
AR A
Ġsald u
Ġvanden y
Ġstor io
Ġdeg ina
Ġtaup ysiu
Ġskelb imuose
Ġai ks
Ġkor espond
Ġkonkr etu
Ġmergai ciu
Ġkaim ynes
Ġgaus it
Ġpazym eti
Ġlank iau
Ġnebe atsimenu
iskait ant
Ġth em
Ġvidu tine
ĠSp ort
Ġlink usi
Ġiz ym
Ġgryn aisiais
Ġatsik elia
egul iu
Ġatr ibu
ĠSt an
Ġpasig ail
Ġpasig inc
Ġrasyt oju
Ġrasyt oja
Ġmalon umui
Ġpasidal int
Ġpatikr inimas
ber t
Ġkonsult antas
Ġpranes imai
Ġnorint iems
Ġpriek io
Ġteig inys
Ġpabaig ai
ĠMaz a
Ġkompleks ai
Ġez era
Ġdidziu les
Ġpsicholog ine
Bu halter
Ġisband zius
200 7
Ġuzsiim ant
Ġuzras a
Ġsoliariu mu
Ġruos iesi
Ġnagu ciai
Ġlang as
Ġkamuol ys
Ġsnieg ynuose
Ġrand ai
Ġsusirg au
Ġtobul inti
ĠDraug es
Ġkred ita
Ġpunk te
ĠPet er
Ġex cel
Ġcivil ines
Ġsulauk us
ĠAk toriai
Ġtruk ti
Ġpaskai tas
Ġpadid ina
Ġvartot ojui
Ġteleviz orius
af e
Ġpasal pa
Ġgarant uota
Ġvon ioj
kom piuter
Ġluz ineja
Ġpand em
ĠKit os
ĠEn g
Ġlic encija
Ġmarket ingu
Ġhe art
Ġpraktik uot
Ġkaul o
Ġfunk cijos
Id om
Ġrak tus
Ġzveng iu
Ġperson azas
Sk ype
Ġcitr inu
Ġkantr ybe
Ġenerget inius
Ġnusikirp t
Ġtradic ija
Ġtim pos
____________ ___
Ġbuk les
Ġsavik ainos
Ġnesamon ingai
Ġpatiek alus
OV E
Ġnoretum et
Ġrelig ijos
Ġsluoksn is
Ġatsidur e
Ġsauks tu
-------------------------------- --------------------------------
Ġkryp timi
Ġmik ros
Ġadvok atu
urd er
Ġpropag and
Ġpasiruos ti
Ġgiminai ciu
Ġavar ijos
Ġgerk les
Ġuztr uks
Ġkriti ku
EJ O
Ġbalk one
liumb iau
Ġtrau ka
ikiu ra
ĠPrezid ento
Ġarkl ys
Ġut eliu
Ġbezdzi one
Ġsugriz o
Ġakivaizd us
Ġnesio ciau
Ġigu dziu
adi atorius
Ġsimps onus
Ġpaste beta
UU UU
Ġund ines
Ġtrail er
Ġcr yst
Ġkeiti mo
ĠDi ane
ĠEgip te
Ġgrai ku
Ġaikst ele
Ġpasij utau
ĠApl amai
Ġliku cius
Ġpubl ika
ĠUn ivers
Ġpakliu vo
Ġived imo
sion al
ĠHol iv
ĠIg n
Ġniuans ai
Ġopoz icija
Ġpapu ga
Ġautobus o
Ġnekon troliu
Ġpakei timai
Ġloter ija
.____________ _
ĠBaltarus ija
Ġnepanas u
Ġmakar onus
ĠLit tle
ĠTE IS
ciuke a
Ġplanet oje
Ġplev ele
Ġpoil sio
ergi A
Ġric inos
ĠIstat ymo
ĠDV D
ĠSkorpi onas
Ġskraju tes
ĠRet karciais
Ġfon do
Ġrakt az
Ġatkr enta
Ġopti mal
Ġatei ciai
ĠDrusk ininku
ĠBri Gy
Ġhaliu c
) ..
* .
. --
B uk
D S
J OS
L aim
N G
R ed
R ez
T rue
c ini
d ie
d ymas
d esim
f ar
f on
h on
j ur
k elb
k onom
l aisk
l oll
n eles
p is
w e
z iauru
Ġp df
Ġt ra
Ġt ete
Ġt eka
Ġk irs
Ġk vart
au kas
au tum
is tiskai
Ġs aid
in edamas
ir i
ar ius
Ġne ed
Ġne ip
Ġne vald
Ġm ys
Ġv ia
Ġv eze
Ġd uota
Ġd air
es kit
at siprasau
am is
ur o
el ines
Ġl eles
Ġtai kl
Ġpr esti
Ġis iziur
Ġis trauka
oj amo
on te
Ġz yz
eik i
Ġkai ta
Ġpas iju
Ġpas tom
ij asi
ra cijos
io tas
il yn
uz u
ĠT S
ĠT ul
ĠT ime
Ġdar es
Ġuz jauciu
... *
ĠP os
ĠP iku
ĠP SI
Ġkur ybos
Ġap ps
ĠK irp
ĠK AM
ĠK okias
ĠS iame
ĠS enai
ĠD ra
ĠD ays
Ġf enu
ĠM etu
ĠM uzika
ĠM erkel
Ġc eb
Ġc ry
Ġc oca
Ġper trauk
Ġper fect
Ġger oves
Ġnuo tak
Ġgr io
ciu kai
Ġmok ymus
ĠJ O
ĠJ ak
and zin
Ġats kaiciu
ĠL ank
ĠL uc
ĠL engv
ĠL ady
Ġvien ur
Ġ" ...
yk h
ĠO ziarag
iz ain
yb inio
Ġsus uk
Ġsus kaiciuoti
Ġtr ileris
Ġsv ai
tis k
tis kos
ov imo
Ġnus kai
Ġneb esk
Ġveik ianti
Ġdal ina
Ġdal inti
ĠR ow
Ġes ancio
Ġner ukau
Ġsp j
ic iom
Ġmaz um
Ġiss kai
Ġ; *
up i
Ġkr eb
Ġkr isti
ĠC D
ĠC mil
Ġgyven antys
Ġpaz astys
Ġaps viesti
Ġdid ysis
Ġnel eistu
Ġnel engva
ĠZ aid
Ġdaz ymo
vai l
Ġkom for
Ġbl in
yd ai
Ġpras iau
Ġnaud ok
Ġh ero
Ġisl iks
Ġisl eista
Ġst alu
ut ur
ĠF ight
ĠF ainai
Ġmes kiu
Ġpasir inks
Ġpirk es
Ġnetur it
ĠVis o
op o
but yje
ĠTik iuos
Ġpapras tam
akar onas
ĠNes enai
ver e
Ġkn is
Ġnepr ar
Ġnepr iskir
Ġned er
Ġpil i
man i
siu osi
Ġab iej
ug e
Ġpor u
yz au
Ġlaik iau
Ġsuk eli
Ir gi
Ġlietuv iski
teb iu
?? [
Ġnenor malu
Ġtev am
Ġtev eliai
Ġdem okrat
vir us
ĠW ho
Ġindividual us
ĠY pat
Ġdeklar uosi
Ġdeklar uodamas
Ġmais o
Ġch eb
Ġbij odavau
Ġrink inys
Ġvard inti
Ġsed ejom
ĠGr it
Ġnemok es
Ġreal ios
Ġsusir ado
AB AR
ĠAt si
Ġpasidar ys
Ġnusipirk ciau
Ġsvies ios
Ġsvar kas
Ġzv ieg
Ġistat ini
Ġvid umi
Ġeg ip
:) ))
ieg o
ĠNet eko
Ġx a
Ġrek ord
inej am
Ġreiks m
Ġjaun ystes
Ġneap sak
Ġreg ul
Ġrus ija
ow er
Ġneats il
Ġpasiul ytu
Ġvisok i
Ġzurn alai
Ġ200 1
Ġ200 4
Ġpuslap iai
ĠKar al
Ġvy na
Ġpasirink ima
Ġkap s
Ġvais tinese
Ġbrang aus
Ġsum ont
Ġbai giant
ĠTr ec
Ġuzm us
Ġdraud imai
Ġstud ent
Ġstud ijos
Ġgyd ytis
net gi
ĠCh arl
Ġuzdirb au
ĠDr akula
Ġimon em
sp ecial
Ġisr inko
Ġsiul oma
irks niu
Ġteik iate
Ġsaug ot
aut y
Ġgrup i
Ġkirp ykloj
Ġserial us
Ġpasiek es
Ġpasit r
por tu
ĠNE R
Ġkor tos
Ġmergai tei
Ġpral eidzia
Ġpral eido
Ġjud ejo
Ġkazkoki om
Ġisb eria
Ġkarant ine
Ġatsidar es
Ġth ere
Ġth ings
Ġun iv
ĠKazk iek
Ġprogram uoti
ĠAts ip
Ġsusik los
Ġsusik oncentr
Ġskirting ose
Ġakim irksniu
Ġsugeb esi
.; /
insiu os
Ġzym eti
Ġkin ieciai
Ġrekomend aciju
Ġefek ta
Ġgimtadien iu
Ġautor ines
Ġneras yk
Ġdarz elio
our c
Ġitrauk e
EN D
Ġisitik inimu
Ġmegstam iausios
vien am
ĠMaz oji
Ġsiur ks
Ġpraeit o
Ġapmokestin amu
200 6
Ġuzsiim ineti
Ġuzras ai
Ġdaktar u
Ġkontak ta
Ġrieb alus
Ġmodel iai
Ġkrem o
Ġsunk ia
Ġsmulk ius
Ġsuprant ate
Ġkud ikis
Ġmad ingi
Ġnesp ort
Ġpaskir ta
Ġnepriklaus omybes
Ġprisimin imu
Ġorigin alaus
Ġistr inti
Ġprezid ent
Ġprezid entu
Ġnekal ba
Ġnub egau
Ġpriskir iamos
iskaiciu oti
ĠPapras tas
ili oja
Ġpabeg iot
Ġstar tu
Ġistai gu
Ġneaps ir
Ġstamb iu
Ġbas e
Ġapsireng e
Ġbang as
Ġprag ara
Ġkokyb isku
Ġport ale
kal bu
Ġrugs eji
Ġpaskelb ta
Ġzad ejau
Ġsvarst ykliu
Ġsiau liu
Ġrizik inga
ĠMel yne
Ġnusib osta
Ġpavarg us
Ġenerget iniai
Ġnekreip ia
Ġinvestuot ojas
Ġpatyr iau
Ġeid avo
avi ciaus
Ġtamp ama
Ġnoretum ete
Ġkategor ijos
Ġkomerc ines
Ġgeb ejimus
Ġbab kiu
ĠLatv ijoj
iuz ik
Ġnepers kaiciau
Ġbom ba
Ġliz do
Ġspalvo tu
Ġkabin eto
ĠSimps onus
Ġatsirad us
ĠNebu vau
Ġdziu ng
Ġobuol i
Ġnuotyk iai
Ġpremj ere
Ġperspektyv os
Ġpavyz dzius
tisku mo
Ġuzsimer kus
Gyv ent
Ġnebij ok
Ġsov ietu
Ġmasin oj
Ġantsp audo
ĠKlaiped oj
Ġissam iau
Papras tai
Vai kai
Ġlan kas
Ġhoroskop ai
Sen iau
LA US
Ġisrysk eja
Ġkurj eriu
ĠOl iv
Nen oriu
Ġnesijau ciu
Ġploks cia
ĠTi Na
Ġpasivaikscio t
Ġisidarb inti
ĠSpe ars
Lyg iai
De ath
Ġigal ioj
Ġpusant ru
Ġbendram inciu
Galv ojau
Ġnepatar tina
ĠEks per
Ġsaj unga
Ġipl auku
Ġsunkvez im
ĠDziaug iuosi
Ġgraib ymo
Trump ai
Sit ie
look book
BB a
ĠVIR US
ĠSaus io
Ġdvigu ba
loll ipop
. __________
/ "
< ...>
C SI
G l
I B
J a
K okius
K etvir
N ano
O F
P ica
P aband
S av
S ek
S orry
T er
_ )
f low
g et
k y
l in
l av
l em
l erio
s y
s au
s varbu
u us
Ġt onu
Ġt ipa
Ġk j
Ġn ros
Ġn ike
Ġn ostalg
Ġs liu
Ġs eb
in ejai
in edavo
Ġne ir
Ġne mas
Ġne esme
al vos
Ġm eti
Ġm ez
Ġm emor
ti ku
Ġd ioptr
Ġd iskomfor
Ġb ap
Ġb ook
Ġg or
Ġg ard
Ġg niu
at rod
et te
im ones
en erg
iau ju
Ġr id
Ġl i
Ġl oj
Ġl auks
Ġl ef
Ġpr epar
or ek
or eal
Ġis buti
az es
oj amu
Ġz as
Ġz en
Ġpas ius
Ġpas vies
Ġpas amon
Ġvis alaika
Ġi plauk
Ġgal ais
ien tai
il tas
ais tas
ĠN ote
ĠN eziuriu
em onstr
Ġuz kas
ĠP ig
ĠP elnas
ĠK le
ĠA C
ĠA uk
ĠA ist
ĠA ga
ĠA ch
ĠS et
ĠS om
ĠS eksas
aus te
ĠD ama
ĠD vas
Ġf ik
Ġf sio
tin tis
tin son
Ġnor mos
Ġnor edama
eg raz
Ġtur istu
Ġtur ejes
Ġas tra
ĠM ac
ĠM ilk
Ġc ap
Ġc iur
Ġc enz
Ġper kr
Ġper ver
ciu osi
ĠB es
ĠB id
ĠB ank
ĠJ ennifer
ĠI II
ing omis
ĠV U
ĠV idu
ĠV AR
Ġkaz n
ima ges
bu kas
bu halter
bu cket
tr us
tr ump
ĠL em
ent aliai
yk iai
Ġsk vern
Ġkar ine
aud z
to bul
te ch
ĠO R
ĠO ff
int ojai
Ġpl e
Ġtikr am
yb iniais
Ġsus tr
Ġpo el
ras u
Ġsv ytu
un ik
Ġant gam
Ġdr ib
Ġnus ove
Ġfil ial
Ġsak om
Ġsak ydamas
Ġpad ekit
Ġgraz iausiu
Ġgraz uoliu
Ġveik e
Ġdal ele
ĠR ol
ĠR ask
Ġid ekit
auj os
Ġsp eti
ic es
ic tor
Ġtas kai
ĠE ver
Ġuzs tato
men es
Ġ; :)
up s
Ġnei ciau
Ġtiek ejams
Ġziur ovu
Ġmet iniu
Ġpaz et
eng ta
Ġatrod ysiu
inu ko
Ġaps varst
Ġdid ina
Ġkal tinti
Ġ3 60
isk oji
ang r
ang us
Ġnel aik
Ġnel iep
Ġvar yti
ain uoja
Ġsi omis
ist uoja
Ġpris idaz
Ġpras imus
Ġpras ymas
ib os
ib eg
ĠU t
Ġatv eza
Ġnezin oma
aul i
aul iai
Ġidom esniu
Ġsen ukai
Ġisl eid
Ġst azas
ut ies
ĠH ugh
ĠH ugo
Ġpasir eiksti
Ġpirk ejus
Ġlab ir
Ġnauj ieji
yl is
Ġplau kas
vis iskai
Ġbal inimo
ind au
Ġatsak yta
Ġmin etu
Ġvaik inam
Ġw inamp
ĠPas is
Ġnek vies
Ġsl ink
Ġsl aun
Ġint egr
Ġnepr ie
Ġnepr itariu
Ġband ant
Ġband ymai
Ġpaziur eciau
Ġsm erk
man n
man tiki
Ġmas inai
anc ioje
les t
Ġbendr ijoje
Ġab iems
Ġpers al
Ġpers isteng
tur ejau
Ġlaik omos
Bet o
ĠAn ime
ĠAn ton
ĠAn yway
Ġlietuv isko
Ġneg avo
Ġneg ausiu
Ġmir ks
Ġvyr isku
Ġgam ini
Ġpab undu
Ġtarp ininkai
Ġnenor ite
ne butinai
Ġkeis ciausia
Ġmoket ojams
Ġdem e
oc al
Ġkalb omis
Ġkalb ejom
Ġpirm akart
Ġnepas ako
forma cijos
ĠY o
Ġsukur i
Ġvirs ijus
Ġch i
Ġsiek e
oto bucket
Ġplauk eliu
Ġpatik imas
Ġsn iegu
Ġisg irs
Ġisg eria
Ġnetik ras
Ġban kuose
Ġvir p
Ġbat eliu
Ġfilm ukus
Ġpateik us
Ġsusir ask
Ġsil ikon
ĠBu tina
Ġlig i
Ġisp anu
Ġvaid entis
Ġmel ynai
Ġpamat em
Ġnar iais
Ġtink amos
Ġtink lai
Ġtink amus
[...]
